NE 100
LI 100
LINE 100
NEW 100
▁NEW 100
▁. 100
DE 100
▁( 100
▁) 100
se 100
▁, 100
NT 100
DENT 100
▁= 100
▁' 100
▁se 100
re 100
▁: 100
▁sel 100
▁self 100
in 100
on 100
te 100
de 100
▁I 100
st 100
▁DE 100
▁IN 100
▁INDENT 100
▁DEDENT 100
▁" 100
▁a 100
▁c 100
or 100
at 100
▁_ 100
▁i 100
le 100
me 100
▁re 100
▁p 100
al 100
▁[ 100
▁] 100
▁f 100
er 100
▁s 100
▁de 100
▁n 100
ge 100
ar 100
▁e 100
▁t 100
ur 100
▁def 100
nt 100
ion 100
▁d 100
ce 100
an 100
▁in 100
ct 100
it 100
ro 100
ue 100
▁m 100
pe 100
ame 100
ser 100
▁l 100
▁if 100
ate 100
▁o 100
▁ret 100
ut 100
urn 100
▁1 100
▁b 100
▁return 100
ss 100
get 100
▁v 100
▁- 100
id 100
▁as 100
▁0 100
▁st 100
ot 100
ck 100
li 100
ra 100
▁N 100
one 100
fi 100
ing 100
sert 100
▁u 100
ri 100
▁w 100
he 100
▁assert 100
▁te 100
mp 100
nd 100
▁con 100
▁get 100
ode 100
ol 100
▁for 100
▁/ 100
lo 100
▁% 100
ter 100
▁None 100
ata 100
▁T 100
▁ex 100
▁{ 100
▁} 100
pt 100
ul 100
ke 100
il 100
ve 100
name 100
ype 100
▁+ 100
▁h 100
la 100
ad 100
▁S 100
▁r 100
qu 100
di 100
▁res 100
▁* 100
alue 100
ch 100
xt 100
▁is 100
gs 100
age 100
ath 100
▁test 100
▁co 100
up 100
▁name 100
el 100
ect 100
as 100
▁2 100
ult 100
▁F 100
▁g 100
▁== 100
ab 100
▁lo 100
ation 100
▁not 100
et 100
ile 100
un 100
ror 100
▁x 100
is 100
co 100
um 100
rue 100
▁ar 100
der 100
am 100
▁C 100
ime 100
th 100
es 100
od 100
ver 100
▁__ 100
con 100
que 100
ist 100
▁data 100
▁п 100
iz 100
bj 100
qual 100
▁id 100
vi 100
and 100
key 100
▁ap 100
▁set 100
__ 100
▁k 100
▁j 100
▁me 100
▁True 100
▁ad 100
ma 100
▁A 100
▁le 100
ption 100
▁par 100
▁el 100
ig 100
ort 100
▁в 100
us 100
▁pro 100
ub 100
ted 100
ance 100
ment 100
▁else 100
▁value 100
ction 100
▁P 100
type 100
▁< 100
alse 100
able 100
то 100
put 100
ew 100
▁с 100
ine 100
Equal 100
file 100
int 100
ith 100
ize 100
tem 100
op 100
quest 100
▁add 100
00 100
▁pa 100
ry 100
▁н 100
▁False 100
rror 100
▁ma 100
tt 100
▁str 100
Error 100
▁path 100
ow 100
▁assertEqual 100
text 100
fig 100
stance 100
ise 100
ent 100
▁> 100
▁y 100
ic 100
to 100
mat 100
▁user 100
fo 100
all 100
▁or 100
url 100
▁ra 100
▁file 100
▁to 100
ed 100
set 100
ta 100
▁M 100
art 100
res 100
▁3 100
unt 100
▁len 100
args 100
▁D 100
che 100
ock 100
ase 100
▁key 100
▁ch 100
▁R 100
ost 100
ть 100
eld 100
our 100
▁\ 100
▁di 100
pon 100
ns 100
▁result 100
per 100
ponse 100
ack 100
▁obj 100
ls 100
ен 100
▁ro 100
ра 100
init 100
▁E 100
tr 100
date 100
▁к 100
ff 100
▁en 100
po 100
pro 100
▁log 100
reate 100
▁и 100
ord 100
ap 100
▁np 100
out 100
▁out 100
▁args 100
path 100
▁and 100
bu 100
но 100
▁sh 100
ange 100
pec 100
ers 100
ource 100
pend 100
data 100
for 100
ро 100
▁type 100
en 100
▁request 100
vice 100
str 100
▁kw 100
ule 100
rent 100
▁raise 100
rom 100
▁os 100
dex 100
▁** 100
TR 100
lient 100
▁he 100
list 100
val 100
roup 100
lass 100
▁append 100
▁fi 100
om 100
та 100
pl 100
▁G 100
ind 100
▁exce 100
ag 100
▁по 100
ity 100
im 100
sc 100
error 100
▁L 100
ip 100
▁kwargs 100
▁time 100
▁о 100
▁4 100
.0 100
ssage 100
code 100
▁V 100
ет 100
mple 100
ader 100
▁B 100
ssion 100
atch 100
atus 100
ys 100
▁with 100
pa 100
sh 100
▁al 100
▁jo 100
value 100
▁STR 100
ure 100
▁url 100
mo 100
▁new 100
tent 100
▁com 100
▁context 100
time 100
dir 100
ive 100
▁col 100
par 100
oo 100
fa 100
odel 100
▁up 100
NEWLINE 100
ер 100
▁STRNEWLINE 100
▁format 100
▁config 100
▁response 100
cess 100
▁U 100
▁item 100
ial 100
ht 100
vent 100
ec 100
ory 100
ild 100
ans 100
▁д 100
▁do 100
▁O 100
os 100
ams 100
▁un 100
In 100
▁fa 100
▁pre 100
ask 100
▁node 100
▁create 100
son 100
ex 100
▁sub 100
▁try 100
instance 100
ray 100
ork 100
▁cls 100
▁list 100
lif 100
red 100
sg 100
rite 100
ли 100
ape 100
▁! 100
▁except 100
▁elif 100
▁int 100
ER 100
lic 100
ва 100
▁cur 100
▁start 100
lay 100
▁5 100
ner 100
▁H 100
ml 100
▁text 100
pen 100
und 100
ery 100
▁z 100
port 100
▁error 100
▁im 100
ies 100
▁object 100
▁м 100
ext 100
▁qu 100
ль 100
heck 100
▁val 100
▁на 100
dict 100
ay 100
▁+= 100
▁line 100
ри 100
nect 100
ume 100
thod 100
odule 100
▁sa 100
▁ser 100
▁mock 100
bo 100
▁join 100
ps 100
ator 100
pected 100
ute 100
▁pass 100
▁status 100
nc 100
ler 100
▁update 100
▁client 100
rint 100
late 100
▁num 100
AT 100
info 100
▁bu 100
ings 100
cal 100
ph 100
▁from 100
lu 100
col 100
▁field 100
▁db 100
те 100
lock 100
count 100
▁output 100
est 100
▁comp 100
ress 100
with 100
arget 100
ON 100
ject 100
ib 100
Con 100
ca 100
if 100
obj 100
Re 100
▁date 100
▁att 100
ptions 100
ger 100
▁instance 100
ant 100
▁tr 100
ore 100
▁write 100
▁Q 100
▁msg 100
за 100
▁fil 100
ary 100
uct 100
▁th 100
▁max 100
▁state 100
▁index 100
▁sup 100
▁0. 100
▁expected 100
uth 100
ition 100
ign 100
▁input 100
scri 100
▁check 100
▁has 100
ем 100
dent 100
▁W 100
test 100
▁ко 100
▁message 100
ес 100
▁read 100
py 100
min 100
▁run 100
size 100
▁group 100
ault 100
mand 100
ST 100
ight 100
tes 100
gin 100
▁print 100
ard 100
▁isinstance 100
ces 100
го 100
line 100
ber 100
itle 100
ни 100
low 100
ir 100
work 100
ty 100
ак 100
Name 100
ink 100
▁default 100
▁!= 100
pre 100
▁json 100
▁10 100
ken 100
add 100
ени 100
▁б 100
by 100
attr 100
▁не 100
ти 100
ersion 100
cation 100
md 100
load 100
▁ac 100
▁ч 100
▁info 100
plit 100
form 100
▁app 100
back 100
▁params 100
ll 100
▁q 100
tra 100
word 100
▁end 100
ла 100
LE 100
ся 100
▁content 100
own 100
▁host 100
▁model 100
▁po 100
util 100
ка 100
да 100
abel 100
▁image 100
loat 100
ны 100
▁dis 100
▁event 100
▁In 100
read 100
▁arg 100
mport 100
ception 100
▁py 100
ument 100
▁ge 100
ifi 100
▁class 100
ters 100
user 100
▁the 100
ttp 100
▁base 100
unc 100
ree 100
ac 100
ло 100
01 100
▁target 100
OR 100
IN 100
▁range 100
rect 100
lose 100
ribu 100
state 100
ann 100
▁query 100
config 100
mplate 100
▁header 100
fe 100
valid 100
og 100
Type 100
lete 100
▁6 100
ре 100
ari 100
▁trans 100
▁on 100
ody 100
arch 100
vers 100
▁an 100
▁be 100
▁8 100
map 100
▁super 100
▁dtype 100
▁version 100
▁size 100
fix 100
▁X 100
ang 100
▁open 100
▁dict 100
class 100
▁split 100
▁cont 100
ast 100
▁mo 100
▁parent 100
▁sys 100
com 100
lace 100
oc 100
▁ent 100
ren 100
St 100
etwork 100
olume 100
lement 100
mit 100
▁bo 100
rame 100
Ex 100
ust 100
▁call 100
▁filename 100
ield 100
ля 100
▁за 100
▁э 100
на 100
▁all 100
bs 100
ly 100
ко 100
▁session 100
▁; 100
▁row 100
▁objects 100
=" 100
move 100
RE 100
▁rep 100
▁count 100
▁exp 100
▁Value 100
▁min 100
main 100
▁module 100
▁Ex 100
▁Re 100
▁connect 100
▁source 100
▁mode 100
▁float 100
string 100
▁rec 100
bug 100
▁tra 100
▁project 100
uid 100
ite 100
▁label 100
gth 100
▁array 100
▁import 100
da 100
▁port 100
group 100
ft 100
▁у 100
end 100
ms 100
▁про 100
▁sc 100
▁reg 100
mb 100
ump 100
▁current 100
sed 100
▁shape 100
во 100
arn 100
iew 100
▁action 100
▁Con 100
ther 100
▁api 100
mail 100
ome 100
ME 100
orm 100
ait 100
де 100
len 100
act 100
ref 100
▁we 100
method 100
ron 100
▁load 100
32 100
▁values 100
▁filter 100
led 100
rc 100
▁pl 100
▁title 100
are 100
▁su 100
▁pos 100
▁act 100
ис 100
pos 100
vel 100
ync 100
▁table 100
log 100
▁ca 100
▁ax 100
▁ValueError 100
ull 100
▁no 100
unction 100
idth 100
▁rand 100
▁вы 100
lab 100
gra 100
field 100
▁other 100
from 100
tain 100
ines 100
▁? 100
▁find 100
▁task 100
▁resource 100
index 100
lob 100
Pro 100
no 100
pace 100
ded 100
▁| 100
ld 100
num 100
row 100
node 100
ID 100
adata 100
umn 100
tern 100
▁code 100
▁wh 100
▁save 100
1' 100
equal 100
▁init 100
▁param 100
ual 100
ick 100
по 100
mi 100
▁& 100
▁то 100
▁100 100
Id 100
▁const 100
item 100
▁doc 100
▁cmd 100
point 100
▁debug 100
▁# 100
ream 100
▁root 100
▁auth 100
ide 100
File 100
▁та 100
▁match 100
▁body 100
▁foo 100
ци 100
▁exec 100
ook 100
andler 100
▁ра 100
бо 100
ле 100
scription 100
ound 100
version 100
▁K 100
▁assertT 100
▁при 100
ст 100
ample 100
ton 100
▁ver 100
cur 100
▁options 100
▁part 100
▁П 100
ass 100
▁form 100
▁method 100
▁http 100
ne 100
▁items 100
List 100
annel 100
▁device 100
▁ns 100
ax 100
rap 100
tadata 100
▁post 100
qui 100
utils 100
create 100
ки 100
▁$ 100
amb 100
ises 100
va 100
its 100
▁valid 100
▁В 100
array 100
▁server 100
▁assertTrue 100
жно 100
play 100
▁pop 100
▁что 100
nsor 100
▁@ 100
fault 100
db 100
bject 100
indow 100
▁service 100
ak 100
▁of 100
▁fake 100
check 100
▁attr 100
ids 100
ager 100
lus 100
▁close 100
Res 100
urse 100
▁ф 100
rol 100
ated 100
utton 100
client 100
ди 100
cs 100
base 100
ched 100
rip 100
err 100
▁delete 100
ey 100
▁мо 100
▁command 100
idget 100
lib 100
ariable 100
▁per 100
AR 100
▁fe 100
ations 100
tings 100
▁logger 100
▁page 100
ffset 100
▁map 100
call 100
▁pack 100
ateg 100
comp 100
▁dir 100
ribute 100
▁pri 100
ep 100
об 100
▁parse 100
names 100
dd 100
▁string 100
tml 100
rst 100
ambda 100
ру 100
To 100
мо 100
ses 100
OL 100
Data 100
object 100
▁Get 100
▁datetime 100
▁tag 100
Ra 100
rt 100
result 100
▁last 100
request 100
ify 100
CT 100
▁lambda 100
▁std 100
12 100
reg 100
rig 100
▁"" 100
▁St 100
64 100
▁gra 100
lean 100
params 100
▁by 100
AL 100
▁child 100
▁ct 100
tring 100
); 100
▁fla 100
ви 100
anager 100
ists 100
▁""" 100
▁token 100
view 100
▁html 100
▁headers 100
De 100
▁remove 100
ix 100
lection 100
▁build 100
▁ip 100
update 100
▁req 100
▁make 100
ET 100
▁block 100
orted 100
ature 100
▁op 100
ave 100
andle 100
▁env 100
iv 100
▁это 100
▁7 100
▁-> 100
ds 100
response 100
api 100
▁random 100
▁network 100
▁tf 100
▁search 100
ctor 100
ark 100
▁sp 100
▁exc 100
otal 100
Raises 100
▁local 100
▁ref 100
▁volume 100
▁extra 100
RO 100
▁как 100
ION 100
▁var 100
▁12 100
▁stat 100
▁next 100
▁assertRaises 100
PE 100
ions 100
rate 100
▁back 100
not 100
sub 100
▁0.0 100
IT 100
▁inter 100
wer 100
message 100
▁со 100
▁replace 100
▁а 100
▁password 100
▁pk 100
Value 100
AB 100
▁func 100
▁tmp 100
action 100
nder 100
▁hel 100
ok 100
izer 100
▁settings 100
ten 100
▁err 100
хо 100
model 100
ql 100
▁parser 100
be 100
▁username 100
lobal 100
river 100
Up 100
▁send 100
older 100
CE 100
▁copy 100
table 100
▁J 100
cre 100
mon 100
▁view 100
▁keys 100
host 100
▁src 100
▁ed 100
tep 100
we 100
arg 100
▁от 100
do 100
ча 100
▁use 100
▁9 100
tri 100
▁Type 100
label 100
Ch 100
▁template 100
▁lay 100
▁email 100
▁show 100
▁my 100
dis 100
▁dest 100
▁pub 100
▁select 100
зо 100
rid 100
box 100
Not 100
format 100
mode 100
▁del 100
oi 100
▁order 100
▁Exception 100
ccess 100
input 100
gn 100
лу 100
▁top 100
▁course 100
▁200 100
▁lib 100
div 100
run 100
▁while 100
amp 100
duct 100
inal 100
ере 100
UT 100
ма 100
ется 100
▁Y 100
▁opt 100
output 100
space 100
process 100
ash 100
json 100
▁results 100
Co 100
inter 100
SS 100
parse 100
ops 100
▁sum 100
header 100
▁first 100
default 100
uple 100
▁temp 100
▁ut 100
AN 100
ging 100
start 100
shape 100
ors 100
▁об 100
▁spec 100
.1 100
context 100
▁at 100
вать 100
▁df 100
▁из 100
▁change 100
use 100
▁fields 100
iled 100
ures 100
▁warn 100
ку 100
▁resp 100
2' 100
чи 100
▁contin 100
df 100
Se 100
"> 100
▁work 100
module 100
ialize 100
▁Н 100
of 100
ffer 100
ong 100
▁uuid 100
Di 100
tainer 100
▁К 100
▁1.0 100
Par 100
max 100
lude 100
image 100
▁Un 100
onent 100
uration 100
link 100
io 100
face 100
▁description 100
▁cr 100
spec 100
▁conn 100
▁pi 100
▁inst 100
fil 100
swith 100
SE 100
▁aw 100
▁во 100
licy 100
▁record 100
▁ес 100
mt 100
▁old 100
var 100
▁entry 100
queue 100
▁continue 100
types 100
net 100
lication 100
men 100
_1 100
mpty 100
▁Pro 100
▁sy 100
ain 100
cale 100
▁metadata 100
direct 100
▁Test 100
ми 100
uto 100
▁ta 100
viron 100
▁strip 100
chema 100
▁xml 100
abled 100
ont 100
reak 100
ameters 100
struct 100
raw 100
vert 100
▁domain 100
▁dist 100
lugin 100
Ser 100
ding 100
▁gener 100
▁link 100
status 100
▁yield 100
ение 100
values 100
ister 100
ста 100
▁ne 100
▁address 100
▁connection 100
files 100
ments 100
pr 100
▁User 100
▁sign 100
не 100
▁location 100
▁exte 100
▁main 100
def 100
les 100
▁execute 100
uld 100
▁axis 100
page 100
Test 100
▁cal 100
cope 100
nce 100
▁De 100
▁async 100
pect 100
▁color 100
nap 100
▁orig 100
verse 100
ping 100
ript 100
ры 100
10 100
FI 100
▁channel 100
ATE 100
core 100
▁ph 100
Set 100
lat 100
▁total 100
ocket 100
ols 100
▁width 100
▁process 100
▁timeout 100
▁uid 100
trans 100
Field 100
block 100
feren 100
ert 100
▁exception 100
_2 100
ply 100
▁20 100
mission 100
connect 100
▁ре 100
rial 100
right 100
▁prefix 100
Text 100
▁да 100
ую 100
stamp 100
UL 100
Exception 100
sor 100
UR 100
же 100
▁но 100
▁files 100
▁raw 100
query 100
▁requi 100
▁1. 100
▁hass 100
Me 100
▁Set 100
AG 100
change 100
▁cache 100
order 100
▁logging 100
vis 100
ries 100
се 100
pi 100
ши 100
▁Not 100
thon 100
▁account 100
</ 100
OG 100
ng 100
▁oper 100
content 100
ения 100
▁sample 100
ution 100
▁до 100
xy 100
▁ctx 100
mary 100
event 100
luster 100
ай 100
▁mat 100
▁break 100
▁exists 100
▁idx 100
▁conf 100
iter 100
Time 100
AME 100
ible 100
▁я 100
pack 100
cache 100
server 100
▁RE 100
lease 100
ould 100
си 100
tail 100
ical 100
pp 100
▁length 100
▁encode 100
Ar 100
▁ст 100
▁job 100
▁ab 100
▁admin 100
▁` 100
lect 100
мен 100
▁play 100
String 100
length 100
pert 100
device 100
▁offset 100
rec 100
▁ис 100
▁global 100
▁fail 100
▁patch 100
orage 100
jo 100
▁net 100
▁bar 100
ud 100
ank 100
▁getattr 100
▁org 100
ormal 100
▁bool 100
ach 100
vider 100
service 100
▁inc 100
token 100
lines 100
func 100
▁setUp 100
▁await 100
▁lower 100
new 100
▁stream 100
ributes 100
umns 100
ncy 100
ts 100
ING 100
uri 100
perties 100
perty 100
▁bin 100
пис 100
kip 100
pc 100
ategory 100
▁char 100
▁number 100
04 100
resh 100
Col 100
▁stop 100
▁one 100
▁Data 100
ear 100
part 100
() 100
PI 100
ped 100
ill 100
OT 100
old 100
unk 100
▁бы 100
Path 100
▁us 100
0000 100
▁function 100
Is 100
ternal 100
▁mem 100
command 100
▁this 100
▁element 100
▁render 100
Item 100
OM 100
0' 100
mote 100
uter 100
▁frame 100
rix 100
▁lang 100
▁level 100
▁iter 100
▁для 100
umpy 100
const 100
stat 100
lem 100
TP 100
MB 100
▁column 100
▁Se 100
▁dump 100
itor 100
cond 100
▁can 100
1" 100
yle 100
Request 100
▁clean 100
app 100
▁constant 100
▁models 100
ifier 100
▁abs 100
▁found 100
▁meta 100
flow 100
лем 100
льно 100
▁utils 100
icode 100
ference 100
56 100
ected 100
CH 100
loc 100
▁environ 100
etch 100
▁rule 100
▁stdout 100
mock 100
▁HT 100
▁>= 100
session 100
про 100
ystem 100
до 100
▁help 100
▁eval 100
▁plugin 100
34 100
▁vo 100
▁product 100
template 100
ED 100
task 100
OST 100
▁errors 100
fg 100
store 100
doc 100
▁lines 100
▁TAB 100
oice 100
▁pay 100
▁decode 100
bin 100
▁кото 100
filter 100
▁По 100
vail 100
ameter 100
Po 100
▁batch 100
auth 100
igh 100
▁lim 100
▁С 100
▁height 100
▁No 100
tocol 100
▁full 100
Node 100
ration 100
▁unit 100
script 100
▁display 100
ttribute 100
shot 100
▁cli 100
▁Res 100
▁option 100
▁word 100
нны 100
coding 100
▁handle 100
Object 100
For 100
sp 100
▁fin 100
ас 100
▁startswith 100
▁wait 100
any 100
gg 100
▁Как 100
▁dec 100
nsion 100
Bo 100
▁hasattr 100
lear 100
▁ali 100
prot 100
pu 100
ustom 100
mage 100
▁vm 100
AD 100
02 100
▁так 100
msg 100
▁train 100
trol 100
▁pat 100
den 100
pri 100
atures 100
поль 100
▁Qt 100
SY 100
ole 100
▁point 100
▁utf 100
fn 100
napshot 100
▁Key 100
uage 100
frame 100
▁register 100
rib 100
dential 100
▁cs 100
▁driver 100
att 100
options 100
▁img 100
▁з 100
▁CON 100
Key 100
Config 100
▁package 100
▁reverse 100
▁now 100
here 100
CK 100
du 100
55 100
ell 100
▁TypeError 100
▁ids 100
rm 100
▁variable 100
root 100
▁control 100
source 100
мер 100
▁<= 100
cept 100
EST 100
▁mon 100
my 100
let 100
▁weight 100
gex 100
▁dev 100
▁раз 100
▁left 100
▁zer 100
▁sort 100
▁dt 100
temp 100
ulti 100
Dict 100
ches 100
▁compute 100
mented 100
pass 100
sum 100
▁ident 100
ities 100
▁pool 100
▁ну 100
virt 100
ci 100
▁bot 100
quence 100
su 100
▁nodes 100
cket 100
argument 100
las 100
Response 100
req 100
rans 100
▁все 100
function 100
ization 100
▁0.5 100
▁store 100
лю 100
YPE 100
▁е 100
▁example 100
▁serial 100
▁Z 100
ride 100
ве 100
ты 100
▁ST 100
Info 100
▁must 100
▁^ 100
fields 100
ttps 100
eta 100
address 100
ative 100
▁assertEquals 100
ification 100
range 100
ui 100
▁Е 100
EN 100
▁под 100
▁Ser 100
▁setup 100
▁vis 100
All 100
State 100
▁sw 100
imple 100
▁public 100
sett 100
▁Fa 100
SER 100
down 100
number 100
▁те 100
▁inputs 100
tag 100
fact 100
▁cl 100
MBOL 100
▁validate 100
called 100
FA 100
▁</ 100
keys 100
ту 100
meta 100
▁LOG 100
round 100
▁zip 100
ULT 100
chedule 100
volume 100
2_ 100
▁tuple 100
99 100
SYMBOL 100
▁HTTP 100
ran 100
▁thread 100
▁move 100
11 100
nown 100
▁numpy 100
▁position 100
▁assertIs 100
iss 100
▁TABSYMBOL 100
View 100
rop 100
▁cursor 100
▁assertF 100
del 100
▁login 100
▁Co 100
match 100
resource 100
▁system 100
ility 100
▁hash 100
derr 100
cted 100
ie 100
3' 100
fla 100
▁diff 100
DI 100
▁step 100
▁pol 100
▁cre 100
mplemented 100
title 100
write 100
ason 100
▁Error 100
cent 100
▁right 100
ized 100
тся 100
▁uni 100
▁stack 100
уд 100
delete 100
Model 100
serialize 100
manager 100
Class 100
ward 100
width 100
aster 100
▁entity 100
▁Add 100
LO 100
▁schema 100
▁Ес 100
24 100
▁mod 100
▁sql 100
▁window 100
MP 100
▁tree 100
Lo 100
Message 100
▁age 100
▁callback 100
▁sorted 100
NAME 100
▁eq 100
▁txt 100
element 100
▁mask 100
bar 100
▁direct 100
Index 100
▁names 100
lug 100
ret 100
▁graph 100
filename 100
▁assertFalse 100
▁исполь 100
▁over 100
▁widget 100
handler 100
▁real 100
level 100
her 100
ML 100
ек 100
ou 100
▁container 100
ined 100
▁down 100
▁plot 100
ning 100
sent 100
▁limit 100
rs 100
alog 100
▁tags 100
▁script 100
nel 100
▁allow 100
▁handler 100
му 100
▁rel 100
Size 100
16 100
entry 100
▁extend 100
▁16 100
▁success 100
▁Mock 100
▁skip 100
▁рабо 100
na 100
gle 100
ме 100
fs 100
▁socket 100
▁exit 100
▁Invalid 100
▁repo 100
ctions 100
▁dataset 100
▁attrs 100
▁layer 100
Box 100
▁coord 100
▁ка 100
▁есть 100
▁active 100
gr 100
dentials 100
▁fn 100
▁initial 100
pha 100
▁cons 100
нк 100
dia 100
Com 100
▁math 100
gress 100
▁пер 100
Fact 100
▁cluster 100
ics 100
▁struct 100
▁required 100
▁Ch 100
bose 100
uuid 100
лать 100
close 100
▁auto 100
build 100
vailable 100
project 100
вер 100
fter 100
hed 100
gment 100
зу 100
▁Me 100
hash 100
▁insert 100
▁application 100
▁File 100
location 100
▁true 100
▁зна 100
▁commit 100
▁da 100
alid 100
▁man 100
▁gen 100
▁argument 100
cate 100
atform 100
dices 100
opt 100
network 100
▁labels 100
iod 100
▁columns 100
Widget 100
▁И 100
). 100
▁фай 100
.2 100
1_ 100
rule 100
gnore 100
жи 100
structor 100
жа 100
▁enume 100
metadata 100
annot 100
By 100
ally 100
MA 100
vate 100
Add 100
lice 100
▁SE 100
▁ans 100
▁profile 100
mask 100
▁category 100
Out 100
prefix 100
ek 100
▁inv 100
▁web 100
▁remote 100
▁stderr 100
▁access 100
▁ass 100
сь 100
▁Д 100
wd 100
ный 100
▁inte 100
прос 100
ilder 100
▁'1 100
▁пере 100
En 100
▁можно 100
Un 100
olve 100
hel 100
▁ker 100
most 100
headers 100
cmd 100
▁site 100
▁ast 100
Lay 100
ote 100
▁clear 100
▁cfg 100
▁compile 100
Implemented 100
tree 100
Element 100
ке 100
03 100
▁// 100
Event 100
▁flags 100
▁should 100
tom 100
cp 100
▁enumerate 100
▁cor 100
ingle 100
▁payload 100
ции 100
once 100
▁report 100
▁author 100
▁An 100
mark 100
color 100
▁collection 100
stream 100
▁bl 100
ower 100
▁mark 100
ultip 100
lasses 100
▁полу 100
▁generate 100
sign 100
▁https 100
ня 100
column 100
vm 100
riter 100
▁uint 100
▁sq 100
▁queue 100
▁г 100
gine 100
сто 100
tensor 100
erson 100
▁normal 100
ob 100
▁15 100
▁verbose 100
2" 100
▁role 100
▁ext 100
▁force 100
▁font 100
UN 100
▁'2 100
лько 100
Group 100
▁actual 100
бы 100
tk 100
difi 100
option 100
▁sha 100
idx 100
▁void 100
▁include 100
▁namespace 100
target 100
hape 100
▁scale 100
Factory 100
000 100
kw 100
▁loc 100
With 100
▁failed 100
▁empty 100
▁put 100
arning 100
ous 100
mbol 100
reen 100
▁сде 100
▁ва 100
▁NotImplemented 100
top 100
вы 100
itch 100
▁ow 100
leep 100
fore 100
▁tx 100
sample 100
ES 100
▁comment 100
▁List 100
patch 100
▁String 100
▁стро 100
▁11 100
Frame 100
Instance 100
▁users 100
ше 100
Te 100
rapper 100
IO 100
▁assertIn 100
▁fetch 100
settings 100
▁The 100
▁ss 100
cen 100
gram 100
peline 100
▁convert 100
CO 100
▁stats 100
av 100
fer 100
copy 100
▁pytest 100
rge 100
▁Attribute 100
ideo 100
xml 100
stack 100
▁wx 100
untime 100
▁disk 100
ting 100
▁Option 100
button 100
▁comple 100
▁па 100
▁encoding 100
▁document 100
curity 100
post 100
▁zeros 100
ush 100
▁dumps 100
▁year 100
▁Th 100
IG 100
child 100
over 100
▁timestamp 100
▁буд 100
▁are 100
▁art 100
▁Т 100
▁section 100
▁parameters 100
▁style 100
▁sig 100
roll 100
Client 100
▁ли 100
FAULT 100
Num 100
▁pe 100
▁данны 100
▁201 100
ported 100
ready 100
From 100
▁cond 100
ked 100
tails 100
ор 100
ENT 100
вани 100
eff 100
IL 100
unter 100
ну 100
▁bytes 100
bytes 100
Map 100
dim 100
lot 100
▁ID 100
ating 100
pth 100
▁component 100
унк 100
▁CONF 100
open 100
graph 100
ходи 100
parent 100
istory 100
ги 100
▁ignore 100
▁Col 100
Le 100
▁provider 100
conf 100
exec 100
▁seq 100
Service 100
enter 100
Str 100
char 100
ector 100
▁metri 100
▁Lo 100
FF 100
px 100
ract 100
▁mean 100
iste 100
▁head 100
▁uri 100
only 100
gener 100
delta 100
▁exist 100
active 100
imal 100
record 100
▁Te 100
▁loads 100
esc 100
handle 100
▁нужно 100
▁GET 100
body 100
Result 100
mount 100
conds 100
ranch 100
raint 100
▁Name 100
okup 100
▁Time 100
sy 100
irt 100
▁POST 100
ground 100
man 100
idden 100
variable 100
▁если 100
▁warning 100
KE 100
ient 100
lis 100
щи 100
▁arch 100
▁button 100
ava 100
▁де 100
▁Http 100
gest 100
▁invalid 100
domain 100
па 100
weight 100
ummy 100
Qu 100
▁Par 100
▁created 100
known 100
place 100
▁href 100
▁cell 100
▁groups 100
▁activ 100
ще 100
conn 100
▁reset 100
▁subprocess 100
VER 100
Log 100
User 100
icle 100
loy 100
▁long 100
▁track 100
kens 100
▁storage 100
ware 100
Ent 100
▁grid 100
Bu 100
▁ts 100
Count 100
▁li 100
EX 100
▁attributes 100
vision 100
position 100
▁chunk 100
▁scope 100
ift 100
▁so 100
email 100
▁30 100
raph 100
Handler 100
▁expr 100
ling 100
tains 100
▁ме 100
▁buf 100
▁game 100
channel 100
Check 100
ntic 100
сле 100
ux 100
▁properties 100
▁non 100
80 100
▁pd 100
▁tab 100
▁работа 100
▁sleep 100
▁where 100
points 100
жет 100
ale 100
repr 100
сти 100
▁т 100
▁fname 100
▁8' 100
вля 100
issing 100
gen 100
profile 100
▁opts 100
▁кон 100
book 100
connection 100
▁О 100
vor 100
cc 100
parser 100
ates 100
▁addr 100
▁сделать 100
50 100
▁platform 100
▁language 100
layer 100
▁ds 100
ного 100
PT 100
▁policy 100
zone 100
results 100
зовать 100
search 100
He 100
board 100
current 100
▁core 100
Met 100
Found 100
▁alpha 100
last 100
рани 100
▁мен 100
со 100
ceive 100
3_ 100
▁'' 100
вить 100
wo 100
ду 100
▁Content 100
next 100
UP 100
Al 100
items 100
▁pattern 100
▁prop 100
addr 100
▁fill 100
▁feature 100
dio 100
tact 100
▁ep 100
▁Optional 100
ug 100
pression 100
▁fp 100
cret 100
бли 100
▁it 100
loud 100
▁prob 100
▁case 100
constructor 100
▁rows 100
▁brow 100
▁cap 100
▁dst 100
Button 100
▁raises 100
posit 100
▁ops 100
▁install 100
offset 100
make 100
рам 100
scope 100
TYPE 100
▁0.1 100
зда 100
▁которы 100
▁git 100
▁directory 100
▁iss 100
▁Com 100
step 100
▁aut 100
▁database 100
html 100
comple 100
▁fix 100
ias 100
roid 100
▁release 100
Mock 100
▁edit 100
callback 100
▁sess 100
allback 100
admin 100
▁original 100
lable 100
nu 100
Line 100
▁custom 100
hell 100
▁mk 100
▁children 100
rection 100
▁any 100
▁50 100
ener 100
.5 100
LA 100
▁signal 100
▁video 100
▁backend 100
inst 100
ной 100
ination 100
▁go 100
▁1000 100
▁dirname 100
▁agent 100
▁python 100
hentic 100
▁fit 100
ные 100
// 100
▁filters 100
lish 100
SI 100
nodes 100
vars 100
▁cat 100
▁функ 100
Context 100
dered 100
▁Ar 100
pool 100
-- 100
▁subnet 100
mem 100
▁desc 100
password 100
pub 100
▁cert 100
kwargs 100
cli 100
▁ten 100
local 100
лас 100
ffix 100
пу 100
▁ps 100
▁pick 100
▁''' 100
▁some 100
ATH 100
▁arr 100
▁interface 100
istry 100
▁Di 100
ango 100
▁unicode 100
▁player 100
▁DEFAULT 100
ular 100
▁ins 100
▁ни 100
▁Request 100
Form 100
pende 100
▁expect 100
ND 100
▁KeyError 100
▁snapshot 100
mbed 100
uble 100
▁или 100
account 100
▁loop 100
▁owner 100
ports 100
policy 100
▁gr 100
az 100
pat 100
parameters 100
leted 100
ho 100
▁знач 100
▁Py 100
▁side 100
▁types 100
mod 100
▁trace 100
▁bind 100
▁plt 100
▁imp 100
ancel 100
Get 100
▁common 100
▁М 100
case 100
пра 100
URL 100
VI 100
▁attribute 100
Trans 100
vs 100
▁topic 100
", 100
гу 100
▁ин 100
ified 100
▁edge 100
▁feed 100
go 100
▁changed 100
aml 100
asic 100
mbers 100
teps 100
▁tests 100
▁Sub 100
nection 100
plot 100
▁master 100
▁region 100
20 100
▁ui 100
▁tenant 100
▁Config 100
Dir 100
Window 100
78 100
heet 100
▁second 100
▁proxy 100
▁будет 100
▁MA 100
▁subject 100
чес 100
limit 100
▁events 100
▁selected 100
setup 100
▁dep 100
US 100
yn 100
▁util 100
▁tensor 100
▁\\ 100
шиб 100
▁have 100
RI 100
▁win 100
rary 100
param 100
groups 100
lated 100
▁private 100
vo 100
▁pid 100
▁sol 100
▁lock 100
▁2.0 100
:00 100
Manager 100
End 100
▁draw 100
▁folder 100
▁TEST 100
▁чтобы 100
pol 100
oper 100
Status 100
cons 100
try 100
Parser 100
▁export 100
блем 100
▁score 100
▁fact 100
писа 100
зы 100
▁protocol 100
▁unique 100
inc 100
пол 100
вет 100
', 100
None 100
:// 100
▁delta 100
▁hex 100
ROR 100
▁md 100
itu 100
nsions 100
cat 100
▁код 100
▁verify 100
▁fs 100
jango 100
thread 100
▁transform 100
▁oprot 100
virtual 100
лемен 100
oices 100
оба 100
Of 100
▁redirect 100
oogle 100
LECT 100
▁kernel 100
▁lat 100
VE 100
has 100
▁download 100
sup 100
adding 100
unit 100
▁kind 100
remove 100
diff 100
25 100
Code 100
udent 100
fail 100
OW 100
ategor 100
ik 100
timeout 100
section 100
от 100
dirs 100
axis 100
▁rest 100
hen 100
-01 100
▁messages 100
▁csv 100
▁As 100
▁sv 100
ulate 100
dist 100
▁prev 100
pare 100
ins 100
▁mar 100
ily 100
window 100
▁pkg 100
way 100
imum 100
Sh 100
▁does 100
▁En 100
▁place 100
orld 100
Down 100
4' 100
гда 100
33 100
lan 100
lation 100
▁vol 100
▁merge 100
▁layout 100
ializer 100
dec 100
▁же 100
Change 100
AS 100
▁only 100
now 100
QU 100
▁1' 100
▁rc 100
ero 100
▁zone 100
plu 100
▁images 100
train 100
▁transport 100
AGE 100
▁32 100
▁engine 100
imp 100
Comp 100
86 100
▁bucket 100
App 100
▁ви 100
▁fd 100
▁parts 100
bot 100
▁slug 100
▁ke 100
▁воз 100
Pos 100
ved 100
▁EX 100
▁schedule 100
лож 100
folder 100
plugin 100
▁buffer 100
Action 100
▁div 100
Image 100
bl 100
OK 100
cle 100
sets 100
(' 100
▁outputs 100
▁flat 100
▁router 100
▁созда 100
▁мас 100
ble 100
▁apply 100
▁home 100
IME 100
▁объ 100
▁dot 100
ident 100
env 100
▁клас 100
Base 100
▁60 100
ORT 100
▁enable 100
▁controller 100
▁repr 100
words 100
▁хо 100
cast 100
▁пре 100
▁элемен 100
Array 100
▁оп 100
▁person 100
▁tm 100
▁lin 100
ric 100
ска 100
▁upper 100
matrix 100
▁manager 100
▁parsed 100
▁только 100
▁Если 100
TE 100
▁final 100
▁menu 100
sa 100
▁finally 100
ATION 100
▁pr 100
itions 100
Page 100
▁reason 100
▁member 100
dev 100
14 100
Cur 100
send 100
aded 100
▁agg 100
Th 100
▁Node 100
▁box 100
▁amount 100
ция 100
▁помо 100
ators 100
ker 100
print 100
methods 100
package 100
ример 100
▁static 100
), 100
▁2. 100
▁sim 100
▁pipeline 100
▁calc 100
very 100
▁My 100
▁ter 100
▁mig 100
itude 100
▁ob 100
ODE 100
▁rt 100
▁На 100
access 100
ROM 100
▁security 100
15 100
factory 100
pair 100
stats 100
Mode 100
dified 100
PA 100
▁sm 100
(" 100
▁operation 100
▁features 100
exception 100
verage 100
driver 100
Inter 100
component 100
ей 100
▁Or 100
Table 100
▁argv 100
HT 100
non 100
▁requests 100
▁bad 100
▁assign 100
missions 100
▁addon 100
labels 100
▁nd 100
▁обра 100
▁AttributeError 100
▁тако 100
▁attach 100
ultiple 100
andom 100
▁already 100
bound 100
split 100
find 100
rl 100
▁bound 100
▁reshape 100
▁seed 100
save 100
anel 100
buffer 100
ube 100
▁од 100
▁Po 100
▁dim 100
▁indices 100
▁av 100
DER 100
▁day 100
▁меня 100
92 100
exc 100
ollow 100
▁~ 100
▁мето 100
return 100
paths 100
▁evalu 100
js 100
FO 100
teger 100
hs 100
клю 100
Point 100
sk 100
rency 100
Input 100
▁tz 100
▁contents 100
▁To 100
lang 100
CON 100
ных 100
serv 100
ged 100
▁enabled 100
▁mac 100
лен 100
hook 100
RA 100
▁масси 100
▁variables 100
height 100
▁tool 100
tags 100
Pre 100
▁14 100
dient 100
▁Image 100
ru 100
▁updated 100
control 100
job 100
▁дру 100
▁gl 100
▁sqrt 100
▁ошиб 100
18 100
rows 100
▁drop 100
vide 100
▁Do 100
▁points 100
af 100
vious 100
▁ok 100
▁property 100
0" 100
▁vals 100
ерез 100
▁weights 100
itive 100
▁media 100
rappe 100
га 100
Command 100
▁js 100
▁IP 100
disk 100
▁endswith 100
▁его 100
▁outfile 100
▁click 100
apter 100
lush 100
сы 100
▁-= 100
can 100
Label 100
ision 100
▁flag 100
мы 100
▁frappe 100
cd 100
cer 100
▁icon 100
▁extract 100
rer 100
Be 100
▁13 100
poch 100
▁configuration 100
MS 100
vals 100
▁elem 100
▁dat 100
зова 100
Or 100
▁Index 100
used 100
QL 100
▁month 100
▁io 100
pk 100
cert 100
empty 100
▁hostname 100
ATA 100
▁flow 100
Query 100
▁40 100
▁ww 100
bit 100
▁API 100
collection 100
▁fig 100
ться 100
▁ms 100
Address 100
▁upload 100
▁Comp 100
roy 100
Ed 100
rypt 100
IS 100
pository 100
▁sin 100
hod 100
cho 100
DB 100
▁может 100
Version 100
xture 100
75 100
utor 100
np 100
ache 100
calls 100
▁resources 100
peed 100
▁после 100
umb 100
▁"2 100
▁Create 100
errors 100
▁png 100
TH 100
ств 100
Att 100
▁center 100
eb 100
exp 100
CA 100
course 100
Format 100
.. 100
▁Message 100
ful 100
holder 100
▁са 100
▁iprot 100
INT 100
true 100
▁З 100
uest 100
.3 100
▁missing 100
aly 100
.0.0 100
▁est 100
▁multi 100
vas 100
▁null 100
ability 100
▁available 100
тов 100
▁rb 100
float 100
▁Sh 100
IP 100
▁доба 100
ire 100
▁через 100
▁nan 100
▁'1' 100
irtual 100
али 100
sel 100
▁Is 100
▁got 100
▁дол 100
ialog 100
▁predi 100
▁ста 100
▁br 100
▁proc 100
UM 100
▁route 100
▁Item 100
▁assertNot 100
udio 100
ze 100
abs 100
cript 100
▁FROM 100
▁confi 100
▁exclude 100
▁loss 100
tered 100
pb 100
▁fmt 100
scale 100
Color 100
expected 100
batch 100
On 100
▁period 100
▁Text 100
widget 100
dtype 100
ority 100
(); 100
▁lookup 100
▁summary 100
ilter 100
▁ev 100
ariant 100
Sub 100
▁SELECT 100
▁round 100
si 100
almost 100
▁Valid 100
assert 100
binary 100
▁book 100
▁parameter 100
▁Bu 100
▁Runtime 100
show 100
Ret 100
▁after 100
attribute 100
▁255 100
▁arange 100
ish 100
▁short 100
NotFound 100
▁endpoint 100
▁td 100
▁ind 100
inition 100
states 100
22 100
▁builder 100
▁wrap 100
AIN 100
tuple 100
container 100
properties 100
▁ur 100
▁WH 100
▁astype 100
▁expand 100
▁timedelta 100
system 100
ef 100
validate 100
▁Base 100
ncies 100
▁cpu 100
▁accept 100
▁conv 100
▁sent 100
▁dtypes 100
Gui 100
less 100
rigger 100
changed 100
Child 100
▁проблем 100
ALI 100
▁OS 100
als 100
Control 100
▁was 100
▁reference 100
ness 100
img 100
▁credentials 100
effect 100
▁late 100
▁cc 100
style 100
ему 100
▁django 100
▁mail 100
▁price 100
coord 100
▁begin 100
Entry 100
емен 100
▁Event 100
▁пра 100
-0 100
tn 100
question 100
http 100
UG 100
helper 100
gate 100
3" 100
lector 100
▁alias 100
▁tokens 100
mer 100
ceived 100
▁pad 100
_4 100
нима 100
▁sock 100
▁indent 100
sw 100
reshold 100
▁actions 100
ometry 100
▁dummy 100
Layout 100
Mo 100
cor 100
classes 100
ificate 100
▁testing 100
▁days 100
68 100
Dis 100
ABLE 100
▁states 100
пи 100
▁fra 100
amily 100
▁mox 100
Core 100
ivity 100
▁keep 100
EL 100
▁сво 100
▁cv 100
зи 100
▁sequence 100
proto 100
▁called 100
▁paths 100
ationError 100
▁dag 100
gb 100
▁ctxt 100
▁reader 100
▁branch 100
lap 100
IC 100
lected 100
бра 100
▁enc 100
▁ER 100
▁сер 100
▁byte 100
FILE 100
cene 100
▁warnings 100
ian 100
logger 100
SION 100
▁Resource 100
OP 100
▁annot 100
ную 100
Fa 100
ils 100
score 100
lig 100
8' 100
agent 100
OD 100
▁бо 100
▁Client 100
▁tick 100
Device 100
menu 100
▁Fake 100
▁Up 100
▁note 100
▁www 100
▁subscription 100
OS 100
▁inf 100
RL 100
▁urllib 100
▁redu 100
directory 100
▁sender 100
grade 100
stop 100
▁destination 100
ee 100
▁operator 100
▁Any 100
цию 100
▁Log 100
▁six 100
Run 100
▁arguments 100
▁cook 100
KEY 100
▁false 100
▁зада 100
▁abc 100
▁файл 100
▁cp 100
▁Я 100
UB 100
lip 100
▁qs 100
▁25 100
ров 100
▁partner 100
▁binary 100
mar 100
▁company 100
▁share 100
▁symbol 100
▁nb 100
first 100
Date 100
тер 100
▁duration 100
Tag 100
▁lst 100
sec 100
13 100
▁seconds 100
▁metric 100
▁constants 100
▁answer 100
▁stub 100
сть 100
actions 100
▁assertAll 100
uch 100
off 100
invalid 100
regate 100
DIR 100
▁depth 100
Server 100
▁grad 100
▁Failed 100
SON 100
▁OK 100
left 100
As 100
utable 100
Len 100
▁ком 100
▁rot 100
▁padding 100
▁Есть 100
▁units 100
йте 100
ща 100
-9 100
▁FI 100
Tra 100
Number 100
ная 100
ZE 100
▁24 100
ERE 100
eq 100
▁secret 100
▁basename 100
ORM 100
▁progress 100
cb 100
features 100
metri 100
enu 100
▁matrix 100
pose 100
луча 100
чно 100
пример 100
pg 100
models 100
select 100
▁rect 100
.4 100
▁работает 100
prec 100
ifest 100
TER 100
flags 100
▁си 100
exte 100
alled 100
▁Про 100
card 100
96 100
▁sur 100
scribe 100
cii 100
▁freq 100
gt 100
▁tor 100
cheme 100
head 100
▁Qu 100
▁And 100
каза 100
exists 100
▁radi 100
▁RuntimeError 100
ribution 100
Fe 100
Output 100
са 100
це 100
loop 100
▁PRO 100
med 100
rep 100
▁refresh 100
cessed 100
samples 100
day 100
▁rv 100
▁Object 100
SH 100
▁backup 100
▁bit 100
edge 100
arm 100
andid 100
нов 100
alle 100
encode 100
▁DataFrame 100
reque 100
acy 100
rict 100
requi 100
▁AT 100
▁flush 100
▁commands 100
▁den 100
грам 100
▁suffix 100
Valid 100
timestamp 100
OMAIN 100
ря 100
▁slice 100
ilt 100
series 100
▁hour 100
ды 100
schema 100
SC 100
rit 100
5' 100
cl 100
▁exceptions 100
Spec 100
_0 100
▁high 100
▁regex 100
entries 100
isode 100
▁Response 100
attrs 100
30 100
import 100
че 100
attributes 100
ota 100
▁extension 100
ша 100
▁layers 100
▁А 100
▁identifier 100
▁norm 100
▁Check 100
formation 100
▁usage 100
▁memory 100
▁interval 100
▁existing 100
74 100
▁HttpResponse 100
▁URL 100
dims 100
▁У 100
Ad 100
scape 100
nsure 100
wrap 100
unicode 100
▁cb 100
tex 100
Content 100
▁fixed 100
opts 100
▁term 100
API 100
▁Dis 100
ips 100
ixel 100
▁sync 100
▁Но 100
▁объек 100
ASE 100
▁42 100
umer 100
lack 100
▁Column 100
▁simple 100
aut 100
ished 100
dest 100
▁shared 100
▁background 100
▁Run 100
sted 100
▁Ac 100
том 100
▁deserialize 100
▁proto 100
lex 100
▁primary 100
▁evaluate 100
src 100
▁чис 100
дин 100
fin 100
success 100
▁ones 100
ats 100
Callback 100
dic 100
ake 100
span 100
▁ty 100
▁before 100
▁choice 100
▁WHERE 100
aff 100
gument 100
чить 100
▁power 100
▁sk 100
▁student 100
std 100
lative 100
Dialog 100
atio 100
▁sep 100
AP 100
bind 100
▁запрос 100
▁setattr 100
tools 100
And 100
▁contact 100
raises 100
pay 100
▁none 100
ross 100
▁writer 100
▁просто 100
▁done 100
▁CO 100
▁resolve 100
▁chain 100
chain 100
enabled 100
▁shell 100
Reg 100
▁choices 100
sing 100
▁series 100
▁helper 100
▁worker 100
▁mp 100
▁quant 100
▁running 100
▁Не 100
▁rate 100
▁LI 100
▁sn 100
olute 100
ете 100
▁.. 100
Rec 100
▁utc 100
display 100
asure 100
details 100
▁вот 100
▁QtGui 100
ctionary 100
98 100
▁Auth 100
OUT 100
▁distance 100
▁использовать 100
columns 100
три 100
▁ssh 100
▁you 100
PATH 100
ulation 100
▁origin 100
Int 100
dle 100
▁organ 100
▁red 100
▁flavor 100
cores 100
▁tear 100
_3 100
▁сто 100
▁push 100
uff 100
▁yaml 100
▁follow 100
▁табли 100
itional 100
▁ssl 100
istration 100
game 100
ony 100
edit 100
lain 100
▁details 100
Ns 100
uplic 100
▁factory 100
ites 100
olog 100
▁<< 100
рой 100
▁need 100
objects 100
Attribute 100
Source 100
cell 100
▁identity 100
mapping 100
▁quote 100
▁Model 100
▁history 100
oolean 100
role 100
ases 100
iment 100
prob 100
▁google 100
track 100
▁supported 100
uni 100
▁быть 100
seq 100
лся 100
sql 100
extra 100
▁mid 100
▁Qgs 100
▁tar 100
▁hidden 100
▁partition 100
▁unpack 100
▁world 100
Method 100
▁сле 100
ros 100
▁tax 100
▁acc 100
Ro 100
▁1" 100
▁team 100
▁mapping 100
▁modules 100
▁vert 100
▁ERROR 100
Per 100
▁каж 100
lert 100
events 100
▁previous 100
▁css 100
ueue 100
▁FA 100
▁factor 100
▁400 100
▁fast 100
▁curr 100
ested 100
like 100
pendencies 100
▁visit 100
ан 100
olution 100
▁This 100
▁Date 100
td 100
ровать 100
alt 100
▁cos 100
Connection 100
▁страни 100
▁который 100
▁safe 100
ью 100
▁он 100
▁delay 100
76 100
▁prec 100
Desc 100
▁pair 100
boot 100
▁screen 100
▁IO 100
lt 100
AND 100
▁cy 100
unch 100
▁direction 100
▁scan 100
▁inner 100
andard 100
▁axes 100
Return 100
static 100
▁случа 100
Header 100
CTION 100
▁"1 100
cls 100
▁tearDown 100
▁tasks 100
▁allowed 100
36 100
▁instances 100
property 100
repo 100
▁Path 100
tx 100
uture 100
cap 100
datetime 100
GER 100
▁star 100
▁При 100
ram 100
▁Trans 100
STR 100
imat 100
▁App 100
ное 100
▁span 100
▁submit 100
▁{0 100
обра 100
storage 100
none 100
▁фор 100
factor 100
▁nn 100
▁off 100
Pa 100
▁retry 100
chine 100
▁embed 100
▁DB 100
▁align 100
mpt 100
Token 100
▁using 100
ategy 100
clean 100
Link 100
▁external 100
▁'12 100
indices 100
▁deleted 100
тель 100
▁cast 100
▁comm 100
▁double 100
дер 100
ANG 100
Close 100
▁locale 100
▁entries 100
▁выво 100
▁atom 100
Layer 100
▁ren 100
Oper 100
▁fc 100
Module 100
▁console 100
▁filepath 100
ane 100
▁used 100
Level 100
▁INT 100
▁browser 100
▁optim 100
full 100
▁rules 100
▁equal 100
login 100
фи 100
other 100
▁1024 100
snapshot 100
00\ 100
ynam 100
Row 100
done 100
▁hello 100
site 100
▁counter 100
scriptor 100
▁вер 100
▁Р 100
▁tri 100
кры 100
72 100
▁поль 100
▁cancel 100
total 100
▁beta 100
▁... 100
ctx 100
ocument 100
▁Мо 100
▁ти 100
▁require 100
orter 100
▁dr 100
дую 100
94 100
ured 100
alk 100
95 100
LAG 100
▁free 100
90 100
ice 100
resses 100
orig 100
▁switch 100
An 100
Process 100
▁card 100
vector 100
чен 100
▁issue 100
▁sensor 100
▁question 100
ia 100
▁services 100
▁matches 100
▁publish 100
Filter 100
ategories 100
Do 100
inputs 100
join 100
▁Mag 100
zip 100
br 100
▁reply 100
UE 100
▁перемен 100
▁Вы 100
▁tod 100
гру 100
miss 100
▁initialize 100
▁Instance 100
buf 100
desc 100
▁мне 100
▁unknown 100
No 100
ONE 100
▁reduce 100
amma 100
mc 100
Block 100
▁hook 100
PRO 100
ptr 100
ocker 100
au 100
proxy 100
commit 100
▁Б 100
▁404 100
▁prepare 100
Obj 100
Ref 100
▁gtk 100
Resource 100
▁cleaned 100
grid 100
▁rpc 100
▁stride 100
dataset 100
▁rank 100
ourse 100
eval 100
▁lon 100
oto 100
▁bro 100
▁System 100
▁програм 100
▁internal 100
ются 100
Start 100
periment 100
70 100
▁ws 100
▁devices 100
ftime 100
global 100
description 100
▁Task 100
raft 100
▁данные 100
▁words 100
flag 100
▁Out 100
gy 100
loss 100
▁alt 100
▁deep 100
▁detail 100
▁'0' 100
▁poly 100
usage 100
35 100
rable 100
▁archive 100
▁тек 100
ctype 100
▁single 100
▁ec 100
EXT 100
ести 100
▁clone 100
▁sparse 100
▁best 100
tach 100
▁blank 100
▁спис 100
▁et 100
85 100
stru 100
ход 100
entity 100
XX 100
▁=> 100
TO 100
Act 100
▁Per 100
paces 100
▁получа 100
provider 100
-> 100
utes 100
84 100
light 100
ustome 100
normal 100
ест 100
ighb 100
loader 100
nn 100
ha 100
ULL 100
variables 100
Tree 100
bers 100
▁deli 100
▁sym 100
▁vars 100
org 100
pattern 100
▁cm 100
angle 100
Back 100
amera 100
▁hy 100
▁pt 100
▁sec 100
CP 100
gor 100
ITE 100
▁environment 100
▁packet 100
Property 100
▁eps 100
▁classes 100
▁tb 100
zero 100
▁tile 100
ars 100
▁escape 100
Task 100
▁0.2 100
▁emit 100
fd 100
▁rev 100
▁transaction 100
▁problem 100
▁defaults 100
ез 100
layout 100
▁ti 100
▁долж 100
EA 100
ении 100
▁00 100
▁boot 100
▁NOT 100
bum 100
▁isfile 100
ocab 100
▁program 100
▁On 100
ared 100
▁strftime 100
Template 100
SIZE 100
Case 100
▁constraint 100
present 100
ays 100
Mat 100
▁cred 100
▁uns 100
реде 100
convert 100
Def 100
single 100
interface 100
▁Group 100
regex 100
▁space 100
real 100
BUG 100
VICE 100
▁cols 100
complete 100
interval 100
▁Ч 100
tab 100
FIG 100
▁fun 100
ibility 100
▁mu 100
▁targets 100
▁запу 100
ithub 100
▁вс 100
▁Magic 100
faces 100
ца 100
ой 100
▁dom 100
ном 100
▁Open 100
▁repe 100
▁notify 100
вает 100
▁metrics 100
▁la 100
▁For 100
▁36 100
▁forward 100
▁TYPE 100
▁segment 100
▁реали 100
▁members 100
▁android 100
cei 100
NS 100
oci 100
decode 100
цы 100
dif 100
▁dl 100
children 100
:: 100
Url 100
▁64 100
▁setText 100
▁gate 100
report 100
dk 100
cy 100
▁Dec 100
▁rs 100
▁two 100
▁tmpdir 100
ich 100
product 100
▁прави 100
ants 100
тельно 100
▁cloud 100
▁PI 100
▁pdf 100
00' 100
▁tt 100
after 100
CCE 100
Function 100
cu 100
▁translate 100
▁You 100
▁За 100
rf 100
▁seek 100
лов 100
▁partial 100
Changed 100
cing 100
▁library 100
▁mx 100
PORT 100
mig 100
istener 100
▁выпол 100
▁condition 100
Default 100
▁MagicMock 100
▁vector 100
ipient 100
rules 100
Regex 100
▁прилож 100
win 100
ending 100
Fla 100
▁servers 100
register 100
gorith 100
WOR 100
\\ 100
▁пользова 100
null 100
self 100
tack 100
fetch 100
▁wrapper 100
term 100
▁xs 100
▁dialog 100
▁cannot 100
▁AL 100
▁Ptr 100
▁ValidationError 100
▁могу 100
UID 100
aa 100
Read 100
▁данных 100
тор 100
inv 100
▁помощ 100
ster 100
▁links 100
python 100
▁times 100
strip 100
Options 100
bucket 100
Protocol 100
▁пример 100
▁low 100
users 100
▁editor 100
▁shutil 100
▁deploy 100
▁dns 100
mean 100
ipe 100
opy 100
Types 100
▁sr 100
▁нет 100
▁State 100
▁registry 100
▁termin 100
ving 100
▁selection 100
ут 100
confi 100
ustomer 100
web 100
rpc 100
teri 100
oft 100
▁normalize 100
sens 100
▁ir 100
▁dx 100
Menu 100
ridge 100
▁'0 100
▁invoice 100
▁notification 100
▁board 100
messages 100
би 100
▁currency 100
▁seg 100
▁StringIO 100
Current 100
▁Cannot 100
Bar 100
ALL 100
ored 100
▁ATTR 100
▁qual 100
ology 100
rong 100
▁marker 100
▁border 100
dr 100
year 100
tty 100
debug 100
▁COM 100
▁кно 100
vironment 100
▁localhost 100
▁DOMAIN 100
arr 100
Part 100
aw 100
the 100
long 100
isten 100
▁realm 100
▁Command 100
▁abspath 100
ART 100
DATE 100
ilities 100
▁этого 100
available 100
SO 100
▁canvas 100
dm 100
можно 100
▁signature 100
Names 100
fit 100
риан 100
wh 100
... 100
utron 100
▁props 100
derer 100
lite 100
▁ск 100
▁bus 100
Update 100
ром 100
ynamic 100
▁xy 100
▁CH 100
▁Во 100
rest 100
▁pas 100
▁support 100
ATUS 100
▁18 100
▁Ко 100
▁х 100
backend 100
▁integer 100
ходит 100
▁DI 100
▁'201 100
weights 100
▁expression 100
▁review 100
▁setdefault 100
▁aa 100
▁сай 100
compute 100
рти 100
pted 100
▁AD 100
▁echo 100
URE 100
urnal 100
ited 100
▁glob 100
sen 100
async 100
▁disable 100
▁KE 100
▁уже 100
▁iso 100
language 100
▁вопрос 100
▁cla 100
jax 100
▁ce 100
▁placeholder 100
▁loader 100
"></ 100
pid 100
▁Mo 100
MENT 100
ntax 100
▁assertIsNone 100
ression 100
PRE 100
imator 100
grad 100
ба 100
NET 100
trace 100
allow 100
▁ndim 100
▁Dict 100
izes 100
▁500 100
▁override 100
▁thumb 100
▁пу 100
▁sources 100
▁serialize 100
come 100
▁Course 100
contents 100
▁mount 100
em 100
▁priority 100
found 100
mac 100
▁Pre 100
▁Al 100
вание 100
hes 100
Struct 100
▁SO 100
.6 100
▁queryset 100
▁manage 100
▁traceback 100
▁Could 100
▁pg 100
▁deg 100
▁Gener 100
Stream 100
": 100
▁asset 100
▁NAME 100
ера 100
▁virtual 100
▁AND 100
author 100
Begin 100
▁Tra 100
Edit 100
▁relative 100
17 100
▁су 100
▁hosts 100
fake 100
▁randint 100
▁coords 100
sequence 100
▁Series 100
▁dime 100
▁java 100
loaded 100
random 100
oly 100
▁revision 100
alth 100
▁findall 100
SET 100
ние 100
cluster 100
): 100
ferences 100
Hel 100
Range 100
▁значение 100
Warning 100
▁рас 100
auto 100
exist 100
мени 100
norm 100
▁tw 100
tests 100
▁By 100
gent 100
▁browse 100
Application 100
сыл 100
ным 100
▁angle 100
zz 100
ifact 100
▁He 100
▁your 100
git 100
click 100
PER 100
alys 100
Ac 100
multi 100
Iter 100
ffi 100
allclose 100
▁cid 100
LOG 100
▁percent 100
▁predict 100
▁UN 100
▁epoch 100
▁New 100
CHE 100
public 100
▁face 100
sv 100
umeric 100
▁провер 100
▁DEBUG 100
ven 100
cols 100
▁ord 100
activ 100
lar 100
Width 100
period 100
just 100
images 100
44 100
19 100
gorithm 100
▁ци 100
alysis 100
▁Line 100
▁Session 100
▁fire 100
▁ensure 100
feature 100
лось 100
dn 100
▁KEY 100
pv 100
-2 100
▁components 100
served 100
rectory 100
ier 100
чу 100
▁tables 100
Sy 100
▁when 100
wait 100
missing 100
▁country 100
▁кноп 100
▁but 100
▁Reg 100
▁stock 100
gative 100
▁setting 100
▁2' 100
▁slot 100
▁candid 100
▁Window 100
transform 100
▁cached 100
credentials 100
▁ftype 100
icon 100
▁вр 100
ather 100
▁mi 100
▁changes 100
Auth 100
▁scheme 100
ECT 100
▁timezone 100
▁ascii 100
parts 100
▁destroy 100
thing 100
▁ло 100
eded 100
Enabled 100
▁поня 100
lim 100
▁22 100
▁Project 100
▁ctypes 100
aterial 100
▁related 100
▁scal 100
▁би 100
▁UP 100
safe 100
FT 100
Exist 100
▁их 100
pop 100
execute 100
prop 100
install 100
stract 100
resources 100
▁80 100
ют 100
▁UT 100
▁latest 100
▁17 100
undle 100
▁Inter 100
LAGS 100
rag 100
instances 100
filters 100
▁19 100
▁sigma 100
▁isdir 100
зуль 100
▁that 100
▁один 100
▁authentic 100
▁Python 100
rive 100
вается 100
▁dc 100
DS 100
▁pie 100
tmp 100
Parameter 100
PUT 100
вания 100
▁Foo 100
▁correct 100
QUEST 100
▁сра 100
▁следую 100
▁Hel 100
▁PIPE 100
чему 100
utdown 100
▁channels 100
Create 100
▁Вот 100
wn 100
▁переда 100
▁samples 100
txt 100
▁hist 100
Su 100
лее 100
▁OSError 100
Column 100
рук 100
running 100
▁zero 100
▁episode 100
olver 100
▁cir 100
▁99 100
Policy 100
ACK 100
SP 100
▁Sy 100
Cache 100
ario 100
▁ма 100
Rule 100
mostEqual 100
Ut 100
Session 100
▁cost 100
▁steps 100
▁IOError 100
▁libvirt 100
3456 100
▁уда 100
▁Le 100
AlmostEqual 100
trl 100
▁Table 100
precated 100
mitive 100
▁compare 100
▁fore 100
▁SER 100
▁Ad 100
▁ба 100
▁expi 100
▁obs 100
ace 100
▁hide 100
▁Num 100
inte 100
▁dete 100
▁надо 100
comment 100
▁theta 100
socket 100
жите 100
urs 100
▁let 100
▁такой 100
▁mime 100
▁contrib 100
Files 100
▁XML 100
dify 100
зульта 100
▁Update 100
lookup 100
▁Unknown 100
▁Met 100
arguments 100
LETE 100
sort 100
exit 100
▁ag 100
▁Variable 100
common 100
вый 100
links 100
member 100
▁pickle 100
▁ipv 100
inary 100
tasks 100
77 100
▁cookie 100
router 100
assign 100
▁0.00 100
▁radius 100
▁recv 100
mas 100
lier 100
PO 100
▁Service 100
defined 100
▁ls 100
▁stage 100
▁Start 100
Params 100
alance 100
mous 100
Port 100
▁EN 100
вал 100
▁помощью 100
fc 100
▁mys 100
steps 100
▁Input 100
▁sg 100
csv 100
▁analy 100
▁records 100
▁Please 100
▁случае 100
istent 100
мя 100
▁repository 100
▁го 100
verify 100
Plugin 100
lished 100
tore 100
ription 100
seconds 100
mbols 100
history 100
▁want 100
▁lineno 100
uting 100
▁article 100
▁Gtk 100
ench 100
▁trigger 100
bad 100
▁Integer 100
wall 100
▁conver 100
▁perm 100
ices 100
▁tk 100
center 100
▁вариан 100
▁rm 100
Max 100
▁AR 100
counter 100
tyle 100
▁elements 100
▁attrib 100
▁использу 100
▁es 100
price 100
▁plugins 100
IM 100
▁dispatch 100
▁nick 100
Pack 100
▁manifest 100
Logger 100
66 100
▁may 100
ressed 100
sensitive 100
▁light 100
вл 100
erature 100
▁написа 100
▁family 100
▁workflow 100
▁ln 100
▁tv 100
ITY 100
▁complete 100
▁tempfile 100
▁views 100
tract 100
▁na 100
ket 100
▁tools 100
▁без 100
iven 100
▁USER 100
▁Unable 100
▁Element 100
Length 100
▁bg 100
requency 100
бу 100
tool 100
▁SH 100
onymous 100
▁mis 100
▁име 100
▁configure 100
енно 100
▁Read 100
Gener 100
▁mesh 100
▁clip 100
обходи 100
ount 100
custom 100
▁remain 100
▁>> 100
iteral 100
vels 100
00000000 100
ndar 100
Args 100
▁Point 100
Thread 100
▁basic 100
▁blob 100
▁margin 100
▁cn 100
▁same 100
▁массив 100
iki 100
▁Pri 100
▁Default 100
crement 100
▁pur 100
кой 100
dt 100
endpoint 100
oom 100
uplicate 100
Contains 100
php 100
▁запис 100
generate 100
lick 100
UTH 100
▁organization 100
▁asarray 100
▁VER 100
oriz 100
scal 100
нее 100
▁ports 100
)) 100
▁"1" 100
▁nova 100
▁10000 100
54 100
▁Import 100
wrapper 100
▁Tag 100
SQL 100
Min 100
counts 100
▁activity 100
38 100
▁MAX 100
Record 100
deserialize 100
▁relation 100
ater 100
▁wb 100
NING 100
rie 100
▁rename 100
▁EV 100
▁том 100
▁runner 100
▁сло 100
▁Э 100
▁QtCore 100
чест 100
▁more 100
▁deepcopy 100
▁Под 100
summary 100
йст 100
▁gateway 100
▁Graph 100
ffect 100
▁aggregate 100
---- 100
System 100
▁saved 100
▁нуж 100
▁gc 100
▁modified 100
devices 100
Title 100
100 100
▁опреде 100
security 100
elements 100
▁эти 100
JECT 100
PTION 100
units 100
licit 100
▁друго 100
▁бло 100
▁timer 100
▁Так 100
fill 100
document 100
-4 100
quire 100
▁nt 100
▁Network 100
▁Assert 100
DF 100
Settings 100
ells 100
тому 100
▁suite 100
cont 100
▁JSON 100
▁area 100
▁cwd 100
park 100
бе 100
▁rp 100
Variable 100
UI 100
▁dig 100
▁flatten 100
▁big 100
depth 100
тно 100
▁Decimal 100
▁указа 100
++ 100
1, 100
вто 100
▁врем 100
tick 100
.1' 100
amount 100
compile 100
37 100
dep 100
ран 100
Pri 100
▁bias 100
eys 100
▁Pack 100
Cre 100
▁bb 100
▁Template 100
▁Ent 100
▁disabled 100
'] 100
▁cf 100
quested 100
▁Process 100
▁oc 100
OWN 100
download 100
▁где 100
USER 100
expr 100
сту 100
ulk 100
▁coordin 100
▁capt 100
ado 100
Items 100
▁IndexError 100
▁closed 100
vie 100
▁baz 100
lin 100
tended 100
initial 100
▁Field 100
uint 100
warn 100
▁gf 100
servation 100
ventory 100
▁fh 100
▁ссыл 100
▁3.0 100
dl 100
▁Bo 100
▁COL 100
▁contain 100
PS 100
nail 100
COL 100
vec 100
jor 100
▁пред 100
вра 100
FIX 100
▁AN 100
chunk 100
▁Web 100
oth 100
vol 100
Vector 100
▁pc 100
▁Write 100
щий 100
freq 100
rence 100
▁Server 100
▁pages 100
▁ld 100
configuration 100
рип 100
category 100
Match 100
▁fid 100
payload 100
▁GL 100
▁scene 100
unique 100
Network 100
Var 100
▁ту 100
▁Connection 100
▁Ну 100
cel 100
raction 100
▁дела 100
Host 100
▁charac 100
eries 100
uses 100
schedule 100
parameter 100
pendency 100
lave 100
▁8" 100
▁serializer 100
sync 100
6' 100
▁bottom 100
ений 100
constraint 100
Work 100
engine 100
▁confirm 100
cursor 100
outputs 100
▁pred 100
▁stdin 100
▁added 100
▁Что 100
мво 100
есь 100
▁xx 100
▁will 100
pred 100
press 100
ons 100
Position 100
▁training 100
▁Oper 100
COM 100
▁ri 100
▁collections 100
▁received 100
AA 100
covery 100
acity 100
▁forms 100
▁machine 100
Const 100
processed 100
abilities 100
▁rng 100
▁stubs 100
required 100
include 100
мента 100
▁уста 100
.8 100
▁room 100
▁enter 100
▁Для 100
▁gamma 100
trib 100
▁функции 100
▁deserialized 100
▁Lib 100
▁variant 100
▁Tensor 100
▁contains 100
рамет 100
slice 100
вис 100
▁AndReturn 100
GET 100
▁pp 100
Values 100
ific 100
▁ele 100
simple 100
▁roll 100
▁verb 100
▁получить 100
▁SIG 100
▁floating 100
▁fo 100
CS 100
▁docker 100
▁dy 100
▁updates 100
rays 100
▁inspect 100
FORM 100
actor 100
▁этом 100
▁метод 100
metric 100
area 100
▁decimal 100
($ 100
скажите 100
▁когда 100
vr 100
▁Author 100
this 100
▁exe 100
▁Ab 100
▁threshold 100
▁packages 100
▁plain 100
▁speed 100
▁rhs 100
getitem 100
username 100
▁mult 100
▁enum 100
progress 100
пе 100
▁tp 100
▁OR 100
▁lb 100
колько 100
▁resize 100
▁atol 100
▁yes 100
▁Argument 100
▁inp 100
▁generator 100
▁comments 100
▁unittest 100
ulator 100
▁Su 100
secret 100
unic 100
Py 100
▁sen 100
256 100
rowser 100
▁logs 100
▁experiment 100
dp 100
▁responses 100
▁blocks 100
▁интер 100
quare 100
▁PATH 100
▁spa 100
▁present 100
▁snap 100
Call 100
ок 100
▁alert 100
cfg 100
mag 100
pet 100
▁LO 100
▁scheduler 100
mm 100
raise 100
▁AS 100
▁errno 100
чески 100
distance 100
reference 100
▁collect 100
REATE 100
nan 100
ixed 100
des 100
plan 100
nsity 100
▁300 100
emon 100
▁PA 100
permission 100
URCE 100
рес 100
TIME 100
Driver 100
7.0.0 100
▁реш 100
agg 100
semb 100
▁ndarray 100
Profile 100
replace 100
oose 100
▁projects 100
home 100
▁Rec 100
upload 100
▁comb 100
▁mkdir 100
istered 100
▁файла 100
xx 100
▁failure 100
Val 100
override 100
Exec 100
modules 100
channels 100
▁colors 100
▁90 100
controller 100
▁migration 100
-3 100
йти 100
generator 100
▁vs 100
VAL 100
numpy 100
▁cleanup 100
▁cov 100
▁strict 100
▁Label 100
▁keyword 100
adcast 100
▁php 100
▁например 100
▁rstrip 100
▁результа 100
ship 100
▁today 100
atar 100
▁roles 100
▁er 100
oration 100
ву 100
▁MET 100
▁compat 100
extension 100
esNot 100
▁US 100
▁Bad 100
leg 100
ferred 100
▁soft 100
▁оста 100
ral 100
▁diffe 100
gpu 100
▁been 100
rift 100
terns 100
▁recipient 100
riend 100
▁правильно 100
stone 100
▁23 100
▁diag 100
rel 100
▁се 100
▁'10 100
▁phi 100
▁album 100
▁Act 100
serve 100
Script 100
▁эк 100
Dist 100
ако 100
▁этот 100
terable 100
hosts 100
23 100
example 100
Ge 100
▁assertAllEqual 100
▁assertIsNot 100
▁Expected 100
UNT 100
.0' 100
▁listdir 100
▁Union 100
ugh 100
оте 100
▁writeField 100
▁Address 100
чита 100
зна 100
▁geom 100
▁ус 100
▁pygame 100
▁charset 100
></ 100
DATA 100
▁Simple 100
aries 100
▁monitor 100
Controller 100
align 100
parator 100
▁poll 100
▁Stop 100
▁sid 100
▁complex 100
rollment 100
▁panel 100
▁avg 100
medi 100
upported 100
▁парамет 100
▁proj 100
selected 100
лы 100
tion 100
before 100
release 100
▁боль 100
▁getvalue 100
▁ди 100
▁FILE 100
▁execution 100
▁permissions 100
ORE 100
▁bits 100
▁which 100
database 100
▁проек 100
▁Thread 100
sheet 100
subnet 100
▁audio 100
specs 100
pus 100
side 100
▁readline 100
remote 100
tokens 100
▁threading 100
▁Fe 100
▁github 100
▁значения 100
Style 100
▁256 100
uffle 100
gend 100
▁categories 100
▁NULL 100
60 100
MODE 100
cla 100
▁3. 100
▁само 100
▁black 100
chase 100
merge 100
power 100
kt 100
rees 100
cook 100
services 100
chor 100
▁vocab 100
defaults 100
ks 100
css 100
▁Output 100
Redirect 100
ja 100
▁pb 100
▁проблема 100
esNotExist 100
▁ff 100
▁dd 100
▁gt 100
namespace 100
Selection 100
blocks 100
▁filtered 100
andas 100
dump 100
▁nx 100
обходимо 100
orary 100
New 100
▁apps 100
assword 100
▁white 100
▁STATE 100
LED 100
IVE 100
Directory 100
▁subs 100
ariance 100
▁Page 100
ком 100
▁oauth 100
Order 100
codes 100
reset 100
lict 100
▁нес 100
▁Status 100
▁peer 100
ssible 100
rot 100
calc 100
▁requires 100
ыта 100
termin 100
▁btn 100
bits 100
▁extensions 100
Queue 100
▁строки 100
▁klass 100
▁ips 100
▁пользовате 100
▁makedirs 100
CCESS 100
32' 100
▁0' 100
wise 100
multiple 100
▁medi 100
Font 100
two 100
Target 100
initializer 100
[' 100
layers 100
Job 100
force 100
рова 100
9' 100
▁rtol 100
font 100
ws 100
▁polling 100
▁dirs 100
фор 100
Ident 100
Pool 100
members 100
bb 100
▁cd 100
ocus 100
стро 100
ionError 100
▁INFO 100
▁имен 100
house 100
cover 100
runner 100
pick 100
▁кли 100
▁watch 100
▁take 100
▁ve 100
internal 100
At 100
▁journal 100
▁permission 100
▁Char 100
▁gu 100
feed 100
reader 100
7' 100
▁like 100
▁*= 100
allel 100
▁restore 100
atom 100
лить 100
88 100
вя 100
▁Number 100
▁payment 100
▁keras 100
▁precision 100
▁mapper 100
registry 100
Wrapper 100
▁xpath 100
▁good 100
▁assertNotEqual 100
▁clf 100
components 100
luded 100
setting 100
deleted 100
▁appro 100
▁prote 100
hcp 100
hex 100
▁TType 100
/2 100
struction 100
alias 100
ints 100
BO 100
Over 100
rank 100
▁dn 100
▁pin 100
▁urls 100
▁0; 100
cture 100
▁doctype 100
star 100
mpl 100
branch 100
sm 100
▁RO 100
lica 100
0_ 100
▁retval 100
1. 100
▁Work 100
▁edges 100
times 100
▁decor 100
▁qty 100
▁entities 100
dot 100
▁128 100
▁descriptor 100
proc 100
▁Stub 100
▁jobs 100
▁quota 100
mploy 100
4_ 100
pout 100
ssl 100
▁translation 100
▁ошибка 100
▁Popen 100
▁neutron 100
delay 100
▁utcnow 100
▁mm 100
Store 100
strings 100
reater 100
sig 100
cenario 100
вляется 100
rome 100
▁distribution 100
MPL 100
▁geo 100
▁runtime 100
pad 100
▁CF 100
byte 100
lusters 100
fp 100
вно 100
▁ку 100
▁таки 100
ools 100
▁соб 100
velo 100
▁Ed 100
▁цик 100
▁iface 100
▁repeat 100
related 100
▁special 100
▁rgb 100
▁validation 100
▁Can 100
Attributes 100
java 100
▁Ordered 100
Mem 100
Init 100
▁gs 100
▁каждо 100
without 100
▁SQL 100
▁vlan 100
ashboard 100
▁Cur 100
▁Load 100
jobs 100
VERSION 100
ptime 100
▁tc 100
digest 100
strument 100
▁structure 100
▁Be 100
signal 100
ceiver 100
ERROR 100
▁было 100
▁geometry 100
Shape 100
▁httplib 100
AC 100
NER 100
▁specified 100
▁shift 100
ands 100
impl 100
selection 100
▁скрип 100
https 100
ories 100
▁attemp 100
▁DATA 100
▁Version 100
quote 100
sys 100
▁1.5 100
▁отпра 100
дит 100
▁bs 100
Graph 100
ить 100
вед 100
▁Ro 100
▁mag 100
▁green 100
▁activation 100
insert 100
▁produ 100
▁definition 100
PP 100
lyph 100
Op 100
tend 100
sim 100
MIN 100
▁'2' 100
help 100
▁pending 100
▁assertIsNotNone 100
MD 100
flat 100
▁typ 100
▁чем 100
records 100
▁того 100
zen 100
ит 100
transaction 100
▁нажа 100
region 100
▁leg 100
вести 100
▁измен 100
fully 100
▁swap 100
40 100
▁xb 100
64' 100
ets 100
▁catalog 100
ways 100
▁attachment 100
SL 100
▁bundle 100
цу 100
▁versions 100
▁finish 100
END 100
▁Map 100
▁123 100
pts 100
▁bbox 100
▁blue 100
strap 100
▁dense 100
жалу 100
operator 100
▁nor 100
▁tail 100
▁вто 100
Sign 100
▁calls 100
uation 100
бот 100
▁calculate 100
urls 100
▁etc 100
▁camera 100
▁phase 100
▁Multi 100
48 100
▁than 100
▁Parse 100
▁0.3 100
gon 100
▁define 100
▁ft 100
▁requested 100
>< 100
▁addresses 100
▁симво 100
uce 100
serial 100
▁возвра 100
▁visible 100
redirect 100
▁gradient 100
One 100
▁"0 100
▁inline 100
▁torch 100
pn 100
Container 100
ggle 100
▁bi 100
▁measure 100
mul 100
жалуй 100
Interface 100
iddle 100
▁Int 100
visible 100
▁defer 100
PC 100
▁additional 100
▁orm 100
▁которые 100
▁given 100
attach 100
▁{1 100
▁usr 100
▁Cal 100
▁nested 100
yles 100
▁SubElement 100
▁si 100
structure 100
alf 100
icro 100
▁dp 100
Exists 100
peak 100
extract 100
▁season 100
▁compiler 100
▁"201 100
▁ок 100
player 100
▁Delete 100
Tool 100
▁Main 100
sgi 100
▁chr 100
▁statement 100
▁hours 100
detail 100
▁plan 100
▁predictions 100
Results 100
▁addWidget 100
Component 100
Build 100
▁urlparse 100
0-9 100
▁consumer 100
elem 100
жалуйста 100
▁Art 100
▁класса 100
▁subscri 100
▁Array 100
▁ос 100
▁assertAllClose 100
▁час 100
▁31 100
▁week 100
Option 100
▁dia 100
▁ig 100
▁0.01 100
▁Это 100
▁volumes 100
▁кода 100
6_ 100
zer 100
▁live 100
rations 100
builder 100
permissions 100
вой 100
hidden 100
ять 100
reams 100
LIC 100
Reference 100
▁AssertionError 100
▁unlink 100
ман 100
Provider 100
▁Button 100
Offset 100
Cons 100
▁maximum 100
▁vec 100
') 100
props 100
cpu 100
▁pixel 100
▁pm 100
▁sli 100
tention 100
97 100
share 100
pin 100
Arg 100
operation 100
юсь 100
hip 100
▁uniform 100
▁prompt 100
Buffer 100
ALID 100
▁View 100
▁scra 100
Char 100
▁reload 100
forward 100
▁dictionary 100
▁TR 100
▁outer 100
ose 100
sparse 100
▁transpose 100
▁installed 100
authentic 100
▁stmt 100
▁prog 100
atter 100
▁То 100
Binary 100
ARY 100
Ass 100
platform 100
writer 100
▁класс 100
memory 100
cf 100
рая 100
▁listen 100
Proxy 100
▁phys 100
IGHT 100
▁playlist 100
▁Query 100
▁лю 100
lc 100
▁SET 100
inder 100
allet 100
note 100
ния 100
rad 100
atic 100
▁содер 100
Msg 100
▁Na 100
▁encoded 100
shift 100
▁car 100
Search 100
лей 100
4" 100
orrect 100
▁Ва 100
▁linear 100
Metadata 100
Temp 100
▁assertNotIn 100
updated 100
rough 100
rev 100
route 100
▁ве 100
ris 100
PAR 100
▁Hello 100
Access 100
changes 100
▁walk 100
▁webs 100
xff 100
tence 100
cut 100
▁certificate 100
блиоте 100
▁пи 100
Unless 100
▁gui 100
▁ET 100
sired 100
▁0" 100
Keys 100
tz 100
NG 100
▁Token 100
vance 100
▁soup 100
-1 100
▁возможно 100
ln 100
▁cells 100
compare 100
▁Str 100
▁pipe 100
▁mas 100
Matrix 100
slug 100
irst 100
▁всё 100
conv 100
xtures 100
fixture 100
enchmark 100
ween 100
▁Host 100
cached 100
radi 100
▁callable 100
▁sudo 100
") 100
▁lex 100
▁cross 100
▁average 100
rr 100
commands 100
21 100
▁standard 100
▁Copy 100
creen 100
"); 100
▁bounds 100
▁named 100
▁removed 100
▁ga 100
▁optional 100
▁absolute 100
Project 100
rain 100
suffix 100
bool 100
Document 100
▁cu 100
apt 100
▁вам 100
▁keywords 100
Rect 100
IR 100
alloc 100
▁failUnless 100
▁etree 100
vailability 100
escape 100
udit 100
▁Build 100
▁customer 100
▁templates 100
MIT 100
hy 100
▁cent 100
▁0.4 100
pairs 100
▁networks 100
▁registration 100
miter 100
▁спо 100
pers 100
basic 100
▁nc 100
ropout 100
▁counts 100
▁cnt 100
▁1234 100
▁theme 100
Stack 100
:00:00 100
▁sd 100
▁дан 100
▁executable 100
ratio 100
26 100
until 100
ied 100
▁nav 100
stub 100
▁neighb 100
▁em 100
▁workspace 100
ullable 100
mtree 100
partition 100
▁Action 100
▁asyncio 100
▁vif 100
▁learning 100
axes 100
relation 100
acc 100
ender 100
private 100
signature 100
▁kill 100
Tensor 100
bd 100
topic 100
Ver 100
ANCE 100
▁"12 100
uess 100
pkg 100
▁iterator 100
▁seen 100
▁docs 100
versions 100
▁optimizer 100
▁Person 100
hot 100
льный 100
Fail 100
Channel 100
uthentic 100
Vis 100
ium 100
apply 100
▁21 100
Volume 100
▁пожалуйста 100
AMP 100
hi 100
media 100
manage 100
ZER 100
▁minutes 100
second 100
TestCase 100
▁ON 100
▁sf 100
itter 100
Location 100
Reader 100
short 100
▁splitlines 100
▁подклю 100
notification 100
▁вас 100
5" 100
▁Ret 100
▁creator 100
ural 100
identifier 100
embed 100
▁StubOut 100
▁fr 100
▁rx 100
▁Ne 100
rozen 100
▁карти 100
coords 100
vided 100
servers 100
рек 100
▁Module 100
rea 100
ropy 100
▁locals 100
луч 100
▁DELETE 100
sock 100
▁Post 100
▁VAL 100
WithMock 100
etween 100
serializer 100
▁redis 100
▁ll 100
CODE 100
▁rf 100
▁retrie 100
Root 100
OB 100
▁StubOutWithMock 100
▁Auto 100
▁ptr 100
▁future 100
▁OrderedDict 100
▁alloc 100
▁загру 100
render 100
ответ 100
▁Search 100
AM 100
▁did 100
IF 100
▁prod 100
▁threads 100
▁библиоте 100
▁buff 100
▁Device 100
345678 100
ula 100
WORD 100
Local 100
istant 100
▁aff 100
▁fixture 100
▁mysql 100
ategorical 100
ges 100
▁Ap 100
IST 100
личест 100
cost 100
=' 100
пер 100
▁each 100
▁Pa 100
many 100
▁digest 100
istic 100
idual 100
functions 100
чень 100
encoding 100
ROUP 100
есто 100
video 100
sli 100
▁selector 100
ков 100
tension 100
draw 100
▁chat 100
dialog 100
▁1.1 100
▁working 100
▁kwds 100
▁finished 100
qty 100
▁Cre 100
▁Skip 100
LS 100
Feature 100
utation 100
urity 100
cesses 100
▁quantity 100
IALI 100
networks 100
Unit 100
utions 100
▁еще 100
CC 100
failure 100
hat 100
owner 100
istics 100
tf 100
LAY 100
▁pers 100
▁assertContains 100
los 100
▁Context 100
ilon 100
inel 100
osity 100
▁candidate 100
olid 100
plus 100
▁Order 100
TY 100
▁launch 100
Grid 100
▁Vector 100
▁Max 100
▁FLAGS 100
▁listener 100
currency 100
XML 100
▁PY 100
▁возвраща 100
fmt 100
▁multiple 100
▁filenames 100
▁ii 100
false 100
тобра 100
▁понима 100
▁Function 100
protocol 100
▁pretty 100
▁chan 100
▁Volume 100
Height 100
▁2" 100
▁mb 100
▁artist 100
▁Подскажите 100
▁Со 100
live 100
▁там 100
▁tgt 100
mgr 100
▁aws 100
▁pagin 100
▁Ipv 100
rase 100
ственно 100
▁HTML 100
lux 100
▁Sequence 100
-8 100
ipher 100
▁returncode 100
▁phone 100
общ 100
orizont 100
▁Tuple 100
▁rmtree 100
created 100
Nodes 100
packages 100
UND 100
▁Control 100
▁functions 100
0, 100
▁tzinfo 100
Icon 100
uted 100
▁desired 100
cwd 100
▁ener 100
▁ответ 100
▁methods 100
▁PO 100
cr 100
▁san 100
ables 100
▁OF 100
ploration 100
▁NO 100
▁ix 100
▁tun 100
master 100
▁scores 100
▁flo 100
▁concat 100
warnings 100
▁Можно 100
▁STATUS 100
iltin 100
▁minimum 100
39 100
▁ImportError 100
pages 100
▁откры 100
gradient 100
▁HttpRequest 100
▁virt 100
▁добавить 100
ialized 100
▁fan 100
▁текст 100
▁cube 100
ент 100
append 100
▁logits 100
▁tol 100
▁cmp 100
inalg 100
resp 100
00" 100
scan 100
▁Parameter 100
▁Timestamp 100
compat 100
Helper 100
▁Java 100
Empty 100
cmp 100
▁коман 100
liance 100
seed 100
▁Dummy 100
ags 100
Collection 100
менить 100
coder 100
▁Cons 100
EM 100
▁cidr 100
▁lr 100
▁Ver 100
▁operations 100
▁flash 100
icip 100
▁Back 100
export 100
▁defined 100
▁cg 100
lapsed 100
ngine 100
▁Block 100
orizontal 100
ection 100
05 100
nate 100
▁Poly 100
▁ask 100
modified 100
▁thumbnail 100
ifiers 100
GB 100
rou 100
▁dependencies 100
▁strategy 100
▁hyper 100
existing 100
▁виде 100
ursive 100
requests 100
▁TIME 100
ird 100
65 100
sep 100
▁effect 100
▁Source 100
atype 100
▁overwrite 100
▁parents 100
▁авто 100
▁SC 100
ba 100
licies 100
▁pieces 100
▁lt 100
▁Да 100
aris 100
▁connector 100
epoch 100
LIST 100
enc 100
contains 100
final 100
▁CONT 100
▁air 100
skip 100
expression 100
hn 100
▁mol 100
▁band 100
▁Ga 100
▁строку 100
казы 100
▁Part 100
▁CREATE 100
Admin 100
ATCH 100
ajax 100
▁upgrade 100
▁Class 100
▁am 100
ением 100
Click 100
▁список 100
▁отобра 100
▁sheet 100
▁'4 100
pipeline 100
visor 100
PL 100
▁remaining 100
▁должен 100
lists 100
▁xbmc 100
▁Inte 100
▁dimension 100
HTML 100
roke 100
▁Result 100
izers 100
▁lhs 100
▁LE 100
▁known 100
quant 100
▁Float 100
▁мы 100
Checker 100
▁chunks 100
bile 100
Sum 100
▁We 100
NAL 100
▁priv 100
Hash 100
dependencies 100
qs 100
▁tcp 100
▁invo 100
translate 100
▁1, 100
▁Meta 100
metrics 100
▁Missing 100
▁shutdown 100
28 100
LASS 100
cha 100
▁Some 100
super 100
▁accounts 100
Cell 100
▁4.0 100
▁migrate 100
Sequence 100
▁Mat 100
▁vertical 100
▁All 100
▁guest 100
▁dm 100
▁Ans 100
▁quality 100
▁Exec 100
Storage 100
▁сох 100
condition 100
formed 100
Tests 100
issue 100
▁draft 100
Cmd 100
▁cale 100
Timer 100
▁dims 100
Next 100
PU 100
LOW 100
tables 100
Parameters 100
IFI 100
▁Desc 100
▁linalg 100
▁mot 100
connected 100
Step 100
▁notes 100
▁figure 100
matches 100
▁encry 100
▁spli 100
icles 100
clear 100
validation 100
▁ми 100
▁Code 100
▁Windows 100
▁mc 100
▁gz 100
Widgets 100
ваю 100
▁TABLE 100
ital 100
▁ошибку 100
Api 100
▁visibility 100
▁abort 100
met 100
LOGGER 100
зую 100
▁perform 100
▁END 100
slot 100
contact 100
▁Operation 100
allowed 100
▁MO 100
CONFIG 100
споль 100
_404 100
▁wrapped 100
inner 100
Dec 100
▁Jo 100
▁thrift 100
threshold 100
-12 100
Handle 100
▁Dist 100
чего 100
alpha 100
▁|= 100
▁chart 100
▁acquire 100
▁generic 100
▁0, 100
refs 100
▁необходимо 100
▁hand 100
▁ад 100
cred 100
Param 100
bed 100
flavor 100
▁gene 100
IB 100
▁scalar 100
▁restart 100
Sec 100
5_ 100
absolute 100
▁AB 100
▁End 100
ring 100
▁нажати 100
mployee 100
▁basestring 100
▁количест 100
шь 100
▁Document 100
▁city 100
timer 100
▁каки 100
▁массива 100
▁strides 100
gration 100
▁CONFIG 100
▁connected 100
▁wrong 100
▁fileName 100
▁pw 100
▁what 100
▁transfer 100
percent 100
▁evt 100
▁loaded 100
Builder 100
lied 100
mplement 100
▁типа 100
▁Custom 100
бор 100
▁pip 100
deli 100
зом 100
▁az 100
till 100
▁Job 100
ria 100
▁formatter 100
ond 100
▁реализовать 100
▁connections 100
▁Ge 100
▁использо 100
foo 100
entities 100
rupt 100
▁функцию 100
ogram 100
ADD 100
▁started 100
selector 100
xtra 100
▁Ре 100
▁mouse 100
versed 100
▁bridge 100
▁fakes 100
MO 100
▁checker 100
▁PRE 100
▁Gaffer 100
free 100
▁Bytes 100
▁mocked 100
backup 100
▁делать 100
▁5.0 100
Role 100
ii 100
AY 100
targets 100
шу 100
▁estimator 100
▁qt 100
▁Async 100
▁dialect 100
ili 100
Open 100
▁turn 100
EADER 100
▁"0" 100
дар 100
tax 100
▁repos 100
▁syn 100
STATE 100
▁locations 100
▁activate 100
ga 100
stdout 100
▁pow 100
▁PH 100
▁lar 100
console 100
month 100
OF 100
из 100
▁algorithm 100
▁issub 100
▁supports 100
prepare 100
edges 100
▁deprecated 100
▁IE 100
Argument 100
▁deps 100
▁splitext 100
▁Location 100
▁нача 100
▁jpg 100
gers 100
orph 100
▁bla 100
sizes 100
ront 100
▁Min 100
warning 100
processor 100
▁modifi 100
▁Id 100
Comple 100
▁checksum 100
▁Queue 100
▁under 100
▁orient 100
31 100
▁returned 100
inf 100
▁Form 100
ника 100
Bad 100
▁sqlite 100
▁nom 100
бота 100
▁bas 100
▁Lay 100
symbol 100
▁unt 100
Parent 100
▁salt 100
imate 100
alan 100
▁getLogger 100
▁artifact 100
▁gp 100
▁actor 100
▁shuffle 100
▁acl 100
nts 100
▁Account 100
▁вариант 100
vey 100
▁communic 100
▁очень 100
▁0.8 100
external 100
▁Stream 100
sess 100
▁WAR 100
poly 100
Track 100
dime 100
▁Const 100
кс 100
sha 100
▁объект 100
▁FOR 100
seg 100
Operation 100
▁Replay 100
▁ldap 100
▁ADD 100
▁wsgi 100
▁datastore 100
illa 100
support 100
▁checkpoint 100
▁tmpl 100
Entity 100
как 100
щест 100
▁interfaces 100
hostname 100
▁annotation 100
▁луч 100
▁small 100
editor 100
We 100
▁образом 100
-10 100
92.1 100
▁сообщ 100
▁число 100
▁guid 100
▁expires 100
дом 100
cookie 100
▁fl 100
▁supp 100
ners 100
▁renderer 100
▁readlines 100
ORY 100
▁linux 100
лови 100
imation 100
▁svn 100
▁10.0 100
bob 100
CL 100
▁grpc 100
▁други 100
Man 100
▁ordered 100
▁coef 100
▁vn 100
▁вну 100
▁solve 100
(). 100
▁wave 100
Prefix 100
▁сервер 100
▁beam 100
queryset 100
CONT 100
▁validator 100
▁acce 100
sources 100
стоя 100
retri 100
▁disc 100
▁submission 100
.7 100
dom 100
▁initializer 100
cend 100
ред 100
allen 100
▁ticket 100
Exit 100
logs 100
failed 100
▁JS 100
Func 100
auss 100
▁Show 100
▁ша 100
мот 100
▁ANY 100
▁получи 100
27 100
▁preview 100
▁которо 100
▁DoesNotExist 100
speed 100
Folder 100
team 100
If 100
▁calendar 100
▁vt 100
arehouse 100
обще 100
Flags 100
▁coeff 100
▁trunc 100
▁handlers 100
Deta 100
Configuration 100
акти 100
000000 100
мент 100
▁HE 100
IND 100
▁потом 100
Write 100
дает 100
▁less 100
▁Color 100
▁testdir 100
▁nu 100
Mon 100
tems 100
▁Sign 100
▁middle 100
▁Accept 100
INFO 100
duration 100
cloud 100
рет 100
▁gb 100
▁время 100
▁FAKE 100
8" 100
▁nullable 100
ascript 100
▁VERSION 100
▁catch 100
LOCK 100
ced 100
▁тут 100
curacy 100
строй 100
ceptions 100
rum 100
▁функция 100
MAP 100
days 100
▁mt 100
▁passed 100
▁Local 100
quired 100
▁hit 100
▁Select 100
▁groupby 100
▁argparse 100
нный 100
▁ц 100
leanup 100
▁modify 100
should 100
MAIL 100
Jo 100
▁xmlns 100
Top 100
lower 100
SERIALI 100
lopen 100
cade 100
▁Unicode 100
▁about 100
▁OUT 100
ai 100
чение 100
Socket 100
bias 100
ragment 100
xis 100
▁ci 100
bus 100
▁проис 100
". 100
drop 100
▁отде 100
cense 100
▁TH 100
uman 100
ios 100
гля 100
▁analysis 100
hand 100
▁movie 100
▁multip 100
atal 100
▁major 100
ARD 100
▁published 100
Fields 100
locale 100
▁needs 100
струк 100
▁верси 100
▁cmds 100
aging 100
нить 100
▁song 100
92.168 100
вом 100
▁ul 100
-5 100
▁clock 100
scores 100
▁STRING 100
▁180 100
этому 100
floating 100
▁BU 100
tead 100
▁запуска 100
Credentials 100
▁hard 100
contrib 100
▁symbols 100
Description 100
▁spi 100
Coord 100
▁Fore 100
ours 100
worker 100
▁sale 100
▁Found 100
colors 100
lash 100
▁bib 100
toms 100
▁бра 100
▁rd 100
fire 100
▁lab 100
azy 100
so 100
▁vl 100
cogn 100
▁cpp 100
▁widgets 100
ов 100
▁aux 100
Lim 100
Lib 100
его 100
▁IS 100
▁solver 100
ipy 100
sn 100
:0 100
perm 100
▁encoder 100
deg 100
▁health 100
▁0.9 100
person 100
▁writ 100
rash 100
Ne 100
▁опера 100
avascript 100
fname 100
▁daemon 100
push 100
▁describe 100
▁Ut 100
shapes 100
▁'3 100
▁ReplayAll 100
GN 100
▁completed 100
▁Count 100
▁energy 100
reduce 100
SERIALIZER 100
▁subtitle 100
ggest 100
▁sentinel 100
▁staff 100
▁соответ 100
▁fullname 100
форма 100
▁dynamic 100
predi 100
сем 100
▁Х 100
endor 100
migration 100
▁party 100
cos 100
▁logical 100
▁UTF 100
▁почему 100
▁пла 100
catenate 100
▁svg 100
ctl 100
NOT 100
▁generated 100
Exp 100
▁форма 100
▁inventory 100
former 100
NotFoundError 100
USE 100
▁MS 100
begin 100
▁information 100
пы 100
▁temperature 100
▁native 100
OME 100
▁formats 100
▁constraints 100
Series 100
descriptor 100
frames 100
Left 100
': 100
▁элемент 100
▁которая 100
supported 100
▁could 100
▁sl 100
▁ks 100
▁hi 100
▁scroll 100
▁пото 100
IES 100
▁ALL 100
▁dlg 100
▁dur 100
dete 100
fast 100
▁клю 100
rp 100
▁defaultdict 100
ached 100
▁into 100
▁пап 100
▁webob 100
▁CFG 100
▁twe 100
▁поя 100
▁pull 100
▁CA 100
kit 100
▁boolean 100
▁ml 100
pener 100
▁ско 100
Post 100
▁clicked 100
▁досту 100
▁28 100
▁logout 100
iterator 100
▁Sec 100
ёт 100
FS 100
Cursor 100
баты 100
sur 100
▁реши 100
▁ansible 100
▁tid 100
wers 100
▁Remove 100
▁legend 100
pings 100
mlink 100
SSION 100
osition 100
▁AUTH 100
▁создать 100
onical 100
▁BY 100
▁pointer 100
Json 100
verter 100
▁Port 100
review 100
▁какой 100
ence 100
cient 100
▁terms 100
lencode 100
Transport 100
▁One 100
nces 100
▁401 100
▁ai 100
▁Book 100
uous 100
laces 100
istency 100
Children 100
same 100
Loader 100
▁Нужно 100
45 100
▁пос 100
chars 100
car 100
Tab 100
ail 100
Writer 100
lign 100
▁HOST 100
▁bug 100
FileName 100
▁bins 100
▁вызы 100
▁shard 100
▁ho 100
iler 100
▁стол 100
HOST 100
arison 100
гори 100
anded 100
▁gap 100
archive 100
▁fw 100
жу 100
btn 100
submit 100
_1_ 100
▁поле 100
▁minute 100
configure 100
uzz 100
configs 100
pending 100
UES 100
aller 100
▁всех 100
▁Ph 100
▁UPDATE 100
switch 100
▁wiki 100
▁surface 100
▁Len 100
▁disconnect 100
исте 100
▁getS 100
▁Net 100
ULE 100
▁Libvirt 100
▁элемента 100
▁assignment 100
▁cookies 100
DEFAULT 100
▁45 100
▁boto 100
▁вво 100
▁Dataset 100
▁recursive 100
when 100
▁много 100
ipv 100
▁foobar 100
▁картин 100
▁tran 100
revision 100
▁micro 100
Only 100
▁xyz 100
precation 100
▁randn 100
cce 100
▁aliases 100
.9 100
locations 100
nored 100
dicator 100
▁itertools 100
_2_ 100
ww 100
threads 100
▁ship 100
Regexp 100
▁strings 100
'); 100
▁именно 100
double 100
паси 100
definition 100
▁positive 100
VM 100
▁impl 100
▁dry 100
stall 100
▁БД 100
▁Init 100
▁increment 100
▁fixtures 100
▁Application 100
емы 100
SK 100
▁Empty 100
▁epsilon 100
mult 100
▁rendered 100
Lock 100
kernel 100
001 100
adow 100
pas 100
-01-01 100
▁работать 100
MAX 100
▁более 100
▁ratio 100
▁chdir 100
▁ничего 100
Main 100
▁thing 100
▁latitude 100
▁verbosity 100
reet 100
peg 100
▁mut 100
▁ready 100
Parse 100
▁Frame 100
mq 100
▁linspace 100
dc 100
▁provided 100
▁delimiter 100
Geometry 100
▁они 100
▁02 100
high 100
▁crop 100
destroy 100
▁chrom 100
▁IM 100
▁лучше 100
▁Mem 100
▁oo 100
Stop 100
▁material 100
▁fragment 100
пасибо 100
73 100
чения 100
▁frames 100
▁deployment 100
▁rating 100
▁Virtual 100
▁Home 100
▁slave 100
▁friend 100
▁setValue 100
sage 100
certificate 100
тей 100
▁quit 100
▁cx 100
▁ро 100
▁REQUEST 100
▁403 100
▁fetchall 100
▁hexdigest 100
▁cover 100
INTER 100
Ph 100
▁ping 100
▁frag 100
▁nl 100
▁0.25 100
Package 100
▁сов 100
▁character 100
REG 100
ом 100
Filename 100
izard 100
MI 100
2, 100
ображ 100
utoff 100
plugins 100
▁фи 100
▁sections 100
radius 100
▁DIS 100
LIENT 100
RY 100
-6 100
ffe 100
▁adj 100
inux 100
▁longitude 100
▁dic 100
Attr 100
coming 100
expi 100
▁Man 100
▁несколько 100
hd 100
вого 100
UD 100
cleanup 100
▁spam 100
▁0.6 100
▁TE 100
▁mobile 100
docs 100
lette 100
PH 100
▁executor 100
adio 100
notify 100
inct 100
iet 100
insensitive 100
refresh 100
▁Target 100
▁frozen 100
▁це 100
ILD 100
ano 100
▁-- 100
▁ME 100
▁Database 100
Elements 100
9999 100
digit 100
ilar 100
▁QU 100
▁Tree 100
▁Product 100
Http 100
[0 100
▁arc 100
ставить 100
▁Link 100
▁crit 100
ixmap 100
wt 100
ndo 100
inity 100
Active 100
▁AF 100
handlers 100
▁выполня 100
iration 100
▁точ 100
SOURCE 100
▁sca 100
▁тре 100
тро 100
соб 100
▁globals 100
▁вм 100
▁Например 100
icros 100
bro 100
▁VM 100
SERT 100
DEX 100
▁этой 100
identity 100
indent 100
▁vi 100
sq 100
native 100
▁alarm 100
Connect 100
Timeout 100
RC 100
▁adapter 100
WS 100
gres 100
▁au 100
clone 100
▁leaf 100
fixed 100
iles 100
bund 100
MPLATE 100
уз 100
JSON 100
▁compress 100
Flag 100
▁matched 100
▁urlopen 100
▁concatenate 100
Global 100
ными 100
▁PUT 100
▁possible 100
кая 100
kind 100
▁44 100
▁2000 100
▁toggle 100
regular 100
▁receive 100
▁quot 100
environment 100
▁BytesIO 100
Mask 100
▁masked 100
▁Access 100
▁lc 100
segment 100
bounds 100
mis 100
▁another 100
correct 100
▁anchor 100
зации 100
ym 100
▁Plugin 100
witch 100
library 100
Enum 100
▁mav 100
ник 100
initions 100
resize 100
browser 100
"; 100
Rel 100
dispatch 100
▁addCallback 100
dag 100
▁throw 100
], 100
yaml 100
▁Mon 100
▁urlencode 100
UCCESS 100
▁cut 100
screen 100
8_ 100
▁Property 100
processing 100
SULT 100
▁26 100
▁aggreg 100
▁hw 100
▁limits 100
▁ctrl 100
resolve 100
ational 100
▁DO 100
▁yang 100
▁frequency 100
AV 100
▁union 100
ka 100
Select 100
Properties 100
▁broadcast 100
lify 100
▁vertices 100
jected 100
▁Проблем 100
watch 100
▁tok 100
ству 100
oring 100
▁свя 100
unity 100
▁два 100
▁завис 100
▁либо 100
quent 100
ascii 100
monitor 100
▁nest 100
▁decoder 100
▁Format 100
десь 100
▁Att 100
cov 100
▁infile 100
имо 100
linear 100
▁hd 100
incip 100
family 100
▁reversed 100
▁bc 100
lusive 100
rypto 100
Space 100
vc 100
▁понимаю 100
UUID 100
▁xp 100
CTIVE 100
▁услови 100
▁ру 100
▁Article 100
Ids 100
▁transl 100
▁Storage 100
▁sb 100
чис 100
UST 100
▁helpers 100
associ 100
jquery 100
▁processed 100
▁Down 100
▁кор 100
200 100
NO 100
▁него 100
quences 100
▁embedding 100
▁Inc 100
transport 100
▁поля 100
NU 100
тори 100
sym 100
mediate 100
SD 100
IAL 100
scalar 100
▁zoom 100
panel 100
лась 100
chron 100
▁exact 100
▁Ansible 100
▁spark 100
shared 100
stit 100
▁setEnabled 100
▁PL 100
▁вообще 100
voke 100
▁nr 100
79 100
XXXX 100
Failed 100
CRE 100
ления 100
achine 100
▁curve 100
Actions 100
нуть 100
▁bulk 100
▁retrieve 100
▁она 100
▁capture 100
▁rho 100
strategy 100
▁bill 100
herit 100
Body 100
▁uom 100
IE 100
asset 100
▁SERVICE 100
maps 100
▁приложение 100
▁систе 100
acl 100
choices 100
▁Ф 100
FORMAT 100
olds 100
▁TO 100
▁выводи 100
Integer 100
ippet 100
▁COLOR 100
▁exchange 100
Serializer 100
▁due 100
CATION 100
mpy 100
ROP 100
писать 100
Bound 100
▁всего 100
▁amo 100
▁implemented 100
ense 100
math 100
ighted 100
бло 100
ге 100
Scale 100
▁noise 100
GE 100
▁che 100
agraph 100
▁reactor 100
▁gid 100
packet 100
OKEN 100
торы 100
▁Random 100
▁Pub 100
бовал 100
▁Json 100
="# 100
▁фо 100
▁here 100
tle 100
дно 100
▁mocker 100
break 100
Transform 100
▁flask 100
program 100
rigin 100
diag 100
.0" 100
▁lp 100
allenge 100
▁Agent 100
▁Save 100
▁изображ 100
ye 100
▁robot 100
▁leave 100
▁Length 100
▁associ 100
formats 100
▁bytearray 100
▁always 100
Listener 100
Utils 100
▁SUP 100
usic 100
▁ha 100
▁instead 100
▁again 100
▁iterable 100
Pat 100
▁square 100
ень 100
legate 100
STATUS 100
▁initi 100
▁minor 100
▁levels 100
рую 100
Constraint 100
▁}); 100
▁sentence 100
▁invoke 100
▁rotate 100
▁separator 100
▁найти 100
variant 100
▁purchase 100
▁.5 100
Rate 100
▁lu 100
PREFIX 100
ней 100
ixin 100
staff 100
▁fits 100
▁wd 100
▁Change 100
spa 100
REQUEST 100
ractive 100
ignore 100
tensors 100
Doc 100
▁regular 100
▁negative 100
▁monkey 100
xe 100
▁/> 100
xc 100
hort 100
Bytes 100
ATOR 100
tener 100
▁From 100
▁backward 100
▁tbl 100
▁interpol 100
▁Use 100
▁iteri 100
▁If 100
▁vertex 100
gateway 100
▁/= 100
deps 100
▁ар 100
▁0-9 100
getattr 100
diffe 100
01' 100
▁getcwd 100
▁matching 100
getter 100
▁numbers 100
▁bp 100
▁ignored 100
afe 100
▁iteritems 100
rols 100
closed 100
require 100
suite 100
tip 100
▁ba 100
updates 100
added 100
▁guess 100
▁feat 100
▁warehouse 100
▁indexer 100
Show 100
▁доку 100
cancel 100
activity 100
FIEL 100
ление 100
▁dates 100
anguage 100
Panel 100
itation 100
png 100
▁story 100
ongo 100
answer 100
roles 100
inator 100
▁происходит 100
reens 100
▁too 100
itespace 100
▁formatted 100
libs 100
▁objs 100
▁получается 100
▁checked 100
▁Wait 100
notes 100
▁Configuration 100
▁lv 100
вая 100
▁windows 100
▁pairs 100
Runner 100
▁many 100
integer 100
▁binding 100
Flow 100
training 100
▁Entry 100
▁rotation 100
matic 100
▁extended 100
havi 100
setitem 100
▁transition 100
▁fg 100
limits 100
Multi 100
▁wallet 100
mtime 100
▁WARNING 100
▁registered 100
sca 100
▁clo 100
bins 100
▁тоже 100
▁dead 100
locity 100
lerance 100
pdf 100
prev 100
ulated 100
▁merged 100
▁nm 100
▁бу 100
▁Top 100
▁33 100
▁hashlib 100
▁strptime 100
usted 100
▁balance 100
08 100
▁firewall 100
▁chapter 100
▁SY 100
▁Anonymous 100
▁таблицы 100
▁ле 100
Iteration 100
▁processor 100
▁facts 100
RED 100
▁neg 100
indexes 100
dns 100
▁glyph 100
▁floor 100
▁rr 100
tic 100
city 100
deploy 100
▁NS 100
▁station 100
▁результат 100
▁quiet 100
▁Почему 100
PACE 100
pectrum 100
ributed 100
▁Spec 100
▁combo 100
▁QtWidgets 100
Cond 100
multip 100
PEN 100
lare 100
exceptions 100
Meta 100
▁другой 100
activate 100
publish 100
Word 100
ски 100
▁focus 100
mooth 100
ём 100
▁Email 100
▁mg 100
▁unused 100
вые 100
▁содержи 100
06 100
29 100
▁recipe 100
▁dashboard 100
EP 100
гите 100
primary 100
clip 100
▁mass 100
▁fq 100
TYPES 100
▁vendor 100
▁scenario 100
TEST 100
▁информа 100
▁пользователя 100
iddleware 100
▁three 100
▁blog 100
▁слова 100
▁conditions 100
Mark 100
complex 100
comments 100
58 100
▁stroke 100
▁FO 100
▁packed 100
дра 100
mtp 100
▁spe 100
positive 100
Generator 100
quee 100
Ind 100
retry 100
accept 100
▁logfile 100
▁serialized 100
▁issubclass 100
▁cart 100
▁ang 100
ITH 100
▁fileobj 100
▁amp 100
▁sat 100
shell 100
▁metavar 100
sorted 100
▁coverage 100
blob 100
▁PASS 100
ARCH 100
▁funct 100
▁annotations 100
▁codes 100
▁routing 100
▁Rest 100
numbers 100
7.0.0.1 100
disc 100
▁tracker 100
▁Header 100
fun 100
MT 100
▁specs 100
Load 100
ertificate 100
▁tl 100
ыти 100
Schema 100
▁press 100
vig 100
eds 100
machine 100
Gra 100
▁pv 100
▁ваш 100
▁credit 100
Selected 100
▁caller 100
▁пол 100
Cleanup 100
▁receiver 100
ний 100
tenv 100
inja 100
▁ram 100
▁contract 100
▁dhcp 100
ssh 100
zy 100
▁consume 100
сов 100
Expression 100
▁Over 100
▁cycle 100
▁peak 100
▁Sup 100
stage 100
POST 100
брать 100
▁брауз 100
Domain 100
▁Record 100
irth 100
ери 100
lon 100
▁Matrix 100
RENT 100
▁элементов 100
▁пис 100
logging 100
▁photo 100
pure 100
2. 100
Mapping 100
▁добавля 100
▁torrent 100
▁qos 100
▁сдела 100
▁eth 100
LY 100
defs 100
▁пыта 100
▁resolution 100
Web 100
▁BO 100
▁creation 100
▁wf 100
▁Temp 100
▁Channel 100
▁Проблема 100
cid 100
ali 100
curs 100
pan 100
щем 100
▁dirty 100
▁availability 100
crete 100
▁NotFound 100
▁iris 100
▁логи 100
ji 100
▁trig 100
Area 100
Agent 100
BASE 100
ierarch 100
▁atoms 100
enable 100
▁страницы 100
▁cinder 100
CAL 100
Mod 100
▁CC 100
▁Settings 100
▁PRI 100
▁dimensions 100
BinaryProtocol 100
Interval 100
Checked 100
▁spawn 100
Points 100
▁Sample 100
▁TBinaryProtocol 100
▁how 100
▁dependency 100
▁picking 100
Ip 100
Operator 100
▁INSERT 100
▁fac 100
Password 100
Play 100
▁rdf 100
ходя 100
мально 100
alive 100
Sc 100
▁svc 100
▁— 100
▁хочу 100
▁27 100
▁Пример 100
mes 100
▁physical 100
iling 100
Extension 100
OFF 100
room 100
▁vim 100
SA 100
riv 100
alancer 100
▁containers 100
addresses 100
▁des 100
▁OP 100
▁numeric 100
== 100
csi 100
▁Make 100
gu 100
▁hint 100
atches 100
gl 100
▁приложения 100
▁JO 100
▁alg 100
▁проц 100
▁abstract 100
mix 100
▁trim 100
trip 100
▁35 100
▁302 100
▁должно 100
▁species 100
dings 100
▁swift 100
мет 100
vite 100
imizer 100
]. 100
Stat 100
▁Ра 100
▁неко 100
Fi 100
▁строка 100
ена 100
▁написать 100
UCT 100
▁Uns 100
▁fft 100
▁поис 100
▁OFP 100
IZ 100
▁Find 100
Activity 100
▁послед 100
VALID 100
▁QApplication 100
▁TEXT 100
SCRI 100
▁lun 100
лись 100
▁bpy 100
▁4. 100
READ 100
▁3' 100
▁Pi 100
ilent 100
cir 100
lastic 100
тя 100
templates 100
RESS 100
presentation 100
▁provision 100
▁communicate 100
▁количество 100
▁MODE 100
▁адрес 100
▁ид 100
▁terminate 100
LOAD 100
bre 100
▁консо 100
gui 100
▁see 100
riteria 100
▁памя 100
▁BASE 100
ignKey 100
▁chars 100
COUNT 100
▁выполн 100
93 100
preter 100
▁protected 100
Failure 100
▁discovery 100
ards 100
▁100.0 100
▁fieldname 100
▁compression 100
▁Sc 100
Conf 100
▁Hash 100
▁trust 100
▁'3' 100
▁Г 100
тора 100
▁ros 100
▁benchmark 100
▁indexes 100
▁эту 100
pendent 100
▁Воз 100
▁свойст 100
▁числа 100
Float 100
subject 100
йстви 100
bi 100
▁.2 100
▁Symbol 100
▁pod 100
▁parallel 100
▁fastbinary 100
вод 100
вую 100
osite 100
ince 100
▁without 100
▁pf 100
▁getCurrent 100
omial 100
▁Unexpected 100
EAM 100
▁внутри 100
▁capacity 100
509 100
tenant 100
bidden 100
▁oid 100
▁digits 100
дите 100
servations 100
▁tempdir 100
▁знаю 100
balance 100
▁solution 100
вил 100
Sample 100
▁epochs 100
catalog 100
aggregate 100
зя 100
▁bold 100
Stats 100
terms 100
▁CS 100
FN 100
trigger 100
▁0.05 100
▁Call 100
▁tolist 100
▁avatar 100
dence 100
▁Enter 100
pixel 100
▁Permission 100
▁До 100
▁predicate 100
Formatter 100
▁functools 100
DED 100
▁cuda 100
choice 100
NK 100
▁решение 100
▁событи 100
Groups 100
▁authors 100
▁Info 100
.1.1 100
▁boundary 100
▁1.2 100
aign 100
▁DAT 100
▁Sum 100
бира 100
▁At 100
ToString 100
BU 100
▁fileno 100
[] 100
▁nargs 100
▁shapes 100
▁credential 100
▁Struct 100
ookup 100
▁website 100
phone 100
▁Named 100
sensor 100
▁refs 100
ople 100
▁Мне 100
binding 100
direction 100
listener 100
BR 100
appro 100
▁least 100
▁pkt 100
▁ее 100
▁Iter 100
▁Current 100
▁since 100
posal 100
filepath 100
igned 100
▁whe 100
exact 100
▁wc 100
▁segments 100
ech 100
▁hs 100
▁Package 100
▁Container 100
▁Method 100
▁больше 100
▁Print 100
invoice 100
▁120 100
▁camp 100
▁mq 100
▁secondary 100
enum 100
equals 100
▁both 100
▁configs 100
▁способ 100
lobs 100
▁domains 100
▁bootstrap 100
нако 100
itize 100
xFF 100
named 100
▁tan 100
incipal 100
Python 100
atial 100
▁players 100
▁bt 100
clause 100
Account 100
▁Category 100
▁SUB 100
▁cipher 100
Pub 100
▁lstrip 100
anization 100
▁Static 100
▁don 100
▁goal 100
▁instrument 100
UME 100
▁Filter 100
▁конструк 100
rouped 100
MBER 100
hist 100
▁Has 100
ardown 100
ITION 100
▁дву 100
▁clients 100
▁такое 100
▁meme 100
▁cum 100
Player 100
▁любо 100
ROOT 100
рукту 100
Backend 100
negative 100
TON 100
dst 100
arrays 100
шел 100
▁cmap 100
▁ham 100
▁tell 100
ляр 100
▁namespaces 100
▁gd 100
disabled 100
Report 100
▁gpu 100
▁dropout 100
▁mimetype 100
Right 100
▁Api 100
Impl 100
▁gzip 100
▁tablename 100
йд 100
asy 100
student 100
▁examples 100
▁license 100
▁RUN 100
hing 100
▁PHP 100
▁subset 100
▁readonly 100
▁just 100
comm 100
▁Title 100
щё 100
▁сам 100
▁pandas 100
]; 100
Delete 100
▁something 100
жду 100
▁checks 100
olo 100
▁authentication 100
▁можете 100
lev 100
mplementation 100
▁relu 100
origin 100
▁demo 100
SSAGE 100
▁Close 100
▁вывести 100
lems 100
▁starting 100
▁ArgumentParser 100
▁maybe 100
exe 100
Lines 100
читать 100
▁pci 100
▁обработ 100
nested 100
Sizer 100
TypeId 100
▁allclose 100
▁extent 100
мера 100
▁компи 100
▁vbox 100
Ap 100
щие 100
capt 100
Last 100
▁объя 100
Invalid 100
▁checkout 100
▁Description 100
quential 100
▁passwd 100
▁bd 100
Gen 100
SERVER 100
▁Edit 100
ither 100
туа 100
stderr 100
▁мес 100
▁Basic 100
WORK 100
201 100
править 100
▁general 100
▁Bar 100
чина 100
xs 100
Bind 100
sect 100
▁normalized 100
posed 100
Rest 100
▁creds 100
▁IsA 100
Db 100
▁feedback 100
Objects 100
▁UTC 100
▁INTO 100
measure 100
▁inplace 100
▁rollback 100
▁populate 100
expect 100
▁pause 100
XY 100
32" 100
▁скрипт 100
MessageBox 100
▁MIN 100
mg 100
AUTH 100
objs 100
▁tau 100
▁SERVER 100
lec 100
BadRequest 100
▁plug 100
▁following 100
reply 100
▁literal 100
returns 100
▁Menu 100
Symbol 100
sktop 100
▁topology 100
▁Ass 100
▁altern 100
www 100
▁StopIteration 100
▁Sparse 100
▁queries 100
▁Success 100
67 100
Fin 100
mpath 100
▁fetchone 100
пусти 100
▁mirror 100
льные 100
ключа 100
▁trainable 100
▁язы 100
▁наз 100
connections 100
▁Linear 100
▁ht 100
.10 100
▁Исполь 100
Authentic 100
▁requirements 100
erm 100
war 100
▁работы 100
placeholder 100
finished 100
▁subdir 100
▁lazy 100
-------- 100
outube 100
compress 100
cpus 100
▁NUM 100
scriptions 100
сты 100
▁coordinates 100
raps 100
▁tex 100
▁etag 100
confirm 100
▁positions 100
▁lead 100
▁prediction 100
nav 100
ставля 100
▁tot 100
▁styles 100
that 100
riptor 100
▁TypeId 100
keep 100
pends 100
EC 100
▁arm 100
POINT 100
chan 100
▁выра 100
▁От 100
▁EXP 100
▁55 100
▁ome 100
unce 100
▁150 100
▁letter 100
hood 100
Move 100
anned 100
extensions 100
▁scripts 100
89 100
фика 100
RECT 100
tential 100
▁orientation 100
dates 100
вое 100
▁converter 100
▁выгля 100
▁nums 100
icrosoft 100
▁Callable 100
▁метода 100
▁classifier 100
▁half 100
▁broker 100
ims 100
Net 100
where 100
Bit 100
ique 100
ues 100
MAND 100
▁flex 100
▁advance 100
windows 100
▁bank 100
▁bases 100
новить 100
▁объекта 100
rator 100
▁SSL 100
queeze 100
Save 100
-02 100
▁JOIN 100
00_ 100
▁alph 100
▁monkeypatch 100
▁provide 100
ball 100
Limit 100
vors 100
▁Warning 100
▁нем 100
upper 100
ено 100
нные 100
reverse 100
▁одно 100
▁elapsed 100
цио 100
нача 100
cuit 100
ulip 100
▁ду 100
▁CharField 100
neighb 100
Engine 100
▁VALUES 100
ocial 100
▁degree 100
▁pts 100
▁сразу 100
▁successfully 100
999 100
ANT 100
▁reserved 100
▁replica 100
apis 100
▁вместо 100
▁legacy 100
original 100
▁then 100
▁decorator 100
foc 100
▁Schema 100
DO 100
▁ban 100
ffic 100
CLASS 100
▁Exp 100
▁Serialize 100
▁different 100
Inte 100
Loc 100
▁subplot 100
ERT 100
лек 100
▁ravel 100
UTTON 100
▁нор 100
android 100
Definition 100
rgb 100
мотре 100
▁unexpected 100
▁отобража 100
▁3600 100
▁trial 100
▁depart 100
▁свой 100
▁512 100
▁стан 100
HE 100
rected 100
▁Unit 100
ntaxError 100
oid 100
marker 100
)); 100
▁irc 100
bra 100
42 100
▁REG 100
▁'5 100
▁Note 100
▁assets 100
background 100
week 100
▁det 100
Identifier 100
пон 100
▁ttl 100
Suite 100
▁DIR 100
▁memeber 100
%; 100
роде 100
authenticated 100
kg 100
▁Environment 100
isation 100
PASS 100
semble 100
isted 100
nr 100
AMPLE 100
application 100
▁ring 100
leaf 100
erge 100
▁между 100
dtemp 100
▁duplicate 100
Hook 100
(), 100
▁tre 100
hooks 100
▁Timeout 100
влен 100
▁Size 100
▁fallback 100
▁dup 100
boxes 100
▁кнопку 100
hint 100
▁subscribe 100
▁IPv 100
levels 100
▁operand 100
▁jar 100
▁tester 100
ению 100
Axis 100
manifest 100
parsed 100
Idx 100
lst 100
▁rsp 100
repe 100
rolled 100
▁elev 100
▁publisher 100
▁pen 100
checker 100
ellow 100
▁"2" 100
▁серве 100
neg 100
тем 100
collections 100
PIO 100
stock 100
раня 100
Display 100
▁workers 100
▁5. 100
secure 100
statement 100
EB 100
hemer 100
ora 100
ana 100
▁notebook 100
cells 100
▁определен 100
checks 100
marks 100
▁ot 100
▁кол 100
authorized 100
▁храни 100
KN 100
▁touch 100
▁pul 100
▁fault 100
▁look 100
▁retries 100
▁signed 100
Category 100
▁jsonify 100
▁2.5 100
▁particip 100
▁процес 100
ycle 100
62 100
▁flt 100
▁установ 100
patterns 100
▁отве 100
буд 100
pipe 100
▁MAV 100
bundle 100
▁construct 100
▁iq 100
▁UUID 100
▁difference 100
▁scipy 100
▁median 100
bg 100
ций 100
cross 100
coeff 100
▁IECore 100
82 100
partial 100
ента 100
▁Feature 100
1111 100
URI 100
▁products 100
▁smart 100
quis 100
boolean 100
6" 100
▁nodeName 100
produ 100
▁Admin 100
▁calib 100
NA 100
ordered 100
▁misc 100
▁annotate 100
DL 100
▁использую 100
▁Ref 100
otion 100
▁isnan 100
ining 100
zilla 100
▁был 100
▁METH 100
atory 100
Setting 100
▁Console 100
TA 100
Poly 100
▁Packet 100
▁0.7 100
chemy 100
ookie 100
Xml 100
▁Match 100
▁datatype 100
swig 100
83 100
рси 100
▁mkdtemp 100
NC 100
▁nic 100
ках 100
vered 100
▁RequestContext 100
▁Site 100
ricted 100
▁Protocol 100
▁кажды 100
▁addCleanup 100
тера 100
band 100
▁manual 100
▁HEAD 100
▁моде 100
fox 100
перь 100
repository 100
workflow 100
вых 100
Section 100
▁Vis 100
▁thresh 100
anding 100
Raw 100
eager 100
CKET 100
▁Box 100
workers 100
64_ 100
HTTP 100
▁Authorization 100
execution 100
▁bw 100
dicts 100
reason 100
▁recent 100
_5 100
ATTR 100
▁вызо 100
ATURE 100
▁204 100
stor 100
▁kv 100
86_ 100
▁drive 100
3456789 100
▁doesn 100
isco 100
Async 100
▁sound 100
▁patterns 100
Iterator 100
▁specify 100
▁ForeignKey 100
▁nw 100
ierarchy 100
/1 100
oted 100
тически 100
рования 100
mesh 100
ками 100
▁Gra 100
▁Running 100
▁будут 100
▁mv 100
▁built 100
into 100
Database 100
▁понять 100
▁samp 100
▁ROOT 100
checkpoint 100
▁candidates 100
dig 100
▁grade 100
▁Л 100
Adapter 100
categories 100
▁обы 100
PY 100
▁bob 100
▁distinct 100
sections 100
DOMAIN 100
▁routes 100
▁af 100
ffff 100
arest 100
▁Global 100
▁mix 100
▁доступ 100
▁Stack 100
Rows 100
▁met 100
▁сторо 100
▁Comment 100
▁wraps 100
▁Вопрос 100
attemp 100
▁codecs 100
TEXT 100
aussian 100
▁news 100
positions 100
▁idle 100
▁Код 100
phrase 100
Email 100
▁Может 100
addon 100
rics 100
quota 100
setattr 100
Ab 100
migrate 100
87 100
GS 100
▁коде 100
▁После 100
▁PORT 100
FE 100
▁xt 100
CUR 100
▁suggest 100
Visible 100
▁gather 100
** 100
▁структу 100
▁600 100
▁пока 100
Features 100
▁decoded 100
▁survey 100
▁setUpClass 100
▁ck 100
▁unset 100
Tuple 100
▁LOGGER 100
compatible 100
verity 100
google 100
unknown 100
Override 100
▁vote 100
▁mapped 100
▁Download 100
▁Policy 100
▁dbname 100
rmed 100
Combo 100
▁Rel 100
▁Buffer 100
▁Mac 100
▁sites 100
){ 100
Cal 100
ABLED 100
Loop 100
▁smtp 100
▁pdb 100
future 100
59 100
▁px 100
▁переменной 100
rd 100
HEADER 100
FOR 100
▁accum 100
▁ee 100
beat 100
acter 100
▁сайта 100
gh 100
chemas 100
▁Fla 100
3. 100
▁between 100
▁элементы 100
▁котором 100
calar 100
'). 100
▁SM 100
▁METHOD 100
First 100
кон 100
precationWarning 100
clicked 100
xf 100
▁Bind 100
Ctrl 100
будь 100
▁gw 100
▁There 100
ARGET 100
ficient 100
▁Ident 100
▁DateTime 100
volumes 100
Remove 100
BACK 100
Opt 100
▁wp 100
BE 100
forms 100
▁relpath 100
joint 100
▁audit 100
▁Total 100
тив 100
▁adjust 100
ograph 100
ERS 100
▁combine 100
▁EVENT 100
Scope 100
▁READ 100
SUB 100
mapper 100
▁ш 100
▁SI 100
▁clusters 100
▁printer 100
нию 100
нии 100
▁appliance 100
Descriptor 100
▁pix 100
▁Mode 100
GR 100
▁ly 100
onal 100
ность 100
OLUME 100
anti 100
Cap 100
untu 100
▁posts 100
dense 100
012 100
▁также 100
▁simulation 100
beta 100
личи 100
▁waiting 100
ulary 100
▁tup 100
▁тогда 100
404 100
▁datasets 100
cussion 100
Editor 100
ilation 100
Dataset 100
▁сайт 100
▁detect 100
▁encrypt 100
OTE 100
Selector 100
constant 100
▁scopes 100
▁шабло 100
vlan 100
▁hdr 100
▁файлы 100
GI 100
tracker 100
href 100
▁sick 100
contain 100
▁setLevel 100
▁находи 100
Machine 100
щее 100
▁iv 100
▁GPIO 100
pot 100
▁bn 100
▁eta 100
padding 100
previous 100
▁spin 100
▁Program 100
▁critical 100
▁vouch 100
cnt 100
▁Google 100
▁xi 100
numeric 100
utf 100
▁такая 100
▁ini 100
▁прис 100
▁employee 100
▁времени 100
▁eng 100
▁NE 100
▁70 100
apps 100
views 100
▁disp 100
relative 100
ua 100
registration 100
focus 100
TIMEOUT 100
ILED 100
щего 100
▁corpus 100
ById 100
Simple 100
Single 100
visions 100
▁dct 100
▁providers 100
VEL 100
▁PROJECT 100
▁Git 100
-03 100
SPON 100
seen 100
GROUP 100
▁34 100
sence 100
nost 100
▁Android 100
proj 100
Validator 100
'; 100
▁Bit 100
▁intersection 100
▁пользователь 100
:\ 100
▁normpath 100
phase 100
Ren 100
▁large 100
▁interp 100
secs 100
▁fromstring 100
ANS 100
▁Mark 100
▁fld 100
candid 100
▁canonical 100
▁highlight 100
void 100
▁Rule 100
decor 100
SPACE 100
inate 100
Fixture 100
tor 100
CD 100
flatten 100
▁HTTPError 100
▁mgr 100
▁здесь 100
▁subnets 100
▁todo 100
▁say 100
Setup 100
ranches 100
▁ub 100
▁isoformat 100
▁trip 100
installed 100
poll 100
▁buttons 100
ваем 100
▁migrations 100
Cluster 100
▁toolbar 100
▁действи 100
▁ol 100
grams 100
ranges 100
▁ray 100
▁horizontal 100
Auto 100
PTIONS 100
▁secure 100
▁forum 100
facts 100
▁Debug 100
▁sizes 100
▁Comple 100
▁документа 100
▁Options 100
▁Password 100
iso 100
▁даже 100
udy 100
▁кра 100
Normal 100
▁START 100
___ 100
ned 100
▁assertQuery 100
▁authenticate 100
▁postgres 100
quet 100
вление 100
▁Помо 100
▁fee 100
VAR 100
▁vpc 100
▁Conv 100
▁eye 100
▁descr 100
▁размер 100
91 100
construct 100
▁grp 100
▁capabilities 100
▁separ 100
▁компон 100
▁most 100
▁dedent 100
▁netloc 100
▁ceil 100
Disk 100
▁jsonutils 100
▁переменную 100
▁UserFactory 100
ByName 100
▁инде 100
▁QMessageBox 100
tester 100
lv 100
arp 100
▁human 100
Scene 100
▁.1 100
▁scr 100
▁кнопки 100
▁formula 100
▁поэтому 100
pointer 100
00000 100
ders 100
▁Last 100
чей 100
cases 100
▁nat 100
▁48 100
▁ORDER 100
▁expire 100
soft 100
▁basedir 100
▁sz 100
▁accepted 100
ряд 100
▁nv 100
runs 100
7" 100
▁10. 100
▁MySQL 100
▁openconfig 100
Zone 100
▁сти 100
izing 100
wrapped 100
▁flip 100
▁'127.0.0 100
▁orders 100
chat 100
imize 100
▁Range 100
▁writeFieldBegin 100
Product 100
▁writeFieldEnd 100
bottom 100
VC 100
▁CR 100
Debug 100
dimension 100
▁hits 100
obs 100
▁моду 100
STRING 100
▁CT 100
moving 100
▁cas 100
▁attempt 100
▁bdm 100
▁opener 100
▁skipped 100
.0/ 100
WR 100
▁management 100
чет 100
erce 100
deprecated 100
LOB 100
margin 100
▁expanduser 100
▁accuracy 100
▁META 100
bc 100
▁LEFT 100
GRA 100
DOWN 100
▁}, 100
▁xm 100
▁pn 100
час 100
▁строке 100
▁arrays 100
▁regions 100
▁mqtt 100
iodic 100
Err 100
ales 100
urations 100
▁кто 100
▁Ignore 100
▁market 100
unded 100
ae 100
шо 100
Wh 100
Prop 100
▁AC 100
realm 100
dat 100
▁getValue 100
bian 100
▁pq 100
лав 100
▁ys 100
▁Enable 100
▁inverse 100
▁magic 100
helpers 100
▁Free 100
vigation 100
lengths 100
LET 100
ONG 100
bas 100
rightness 100
Details 100
▁выраж 100
▁choose 100
projects 100
KNOWN 100
▁ал 100
▁TRA 100
▁Grid 100
Plot 100
urchase 100
▁topics 100
▁lif 100
▁simp 100
ause 100
▁chrome 100
▁wind 100
SPONSE 100
Mixin 100
▁сущест 100
▁ска 100
raries 100
▁exploration 100
▁гру 100
VALUE 100
▁Cluster 100
questions 100
▁javascript 100
ARE 100
▁failures 100
▁yy 100
EV 100
▁linked 100
gw 100
fails 100
▁ful 100
▁Row 100
▁jid 100
▁voucher 100
▁возвращает 100
Schedule 100
termine 100
▁opa 100
listen 100
▁ши 100
Literal 100
cue 100
▁du 100
▁resume 100
▁Entity 100
distribution 100
нг 100
▁ajax 100
▁USE 100
▁fip 100
bf 100
▁popup 100
normalize 100
operations 100
▁ftp 100
▁nonce 100
▁Op 100
▁списка 100
▁iloc 100
setEqual 100
vocab 100
▁Security 100
нкрет 100
▁имеет 100
46 100
▁PAR 100
▁coll 100
ита 100
tun 100
3, 100
▁occur 100
▁signals 100
codeError 100
▁streams 100
▁converted 100
lope 100
▁framework 100
▁egg 100
Equals 100
/> 100
oll 100
▁Все 100
▁realpath 100
▁equ 100
Pattern 100
ERY 100
ev 100
▁jnp 100
▁mul 100
▁какие 100
styles 100
▁Layer 100
▁Imp 100
▁moment 100
▁callbacks 100
▁caption 100
▁fk 100
тите 100
analy 100
чный 100
▁строк 100
▁смо 100
received 100
Copy 100
-05 100
Users 100
▁newaxis 100
▁notifications 100
▁Zero 100
structions 100
writ 100
▁SUCCESS 100
▁please 100
aming 100
dictionary 100
hemeral 100
вании 100
symbols 100
▁SOURCE 100
▁tpl 100
▁processing 100
▁APP 100
▁0.001 100
▁until 100
▁eg 100
mitted 100
▁enrollment 100
▁detach 100
more 100
▁indicator 100
tot 100
▁pwd 100
▁записи 100
▁filesystem 100
under 100
Memory 100
▁Callback 100
07 100
▁Got 100
ctxt 100
contin 100
▁cases 100
▁locator 100
curve 100
dynamic 100
ATED 100
ейчас 100
follow 100
▁Send 100
▁iterations 100
latform 100
mn 100
▁Game 100
Indent 100
▁expiration 100
▁писа 100
▁запроса 100
▁стандар 100
gettext 100
▁CG 100
Greater 100
ACT 100
09 100
▁ED 100
фей 100
▁Install 100
cpp 100
▁First 100
▁byref 100
▁GetValue 100
▁tele 100
Byte 100
▁"10 100
▁ei 100
dfs 100
planation 100
Rep 100
▁periods 100
phi 100
▁Interface 100
rontend 100
▁assertList 100
▁ctype 100
▁CUR 100
Print 100
ildcard 100
льше 100
52 100
▁Cloud 100
beard 100
▁контро 100
▁INST 100
нно 100
▁Domain 100
Screen 100
▁pitch 100
▁получаю 100
INET 100
▁profiles 100
▁tabs 100
CI 100
svg 100
▁memo 100
▁prior 100
▁ещё 100
▁INTER 100
щей 100
▁Return 100
Game 100
scheme 100
Push 100
▁stored 100
thumb 100
oney 100
▁meth 100
▁radio 100
Contents 100
▁Unsupported 100
havior 100
Used 100
▁occ 100
▁Abstract 100
dirty 100
ensure 100
kb 100
Progress 100
clusters 100
▁Созда 100
drive 100
▁bz 100
versal 100
▁Помогите 100
white 100
transfer 100
rier 100
callable 100
celer 100
▁integr 100
▁subscriptions 100
">< 100
фо 100
▁neighbor 100
▁collector 100
▁rh 100
riction 100
▁flux 100
▁fb 100
▁reward 100
ually 100
гра 100
▁ance 100
ky 100
▁fontsize 100
▁terminal 100
BB 100
▁Try 100
▁Или 100
▁production 100
infos 100
finish 100
▁projection 100
▁hp 100
▁теку 100
▁hr 100
▁стоит 100
does 100
constraints 100
leave 100
uestion 100
▁places 100
turn 100
▁Profile 100
▁29 100
bridge 100
rac 100
Mar 100
artifact 100
▁rad 100
▁понял 100
SITE 100
ores 100
▁extras 100
nb 100
wave 100
ike 100
вления 100
▁чего 100
▁syntax 100
ASK 100
START 100
za 100
▁rval 100
▁них 100
▁assertDict 100
▁программы 100
▁undo 100
Tags 100
▁Fixed 100
scroll 100
SSL 100
▁hg 100
▁emails 100
▁linenum 100
aring 100
▁Fail 100
▁sdk 100
xa 100
▁zulip 100
▁endpoints 100
▁никак 100
▁второй 100
▁third 100
▁finalize 100
▁sickbeard 100
special 100
57 100
pline 100
чем 100
▁Interval 100
▁Go 100
▁infer 100
Events 100
▁reboot 100
oraryFile 100
▁ACTIVE 100
▁Keyboard 100
ANGE 100
lue 100
▁replication 100
▁ic 100
▁ear 100
laration 100
Can 100
▁locked 100
▁getName 100
sessment 100
▁rpm 100
▁theano 100
▁Iterator 100
▁newline 100
▁Raw 100
▁bash 100
lr 100
▁Boolean 100
▁мак 100
keywords 100
▁коне 100
alert 100
▁Example 100
▁twitter 100
licas 100
▁лока 100
VIE 100
▁файлов 100
▁conflict 100
▁optimize 100
▁GE 100
кую 100
лом 100
▁assigned 100
▁arrow 100
▁доста 100
▁mf 100
доб 100
▁SN 100
▁bra 100
▁equals 100
шибка 100
constants 100
ства 100
▁delivery 100
Split 100
▁hooks 100
Login 100
URN 100
History 100
▁logged 100
горит 100
Pair 100
▁libs 100
AI 100
pm 100
ROL 100
riterion 100
▁squ 100
▁37 100
comb 100
saved 100
▁Media 100
▁stri 100
Non 100
▁подоб 100
▁cho 100
tions 100
▁компиля 100
▁таким 100
▁sal 100
vn 100
▁Script 100
▁сервера 100
рование 100
▁initiator 100
▁vg 100
▁нажатии 100
▁combined 100
▁itemlist 100
health 100
▁datum 100
▁attachments 100
itecture 100
тра 100
▁Dialog 100
voice 100
uters 100
▁Real 100
▁тип 100
бя 100
▁alignment 100
ствую 100
rick 100
▁Report 100
ecause 100
andbox 100
locked 100
Plan 100
bulk 100
жд 100
domains 100
▁portal 100
▁dbus 100
▁её 100
stmt 100
▁произ 100
-04 100
▁Batch 100
▁density 100
▁решить 100
▁rnn 100
▁загруз 100
▁characters 100
81 100
▁sprite 100
64" 100
▁incorrect 100
"" 100
▁shop 100
▁является 100
losure 100
utc 100
▁denom 100
Information 100
води 100
▁iteration 100
▁fpath 100
▁ske 100
Labels 100
ngle 100
▁ball 100
▁66 100
Batch 100
▁replacement 100
▁configured 100
ранее 100
rove 100
▁файле 100
▁chmod 100
▁каждый 100
frequency 100
best 100
▁padd 100
▁grant 100
superuser 100
iguous 100
▁AttributeValue 100
Paths 100
▁ENT 100
▁зависимо 100
▁cam 100
increment 100
▁AA 100
при 100
otes 100
▁Lock 100
▁jump 100
energy 100
After 100
Proto 100
mys 100
▁succe 100
Art 100
tet 100
▁markup 100
EMAIL 100
sr 100
▁respon 100
▁Red 100
▁solid 100
▁ofproto 100
unters 100
▁mtime 100
▁WOR 100
POS 100
щих 100
▁срав 100
▁разде 100
▁Dest 100
▁Cache 100
▁вывод 100
▁меню 100
0001 100
▁'127.0.0.1' 100
▁meter 100
cles 100
▁challenge 100
gered 100
▁encryption 100
Bot 100
jar 100
-11 100
▁rospy 100
▁grads 100
xies 100
ilestone 100
latest 100
NEL 100
ivot 100
arrow 100
ality 100
▁IF 100
Sli 100
128 100
▁страницу 100
uc 100
prompt 100
tour 100
bon 100
dating 100
лад 100
uplicates 100
▁ошибки 100
Trace 100
▁sizeof 100
▁акти 100
▁yet 100
▁flavors 100
spaces 100
tee 100
going 100
▁dirpath 100
ired 100
started 100
▁typing 100
snap 100
▁policies 100
ICAL 100
Member 100
alchemy 100
▁urn 100
▁которой 100
▁integration 100
creation 100
▁Linux 100
полн 100
ASH 100
guest 100
▁[0-9 100
▁попро 100
letion 100
▁colour 100
Less 100
payment 100
bank 100
▁joined 100
123 100
▁блок 100
inates 100
▁vault 100
▁sympy 100
▁El 100
itness 100
▁footer 100
clo 100
Summary 100
▁Component 100
зация 100
▁filt 100
▁Dense 100
32_ 100
▁EVT 100
ibling 100
▁GROUP 100
▁piece 100
▁ack 100
▁конкрет 100
▁tweet 100
▁weak 100
▁обо 100
artbeat 100
▁teardown 100
The 100
▁relay 100
▁subclass 100
▁csr 100
▁allocation 100
GroupName 100
▁assertListEqual 100
ginx 100
filtered 100
▁strong 100
▁primitive 100
IDTH 100
NN 100
tas 100
Modified 100
▁SP 100
▁painter 100
▁xmin 100
shutdown 100
tuples 100
▁txn 100
▁закры 100
▁дли 100
priority 100
логи 100
▁Role 100
ложи 100
▁'192.168 100
▁macro 100
Des 100
▁formset 100
▁tg 100
So 100
▁pref 100
atched 100
▁reject 100
dummy 100
53 100
FER 100
▁всегда 100
▁Из 100
▁blah 100
leting 100
vg 100
▁sink 100
▁това 100
CB 100
Renderer 100
published 100
▁perf 100
modes 100
cm 100
▁"3 100
▁squeeze 100
▁FORM 100
▁symlink 100
rand 100
attery 100
▁wire 100
▁Org 100
IV 100
assignment 100
▁tls 100
esh 100
▁relationship 100
▁Creating 100
▁supplier 100
▁sam 100
ORMAL 100
▁ng 100
▁Sim 100
▁имя 100
нта 100
лага 100
▁snapshots 100
utors 100
точно 100
▁Word 100
коль 100
▁front 100
▁userid 100
▁vtk 100
▁Logger 100
FIELD 100
▁INPUT 100
▁alter 100
▁Fire 100
▁одной 100
ANGU 100
▁snippet 100
▁initialized 100
▁stick 100
finite 100
plotlib 100
AGES 100
▁аргу 100
▁ARM 100
udf 100
pread 100
им 100
▁kb 100
▁workdir 100
цией 100
ov 100
Comment 100
▁Schedule 100
cv 100
▁вроде 100
▁subtype 100
▁гра 100
▁fm 100
▁anno 100
registered 100
▁отс 100
▁Normal 100
exclude 100
atoms 100
▁проект 100
matched 100
▁Parser 100
▁LIST 100
дова 100
coef 100
recurs 100
▁Primitive 100
▁conversion 100
▁tunnel 100
▁holid 100
Full 100
Pi 100
▁должна 100
checked 100
TAG 100
▁km 100
▁magn 100
▁Cancel 100
▁msgs 100
жать 100
▁spatial 100
annotations 100
good 100
▁greater 100
blank 100
IDs 100
tw 100
24' 100
duplicate 100
()) 100
▁txid 100
▁SIGNAL 100
emu 100
▁должны 100
ised 100
▁ny 100
▁multiply 100
▁BB 100
▁"4 100
▁gender 100
▁Parent 100
scripts 100
▁nickname 100
▁visual 100
▁inject 100
▁lists 100
UTE 100
tage 100
▁circle 100
Errors 100
▁specific 100
▁исправить 100
зе 100
Transaction 100
▁интерфей 100
geom 100
▁heading 100
▁keystone 100
▁assertGreater 100
Sup 100
iness 100
NODE 100
▁isdigit 100
▁rw 100
wner 100
▁Non 100
▁SA 100
Import 100
▁Your 100
▁los 100
fb 100
▁Gen 100
using 100
▁corr 100
▁atomic 100
▁Flow 100
parsers 100
▁Append 100
▁rss 100
▁vc 100
▁Compute 100
▁distro 100
urname 100
pw 100
initialized 100
▁resolved 100
▁basis 100
▁выда 100
LD 100
▁deferred 100
cart 100
▁explicit 100
Press 100
▁wall 100
▁делаю 100
нд 100
ально 100
▁LA 100
dited 100
liter 100
▁hub 100
▁conj 100
▁sched 100
▁startup 100
quot 100
COLOR 100
blem 100
canvas 100
▁roi 100
prime 100
rack 100
problem 100
initialize 100
▁Fin 100
▁modes 100
ODULE 100
peer 100
▁htt 100
gre 100
▁through 100
▁offsets 100
▁keepdims 100
wik 100
▁cmdline 100
▁поз 100
validator 100
▁OB 100
kl 100
expand 100
циали 100
▁tracks 100
▁aaa 100
▁Connect 100
▁dv 100
▁visited 100
▁reporter 100
environ 100
streams 100
▁explanation 100
▁prep 100
primitive 100
▁Collection 100
LES 100
FromString 100
rott 100
kes 100
▁2, 100
pools 100
▁discard 100
uate 100
▁histogram 100
▁BUILD 100
▁ann 100
меня 100
▁ranges 100
▁blk 100
letter 100
Pixmap 100
▁scatter 100
restore 100
callbacks 100
lecule 100
▁LD 100
▁оно 100
notation 100
▁Setting 100
compiler 100
▁UI 100
Diff 100
luid 100
▁странице 100
Distance 100
▁'200 100
ini 100
traceback 100
▁silent 100
▁исклю 100
▁coordinator 100
▁CPU 100
fw 100
▁199 100
predict 100
reenshot 100
▁описа 100
VS 100
border 100
▁overlap 100
▁pys 100
CF 100
▁resolver 100
NED 100
▁вид 100
▁apache 100
▁reservation 100
swap 100
щим 100
▁encrypted 100
▁languages 100
▁Пере 100
Score 100
▁there 100
мотреть 100
▁Generic 100
▁truncate 100
anted 100
▁attempts 100
aving 100
ino 100
▁algo 100
▁хоро 100
▁cutoff 100
ванием 100
▁because 100
▁rg 100
completed 100
LENG 100
▁unsigned 100
▁SOCK 100
NETWORK 100
iming 100
▁gy 100
▁bom 100
Cloud 100
тек 100
▁fnmatch 100
Ext 100
▁csrf 100
▁such 100
▁drvr 100
Segment 100
[1 100
interfaces 100
их 100
▁ant 100
▁heap 100
▁grouped 100
peaker 100
стра 100
hicle 100
▁каждого 100
▁attention 100
▁CSS 100
▁dw 100
маю 100
читы 100
▁absent 100
ade 100
backward 100
▁compiled 100
TING 100
pickle 100
▁Де 100
ORIZ 100
▁2015 100
▁glance 100
▁VALID 100
cube 100
▁ваше 100
▁Remote 100
Weight 100
▁attack 100
▁SystemExit 100
adapter 100
43 100
▁sch 100
Success 100
емо 100
▁posix 100
▁409 100
lies 100
▁vpn 100
assistant 100
▁250 100
▁xen 100
▁testcase 100
▁World 100
urface 100
▁одного 100
▁01 100
41 100
▁fut 100
Pick 100
combo 100
▁Required 100
▁Pe 100
▁vdi 100
▁Play 100
▁0.75 100
писы 100
▁"202 100
▁urljoin 100
▁resid 100
builtin 100
▁иде 100
ism 100
▁baseline 100
perms 100
▁answers 100
moid 100
Classifier 100
▁bm 100
▁perms 100
▁develo 100
priv 100
▁gre 100
pag 100
▁srv 100
outine 100
Packet 100
▁Rect 100
▁discussion 100
▁fatal 100
▁eb 100
▁saver 100
nx 100
▁yellow 100
щая 100
Counter 100
▁MessageBox 100
BY 100
""" 100
Interrupt 100
льных 100
TEMPLATE 100
▁imag 100
ading 100
precision 100
▁blocking 100
▁нормально 100
▁enqueue 100
▁lexer 100
XT 100
Cor 100
▁bid 100
▁столб 100
▁sda 100
▁excluded 100
mappings 100
digits 100
▁6.0 100
tb 100
▁recon 100
▁combin 100
▁Ошибка 100
▁момент 100
MSG 100
енный 100
Extra 100
▁STOP 100
▁IMAGE 100
▁Subject 100
▁validated 100
▁используется 100
▁CL 100
▁cname 100
▁передать 100
prote 100
▁completion 100
▁quad 100
queries 100
▁youtube 100
▁Integr 100
▁logo 100
annotation 100
Help 100
▁Doc 100
▁Metadata 100
▁getenv 100
▁RESULT 100
рее 100
▁outdir 100
izations 100
▁STD 100
▁invite 100
▁frozenset 100
▁routers 100
▁imdb 100
▁sessions 100
sid 100
▁Display 100
tile 100
51 100
retries 100
▁statistics 100
▁incoming 100
lazy 100
дь 100
needed 100
Background 100
▁Sm 100
Conn 100
Qt 100
THON 100
▁courses 100
Random 100
▁processes 100
Note 100
aliases 100
upgrade 100
▁xmax 100
▁программа 100
conditions 100
grp 100
Dest 100
onic 100
▁Multiple 100
▁campaign 100
▁tolerance 100
▁2012 100
▁Tool 100
▁IgnoreArg 100
▁stand 100
▁curses 100
mk 100
avg 100
bindings 100
▁TESTFN 100
Center 100
topology 100
atalog 100
▁cms 100
voked 100
pix 100
mbda 100
generic 100
gene 100
olation 100
remain 100
vatar 100
▁nodelist 100
ewidth 100
▁настрой 100
uer 100
▁COMP 100
legal 100
▁recur 100
▁substit 100
▁Player 100
comparison 100
some 100
▁Proxy 100
signed 100
▁instruction 100
translation 100
runtime 100
▁detected 100
▁Pay 100
routes 100
▁offer 100
Align 100
Has 100
▁UserProfile 100
fl 100
▁dll 100
vies 100
рует 100
▁issues 100
▁бук 100
abet 100
regularizer 100
average 100
▁хотя 100
subscription 100
▁texture 100
Notification 100
Focus 100
▁scraped 100
pens 100
▁wizard 100
▁2013 100
роб 100
▁addons 100
▁Login 100
▁rem 100
lapse 100
repos 100
sptr 100
тить 100
▁OUTPUT 100
▁cron 100
BUTTON 100
AAAA 100
▁Чтобы 100
▁curl 100
нами 100
▁запусти 100
▁первый 100
▁iscsi 100
▁drv 100
▁observation 100
ьте 100
tics 100
▁эта 100
VIEW 100
chunks 100
▁Вам 100
▁EC 100
vest 100
▁Pool 100
▁указы 100
▁Child 100
GL 100
▁rsplit 100
cdf 100
xpath 100
Ui 100
▁начина 100
▁таблица 100
ones 100
▁undefined 100
▁zipfile 100
▁instr 100
▁percentage 100
sleep 100
ьше 100
▁вне 100
matching 100
My 100
lun 100
▁им 100
ваться 100
brid 100
CCEPT 100
lb 100
▁Utils 100
▁AP 100
mass 100
ATTER 100
▁moves 100
Book 100
▁ko 100
Signal 100
versation 100
▁outbox 100
funcs 100
SPE 100
▁STRUCT 100
▁hbox 100
ypes 100
▁lbl 100
▁Activity 100
нных 100
▁Starting 100
▁xblock 100
▁outcome 100
nse 100
▁pools 100
▁потому 100
▁authorization 100
▁Expect 100
rypted 100
▁Django 100
▁cards 100
allocate 100
ermin 100
▁примеру 100
vote 100
▁quick 100
▁stuff 100
▁variance 100
▁Only 100
▁Active 100
▁Возможно 100
▁алгорит 100
▁MAVLink 100
:1 100
▁sqlalchemy 100
▁datapath 100
▁Notification 100
mouse 100
udo 100
▁aio 100
uring 100
▁помощи 100
▁тем 100
▁stopped 100
ABEL 100
allery 100
quantity 100
Assistant 100
полни 100
ductor 100
▁vel 100
▁пак 100
▁гово 100
71 100
▁crypto 100
Execution 100
бок 100
▁ylabel 100
CTED 100
▁subfield 100
▁writeStruct 100
▁FAIL 100
ел 100
▁hot 100
▁ней 100
▁памяти 100
▁matmul 100
Dictionary 100
▁Trace 100
9" 100
▁отправля 100
temperature 100
▁TAG 100
ceipt 100
Total 100
▁inet 100
removed 100
▁charge 100
▁изменить 100
Guest 100
LENGTH 100
Pay 100
examples 100
ryption 100
EE 100
▁Quant 100
▁Об 100
▁Verify 100
▁ae 100
▁mr 100
noise 100
cycle 100
extend 100
istence 100
collect 100
▁Transaction 100
logged 100
▁HOME 100
ko 100
▁severity 100
▁была 100
mid 100
ftp 100
точ 100
работ 100
▁текста 100
вли 100
▁часть 100
34' 100
ARK 100
▁преобра 100
▁approx 100
▁AUT 100
INDOW 100
▁raised 100
▁ste 100
▁проблему 100
▁drag 100
▁references 100
globals 100
▁Authentic 100
STREAM 100
MPTY 100
▁gradients 100
xb 100
▁могут 100
▁needed 100
▁RGB 100
▁равно 100
▁weighted 100
▁PER 100
▁war 100
▁vide 100
▁копи 100
▁Clear 100
ming 100
RT 100
▁four 100
▁compressed 100
▁birth 100
рого 100
crets 100
▁URI 100
▁HTTPBadRequest 100
ura 100
.12 100
▁xxx 100
▁SSH 100
locator 100
tar 100
▁fuzz 100
ticket 100
aaaa 100
ferer 100
FLAGS 100
▁vid 100
▁202 100
▁BE 100
ENCE 100
▁мой 100
▁music 100
▁argmax 100
льное 100
guid 100
▁Cell 100
chart 100
▁выдает 100
▁ide 100
кну 100
▁mn 100
▁pytz 100
TemporaryFile 100
▁temporary 100
ях 100
▁циф 100
elta 100
▁2014 100
Red 100
titles 100
executor 100
fft 100
▁elt 100
▁Contact 100
replica 100
▁MD 100
▁HTTPRequest 100
ptables 100
▁opcode 100
▁son 100
lime 100
alo 100
cognized 100
▁ether 100
CRET 100
adi 100
▁Period 100
▁crc 100
▁исход 100
▁Iterable 100
Expr 100
Fn 100
▁isValid 100
Redirects 100
Html 100
льзя 100
adjust 100
ao 100
▁формы 100
▁Expr 100
Use 100
ElementsBy 100
▁мно 100
▁matplotlib 100
▁HomeAssistant 100
pared 100
bn 100
CACHE 100
Browser 100
abc 100
▁pose 100
▁gn 100
pie 100
Shell 100
▁GO 100
▁Common 100
▁sens 100
▁Са 100
squ 100
imension 100
▁reuse 100
ives 100
дов 100
▁таблицу 100
.2' 100
▁Standard 100
▁NONE 100
audio 100
kill 100
▁decl 100
▁xlabel 100
▁стандарт 100
capacity 100
ilo 100
big 100
Tip 100
нибудь 100
accounts 100
▁managed 100
▁Пер 100
63 100
▁maps 100
tences 100
▁autom 100
▁lot 100
ban 100
▁выде 100
▁joint 100
▁skill 100
▁}; 100
article 100
parents 100
▁STAT 100
DEVICE 100
keyword 100
▁psi 100
ufact 100
▁parsing 100
ствуйте 100
▁tostring 100
Remote 100
jpg 100
▁чита 100
pretty 100
segments 100
COR 100
FC 100
▁проекта 100
respon 100
▁applic 100
Usage 100
Render 100
▁писать 100
maker 100
▁такого 100
Matches 100
▁interpreter 100
▁losses 100
▁people 100
▁foreign 100
▁setCurrent 100
unted 100
IX 100
erry 100
Div 100
▁apt 100
▁hints 100
JS 100
47 100
requested 100
▁75 100
▁verified 100
Env 100
ляет 100
▁INDEX 100
▁authorize 100
analysis 100
▁решения 100
xp 100
гис 100
izable 100
▁Draw 100
кра 100
▁fis 100
episode 100
нет 100
▁cirq 100
Registry 100
▁serv 100
wiki 100
нного 100
Workspace 100
ntl 100
sembly 100
▁TCP 100
▁Exit 100
▁rst 100
Console 100
eps 100
▁past 100
▁heat 100
▁stem 100
руется 100
▁ген 100
TOCOL 100
hub 100
DIS 100
▁population 100
▁mongo 100
Custom 100
logits 100
outer 100
modifi 100
Addr 100
▁теле 100
geo 100
▁spot 100
▁markdown 100
pandas 100
▁documents 100
MOTE 100
чать 100
▁101 100
sd 100
▁compose 100
▁EXT 100
▁who 100
sat 100
0\ 100
Release 100
LL 100
ticks 100
▁getAttribute 100
▁imported 100
ены 100
hr 100
▁ред 100
▁reads 100
ObjectName 100
OLD 100
ctrl 100
Make 100
▁interactive 100
▁way 100
▁crash 100
▁categorical 100
imated 100
▁которое 100
▁Next 100
gp 100
▁кар 100
▁either 100
▁were 100
air 100
▁viewer 100
преде 100
gis 100
▁SD 100
MC 100
▁prefs 100
▁Arch 100
destination 100
▁возможность 100
▁ment 100
Pop 100
QUI 100
slave 100
▁автома 100
гуляр 100
нициали 100
▁testapp 100
iterable 100
UTF 100
conflict 100
▁errmsg 100
activation 100
▁sus 100
▁LibvirtConfig 100
▁determine 100
лай 100
▁rebuild 100
▁chk 100
▁reading 100
AIL 100
61 100
▁via 100
▁DNS 100
▁reports 100
TT 100
gain 100
major 100
▁Must 100
CHEMA 100
▁smooth 100
Sheet 100
▁online 100
▁3" 100
▁ито 100
▁данном 100
vigate 100
▁qr 100
▁partitions 100
▁нужен 100
receive 100
▁successful 100
▁zA 100
▁Certificate 100
PACK 100
decimal 100
▁expanded 100
▁delegate 100
49 100
▁fraction 100
▁tap 100
retch 100
▁pixels 100
69 100
▁synchron 100
moji 100
▁replay 100
▁openstack 100
▁central 100
▁It 100
Wait 100
тр 100
▁путь 100
inger 100
▁5000 100
▁основ 100
▁которых 100
Null 100
strs 100
san 100
▁gain 100
▁tvm 100
▁форму 100
ности 100
▁disks 100
▁сайте 100
▁DEVICE 100
▁Спасибо 100
▁desktop 100
CLIENT 100
▁discount 100
▁Здра 100
Mac 100
vectors 100
▁plotly 100
dead 100
▁excinfo 100
least 100
▁selen 100
]: 100
dhcp 100
зить 100
▁caps 100
may 100
▁QLabel 100
▁paginator 100
16' 100
Double 100
ased 100
▁IGN 100
▁новый 100
vlc 100
rx 100
small 100
ая 100
ним 100
creds 100
чик 100
▁palette 100
▁Video 100
SELECT 100
▁va 100
retrie 100
▁данный 100
meter 100
▁день 100
▁Win 100
▁выше 100
▁запус 100
information 100
rived 100
ool 100
ITS 100
▁Доб 100
▁999 100
Long 100
▁Всем 100
▁boxes 100
▁качест 100
specific 100
▁sun 100
▁popen 100
balancer 100
▁selenium 100
▁spider 100
DEF 100
tenance 100
▁проблемы 100
▁il 100
checksum 100
▁stamp 100
▁kargs 100
▁loading 100
legacy 100
ships 100
uuids 100
launch 100
-06 100
▁DATE 100
uradio 100
▁диа 100
▁цикл 100
attice 100
Done 100
igration 100
▁Language 100
different 100
attachment 100
ago 100
▁capital 100
▁пиш 100
▁Internal 100
▁preferred 100
usion 100
iline 100
▁Null 100
▁некоторы 100
formatter 100
uniform 100
▁vx 100
▁FE 100
▁SHA 100
▁repl 100
▁scraper 100
▁Те 100
▁ог 100
Den 100
TOKEN 100
than 100
transl 100
Author 100
▁cen 100
TagName 100
ilarity 100
роме 100
Security 100
▁выводит 100
▁3.1 100
leter 100
lihood 100
▁сохраня 100
▁59 100
чанию 100
oller 100
▁состоя 100
Headers 100
fx 100
Gate 100
▁разобра 100
▁CONTENT 100
▁polygon 100
▁COUNT 100
slots 100
erred 100
▁assertRedirects 100
wrong 100
▁upstream 100
lent 100
certs 100
]) 100
мол 100
▁QV 100
дина 100
▁этих 100
markup 100
adoop 100
▁uuids 100
▁SCons 100
▁SV 100
▁sanitize 100
ooser 100
▁decrypt 100
Region 100
▁перед 100
033 100
about 100
▁intent 100
▁asnumpy 100
▁builtin 100
▁translations 100
dependency 100
DU 100
▁MULT 100
▁ovs 100
olling 100
вствуйте 100
Speed 100
patcher 100
adj 100
Pe 100
кси 100
▁NaN 100
pring 100
hold 100
▁тексто 100
▁bindings 100
hours 100
anonymous 100
▁DT 100
mongo 100
gnuradio 100
▁тот 100
▁har 100
Short 100
draft 100
rating 100
▁mismatch 100
▁neighbors 100
odb 100
▁одинако 100
▁jinja 100
prep 100
▁Хо 100
▁экра 100
material 100
ток 100
iny 100
▁поддер 100
Day 100
▁pic 100
▁связа 100
AX 100
▁360 100
EVENT 100
▁CLIENT 100
щую 100
ExistsError 100
▁para 100
aker 100
▁перес 100
Video 100
▁preprocess 100
company 100
льной 100
Sim 100
▁design 100
▁mand 100
▁unregister 100
cending 100
Many 100
▁invert 100
▁figs 100
▁$(' 100
TABLE 100
▁regexp 100
estimator 100
▁Counter 100
Site 100
▁exportLiteral 100
filenames 100
рый 100
▁genome 100
▁matcher 100
▁yml 100
▁preserve 100
▁Microsoft 100
plug 100
▁mixed 100
fice 100
▁velocity 100
▁{2 100
▁MainWindow 100
}, 100
Fore 100
Off 100
▁hap 100
▁unix 100
▁иг 100
▁Testing 100
▁runs 100
▁задача 100
▁mgmt 100
▁pan 100
▁hypervisor 100
нной 100
DIRECT 100
▁anonymous 100
▁classname 100
▁included 100
▁узна 100
▁tokenizer 100
buff 100
world 100
LOAT 100
▁SK 100
▁uv 100
▁hparams 100
Received 100
▁folders 100
Environment 100
mut 100
▁ссылку 100
▁бла 100
▁Manage 100
▁hamlet 100
comme 100
pd 100
▁modname 100
Cont 100
bdm 100
▁GR 100
dee 100
overlap 100
▁sets 100
▁sizer 100
▁bond 100
▁Име 100
ICE 100
widgets 100
ABASE 100
Bool 100
▁lam 100
▁intercept 100
▁criteria 100
навли 100
▁gettext 100
▁фра 100
▁заго 100
▁homeassistant 100
II 100
▁men 100
coin 100
()); 100
▁RUNNING 100
inline 100
mysql 100
▁Пыта 100
iful 100
scheduler 100
ickness 100
Origin 100
PRI 100
▁rsrc 100
▁Future 100
1) 100
▁fcntl 100
clients 100
▁показы 100
BoxLayout 100
▁importer 100
молчанию 100
▁выз 100
▁pubkey 100
▁recipients 100
▁tokenize 100
▁Zip 100
EGER 100
▁Core 100
transition 100
ментари 100
▁Align 100
profiles 100
▁IMP 100
груз 100
dividual 100
▁Directory 100
Available 100
батывает 100
transactions 100
▁billing 100
▁атри 100
Agg 100
upt 100
▁Hy 100
slices 100
autiful 100
▁during 100
Acceler 100
▁assertDictEqual 100
attle 100
▁Using 100
▁Sw 100
▁позво 100
Windows 100
Encoding 100
▁TC 100
▁translated 100
▁subscriptionId 100
hide 100
▁mountpoint 100
tabs 100
▁failUnlessEqual 100
Namespace 100
▁груп 100
LIMIT 100
▁inherit 100
▁Extra 100
▁спасибо 100
▁proposal 100
buttons 100
▁ordering 100
▁кла 100
intercept 100
zones 100
▁serve 100
▁ACTION 100
rename 100
▁Wh 100
▁SUPPORT 100
Price 100
Sensor 100
▁ndi 100
▁spacing 100
▁Manager 100
хи 100
bootstrap 100
▁XX 100
▁Single 100
▁latex 100
"). 100
▁56 100
Soup 100
eploy 100
▁нельзя 100
Finished 100
consume 100
пыт 100
▁includes 100
icks 100
angles 100
▁« 100
ectors 100
Pen 100
▁уве 100
Pr 100
ходе 100
standard 100
▁fx 100
▁INIT 100
CENT 100
▁learn 100
чер 100
▁Soft 100
Arch 100
have 100
cdn 100
▁хоте 100
erc 100
▁разных 100
▁'1.2 100
Go 100
Feed 100
▁Undefined 100
Vertex 100
posure 100
DoesNotExist 100
▁655 100
creator 100
▁inside 100
▁рав 100
▁od 100
probs 100
tv 100
▁prefetch 100
▁Done 100
▁всем 100
Seq 100
LOSE 100
atable 100
▁FAILED 100
▁'4' 100
covered 100
STEM 100
▁libvlc 100
partner 100
▁Byte 100
▁creating 100
▁gray 100
topics 100
▁пробе 100
▁blit 100
▁prun 100
optional 100
responses 100
gc 100
▁plane 100
▁zones 100
agers 100
▁окно 100
nat 100
рт 100
▁Когда 100
▁titles 100
▁Wrong 100
▁ffi 100
▁коррек 100
▁sx 100
lips 100
.1" 100
▁probe 100
epochs 100
quiva 100
▁recid 100
-08 100
▁двух 100
▁degrees 100
books 100
▁frac 100
▁fork 100
▁65 100
▁TF 100
▁aspect 100
▁зависимости 100
▁Ext 100
▁высо 100
DateTime 100
▁closest 100
SU 100
quality 100
Library 100
country 100
▁sampling 100
DP 100
folders 100
мое 100
▁ran 100
entropy 100
▁editable 100
Program 100
▁каждой 100
▁ja 100
metry 100
seudo 100
elf 100
-07 100
▁genre 100
amage 100
▁Root 100
UDE 100
что 100
morph 100
чит 100
▁этим 100
▁shadow 100
▁moving 100
elcome 100
pause 100
▁Memory 100
emails 100
ваются 100
▁MI 100
orn 100
су 100
gid 100
▁returns 100
hdr 100
▁tip 100
ufacture 100
ctime 100
▁ground 100
onom 100
▁mess 100
MARY 100
▁таблице 100
▁GetTypeId 100
▁wcs 100
unary 100
IGH 100
▁CMD 100
▁2011 100
Draw 100
▁TT 100
FACE 100
▁contacts 100
Assign 100
▁social 100
▁alice 100
fraction 100
Repository 100
pied 100
▁bon 100
Sta 100
▁fluid 100
рей 100
Edge 100
ough 100
▁faces 100
Gradient 100
▁decay 100
▁Раз 100
itches 100
▁како 100
▁sentry 100
Norm 100
вере 100
▁Здравствуйте 100
▁modifiers 100
IA 100
encoder 100
▁ephemeral 100
samp 100
▁debit 100
▁sequences 100
▁находится 100
▁prov 100
Pass 100
perly 100
regions 100
▁ана 100
довательно 100
▁books 100
Place 100
▁dispatcher 100
▁checkbox 100
▁wa 100
thresh 100
▁cores 100
▁lengths 100
▁software 100
Factor 100
▁vip 100
▁изменения 100
Ob 100
COPE 100
▁instructor 100
▁vir 100
theme 100
PASSWORD 100
contributor 100
▁fasta 100
Identity 100
ti 100
▁participant 100
scaling 100
fragment 100
начала 100
▁Release 100
▁Allow 100
▁retcode 100
▁linewidth 100
weep 100
completion 100
▁teams 100
LIB 100
orders 100
maries 100
▁caplog 100
▁membership 100
tod 100
apon 100
Register 100
▁рес 100
▁сообщение 100
▁External 100
consumer 100
Columns 100
▁версии 100
▁ссылки 100
▁allocate 100
alignment 100
▁расши 100
▁keyboard 100
▁Validation 100
stubs 100
redirects 100
▁udp 100
CHAR 100
▁ndims 100
▁plural 100
bsp 100
imators 100
ACTION 100
▁softmax 100
▁Enum 100
▁Mapping 100
OLDER 100
▁принима 100
gamma 100
▁отно 100
associate 100
ур 100
crease 100
:00' 100
uality 100
▁pem 100
пустим 100
▁measurement 100
shake 100
ught 100
▁<? 100
01" 100
▁alternative 100
▁rid 100
▁gram 100
▁lit 100
▁пря 100
Send 100
▁principal 100
▁remo 100
▁voice 100
ills 100
▁pkgs 100
▁шири 100
▁используя 100
qt 100
Grad 100
▁getElementsBy 100
▁EOF 100
disable 100
ered 100
alty 100
▁getter 100
▁ea 100
▁Constant 100
▁ABC 100
▁backing 100
rices 100
▁cohort 100
Route 100
▁codec 100
INST 100
listed 100
▁our 100
▁сервис 100
Condition 100
ibot 100
▁настро 100
▁assertLess 100
▁rewrite 100
playlist 100
лл 100
▁guild 100
Fragment 100
alax 100
▁CHE 100
rpcapi 100
ess 100
▁Addon 100
▁задачи 100
прави 100
capabilities 100
visit 100
▁vcpus 100
nowled 100
▁Доба 100
▁запись 100
Converter 100
▁once 100
xd 100
▁consistency 100
▁azure 100
nth 100
MESSAGE 100
sink 100
mic 100
xyz 100
between 100
cher 100
▁websocket 100
fee 100
walk 100
▁AWS 100
▁Sto 100
velope 100
▁surf 100
▁cmake 100
checkbox 100
▁vout 100
▁PR 100
▁maxsize 100
ство 100
▁medium 100
footer 100
▁библиотеки 100
policies 100
++) 100
▁listing 100
▁coerce 100
pector 100
▁deriv 100
Inst 100
MM 100
fr 100
decoder 100
▁FORMS 100
GG 100
hour 100
▁effective 100
uv 100
зоваться 100
sol 100
neighbors 100
▁backends 100
etched 100
▁patches 100
surface 100
▁.3 100
enrollment 100
IGN 100
toggle 100
vac 100
▁constructor 100
Eval 100
.00 100
▁showIndent 100
▁Yes 100
▁reduction 100
▁outline 100
Manage 100
▁CLI 100
det 100
since 100
Processor 100
inventory 100
UBLIC 100
▁autos 100
▁1) 100
▁icmp 100
▁bld 100
▁gapic 100
Choice 100
album 100
▁asc 100
▁удалить 100
▁closing 100
hyper 100
▁записы 100
▁pot 100
middleware 100
859 100
полня 100
▁Font 100
▁purge 100
prior 100
lays 100
ares 100
atings 100
▁ymin 100
Rot 100
ysical 100
▁ib 100
тифика 100
01_ 100
▁icons 100
Util 100
▁building 100
UNCTION 100
nonzero 100
мере 100
▁Binary 100
dimensions 100
▁extends 100
▁potential 100
▁mappings 100
▁currently 100
▁vocabulary 100
Slot 100
submission 100
▁unquote 100
▁classification 100
▁stable 100
▁Section 100
▁own 100
ordering 100
large 100
Monitor 100
stimator 100
▁Cor 100
кого 100
preview 100
чь 100
DAT 100
▁pres 100
▁infos 100
partitions 100
rength 100
ети 100
▁127 100
▁msgid 100
aver 100
▁дис 100
▁episodes 100
▁символов 100
recursive 100
▁); 100
ANGUAGE 100
▁бай 100
decorator 100
▁craw 100
clude 100
▁одну 100
itories 100
буйте 100
▁sms 100
▁validators 100
wikibot 100
▁setWindow 100
Allow 100
hop 100
▁MSG 100
recv 100
pear 100
▁paragraph 100
CASE 100
▁fout 100
calculate 100
▁которого 100
▁definitions 100
▁bet 100
LOBAL 100
чере 100
▁tracking 100
▁asm 100
uom 100
verted 100
▁SR 100
Endpoint 100
asm 100
-09 100
▁TARGET 100
▁FORMAT 100
gap 100
workspace 100
▁textwrap 100
▁совсем 100
▁statuses 100
iterations 100
▁xls 100
▁'10.0.0 100
Power 100
uquet 100
▁Register 100
мый 100
Upload 100
▁сум 100
▁Зада 100
▁hashes 100
▁нашел 100
▁FF 100
▁ES 100
▁vari 100
unpack 100
▁toString 100
▁wt 100
lambda 100
▁Beautiful 100
▁затем 100
▁Origin 100
FR 100
XXXXXXXX 100
LEVEL 100
"] 100
prise 100
▁ymax 100
▁radians 100
ara 100
3333 100
▁Track 100
▁проверя 100
phan 100
Enrollment 100
▁zmq 100
▁Encoding 100
▁gcp 100
IFICATION 100
Vec 100
▁LOCAL 100
kv 100
▁Mar 100
literal 100
orth 100
pull 100
▁lan 100
▁datasource 100
▁чисел 100
▁Serial 100
▁hardware 100
▁глав 100
PG 100
▁slots 100
arted 100
gence 100
▁переза 100
▁gdb 100
▁нас 100
▁строч 100
scr 100
▁nume 100
▁43 100
DICT 100
▁tmpfile 100
▁rnd 100
pars 100
aggreg 100
▁pywikibot 100
▁readStruct 100
▁scanner 100
ras 100
▁generation 100
▁shel 100
▁attached 100
▁testdata 100
▁выбра 100
▁readField 100
tailed 100
▁примерно 100
▁represent 100
grate 100
▁markers 100
repeat 100
unct 100
▁Shape 100
▁OFF 100
▁весь 100
reload 100
dg 100
▁Datetime 100
ssue 100
▁house 100
Like 100
▁JsonResponse 100
ups 100
▁paddle 100
CREATE 100
hashes 100
firm 100
buckets 100
ордина 100
▁Expression 100
bolic 100
▁Layout 100
ancy 100
modify 100
Card 100
▁IGNORE 100
CHECK 100
▁plus 100
▁отли 100
▁ConfigParser 100
Find 100
▁wheel 100
▁skin 100
▁Files 100
▁roots 100
Chain 100
anning 100
▁DROP 100
▁opacity 100
atel 100
signals 100
jectory 100
processes 100
▁Bucket 100
AIT 100
Angle 100
spi 100
▁комп 100
▁hl 100
▁2016 100
converter 100
▁pathname 100
Virt 100
WIDTH 100
▁vmax 100
▁Deserialize 100
DecodeError 100
roots 100
▁регуляр 100
▁depends 100
firewall 100
▁mes 100
▁omega 100
Scan 100
UPDATE 100
geometry 100
Pixel 100
hints 100
rink 100
▁dut 100
QUE 100
▁molecule 100
sites 100
attempts 100
▁Reference 100
IFY 100
▁gdal 100
▁written 100
Services 100
▁webpage 100
subset 100
▁years 100
▁хотите 100
INDEX 100
▁Move 100
▁три 100
▁timeutils 100
METH 100
parallel 100
-01" 100
▁сделал 100
▁умолчанию 100
Sp 100
▁VALUE 100
▁suppress 100
▁требу 100
▁UNKNOWN 100
▁nginx 100
▁executing 100
▁implementation 100
▁avail 100
▁секу 100
mirror 100
▁exponent 100
LAN 100
DA 100
experiment 100
une 100
coll 100
▁Studio 100
▁другие 100
▁factories 100
▁hold 100
executable 100
▁nz 100
▁разработ 100
▁Tk 100
▁interpolation 100
▁значений 100
▁OPEN 100
▁readable 100
▁качестве 100
Month 100
▁выглядит 100
RB 100
мести 100
general 100
▁emb 100
▁вычис 100
▁сорти 100
chool 100
▁keyspace 100
via 100
▁ogr 100
▁secs 100
Uri 100
▁бе 100
▁tarfile 100
▁toc 100
Spa 100
cookies 100
▁spaces 100
CONTENT 100
▁poke 100
▁cherry 100
▁Plot 100
▁amb 100
▁quotas 100
finder 100
▁community 100
uron 100
occ 100
Internal 100
▁'8 100
▁east 100
▁привет 100
▁Repository 100
▁rl 100
▁комментари 100
▁спе 100
▁друг 100
FilePath 100
▁submitted 100
spe 100
▁expired 100
subscri 100
▁127.0.0.1 100
recipient 100
▁criterion 100
hard 100
▁ALI 100
▁libraries 100
Sort 100
rottle 100
▁сервере 100
Accelerated 100
▁Timer 100
▁ble 100
▁ю 100
indexer 100
conversion 100
NONE 100
▁serializers 100
став 100
▁testGet 100
▁worksheet 100
flush 100
subscribe 100
▁residual 100
▁CHECK 100
containers 100
hit 100
▁buy 100
▁patched 100
▁ZZ 100
alformed 100
alaxy 100
▁NU 100
▁hive 100
▁Air 100
▁gif 100
▁traj 100
▁Failure 100
▁plist 100
mu 100
▁dol 100
▁2.2 100
▁Called 100
▁зап 100
▁trade 100
▁filled 100
▁transformer 100
▁Inf 100
Multiple 100
▁xl 100
lision 100
Cancel 100
сом 100
sender 100
▁DOT 100
variance 100
▁probs 100
▁elastic 100
-15 100
▁AV 100
▁&& 100
▁preset 100
ternet 100
▁objective 100
pisode 100
▁Usage 100
Ok 100
▁ссылка 100
▁попыт 100
▁Sp 100
▁автори 100
▁Попро 100
▁iam 100
Messages 100
▁childNodes 100
batches 100
нови 100
▁Cond 100
locs 100
▁Merge 100
exploration 100
yc 100
artist 100
▁mute 100
стви 100
▁Calc 100
▁EMAIL 100
▁Pipeline 100
Binding 100
▁nearest 100
pense 100
▁setObjectName 100
▁vmin 100
▁subtitles 100
▁filelist 100
▁методы 100
▁producer 100
▁uploaded 100
Scroll 100
▁проверить 100
black 100
splits 100
upon 100
▁wag 100
▁picture 100
▁MED 100
scene 100
▁инициали 100
aunch 100
▁alive 100
radio 100
fac 100
▁overrides 100
▁Convert 100
▁ниже 100
▁ADMIN 100
▁every 100
GIN 100
▁TI 100
blue 100
boundary 100
▁vv 100
hass 100
Basic 100
▁discord 100
github 100
▁latin 100
iro 100
placement 100
AMS 100
▁spect 100
▁conductor 100
▁grab 100
▁паро 100
cidr 100
▁localtime 100
▁BeautifulSoup 100
lineno 100
▁блока 100
PLAY 100
dtypes 100
▁scaled 100
ётся 100
▁UNI 100
▁sales 100
него 100
▁RET 100
▁figsize 100
unked 100
▁modulestore 100
▁3.5 100
▁fanart 100
▁LIB 100
▁Skipping 100
▁shp 100
cao 100
▁SW 100
rivers 100
един 100
products 100
LEN 100
▁John 100
rem 100
servable 100
▁RT 100
LINK 100
▁remainder 100
▁triggered 100
zeros 100
▁reservations 100
▁evaluation 100
▁Question 100
▁-1 100
Denied 100
camera 100
▁Power 100
кру 100
TINGS 100
▁nonzero 100
ina 100
▁49 100
▁addAction 100
Running 100
▁unable 100
DD 100
▁wr 100
UGIN 100
/3 100
restart 100
▁patient 100
Before 100
descr 100
eagerly 100
▁отправ 100
Chunk 100
▁qemu 100
тировать 100
▁выполнения 100
▁Received 100
мыс 100
Kind 100
▁Long 100
mapped 100
ешь 100
▁SyntaxError 100
деть 100
емп 100
rb 100
▁$( 100
already 100
▁fab 100
emplate 100
PushButton 100
lint 100
ometri 100
▁общем 100
retrieve 100
▁spl 100
lias 100
prod 100
ea 100
_8 100
▁agents 100
▁Literal 100
assets 100
хро 100
CR 100
requirements 100
▁experimental 100
льную 100
▁divide 100
ni 100
answers 100
MAN 100
работа 100
▁recording 100
sequences 100
▁TEMPLATE 100
zed 100
▁adapt 100
▁observed 100
▁41 100
True 100
Deleter 100
vl 100
▁slow 100
▁SparseTensor 100
truth 100
xistent 100
▁TOKEN 100
▁"5 100
Mouse 100
fq 100
Sql 100
2\ 100
▁kwarg 100
▁led 100
notifier 100
▁54 100
▁zf 100
или 100
decay 100
Algorithm 100
ремен 100
▁fold 100
"/> 100
▁particle 100
MAC 100
▁фраг 100
ads 100
sth 100
maybe 100
125 100
нхро 100
▁mw 100
▁разные 100
FFFF 100
▁1000000 100
▁buckets 100
▁concept 100
CONNE 100
▁параметр 100
Lookup 100
▁datadir 100
-7 100
▁объектов 100
▁wanted 100
▁declare 100
▁zlib 100
GUI 100
grads 100
▁уров 100
recent 100
▁свойства 100
actual 100
resolver 100
▁invalidate 100
Win 100
льная 100
▁middleware 100
▁streaming 100
▁следующий 100
▁[' 100
acle 100
▁frontend 100
▁votes 100
пада 100
stype 100
▁subjects 100
▁Tw 100
▁bf 100
▁wav 100
▁Library 100
land 100
▁"3" 100
connector 100
="#"> 100
▁notice 100
▁интерес 100
▁its 100
rections 100
▁контей 100
▁Export 100
▁Cap 100
▁simplify 100
Year 100
▁filetype 100
▁sublime 100
▁координа 100
FD 100
Snapshot 100
▁Student 100
predictions 100
rences 100
▁CommandError 100
▁topo 100
▁'00 100
▁обнов 100
Bin 100
overrides 100
Resources 100
▁QSize 100
PRESS 100
▁predicted 100
▁lf 100
▁daily 100
▁abcdef 100
LICY 100
SERVICE 100
slider 100
capture 100
▁instructions 100
▁две 100
CESS 100
кий 100
▁study 100
Lists 100
▁rfind 100
▁Geo 100
▁дирек 100
▁NODE 100
▁bare 100
▁backwards 100
olated 100
▁INVALID 100
RESULT 100
extent 100
▁узнать 100
▁elems 100
▁monit 100
▁PASSWORD 100
▁dash 100
▁eu 100
afka 100
▁lm 100
▁circuit 100
timezone 100
▁Var 100
▁Li 100
METHOD 100
▁макси 100
▁cdf 100
msgs 100
▁картинки 100
земп 100
▁39 100
▁MP 100
pic 100
Bucket 100
.255 100
coverage 100
▁maxlen 100
▁BR 100
▁within 100
▁достаточно 100
▁Rep 100
▁pyc 100
mime 100
Std 100
DN 100
▁распо 100
▁TestCase 100
MY 100
ances 100
▁установить 100
▁дальше 100
▁branches 100
▁exog 100
▁устрой 100
▁dem 100
allocation 100
aux 100
mx 100
▁typename 100
▁edx 100
▁horiz 100
nw 100
CMD 100
▁suit 100
arwin 100
▁clause 100
Processing 100
qos 100
MessageEnd 100
LineEdit 100
▁hdu 100
▁cgi 100
▁contributor 100
чает 100
ITLE 100
▁клави 100
▁Signal 100
▁observer 100
▁kube 100
▁Region 100
▁webhook 100
▁других 100
▁sure 100
fallback 100
▁sticky 100
▁lw 100
management 100
▁Insert 100
reads 100
▁указать 100
▁Company 100
FOUND 100
▁startt 100
Worker 100
▁pil 100
▁slices 100
▁Controller 100
▁reindex 100
rich 100
TRY 100
▁motion 100
▁BAD 100
ience 100
чную 100
Depth 100
▁dpi 100
▁BACK 100
▁Ob 100
▁видео 100
▁RA 100
▁Engine 100
square 100
▁динами 100
▁Case 100
ComboBox 100
▁startTime 100
▁Execute 100
▁finder 100
▁NT 100
▁пытаюсь 100
ada 100
▁even 100
▁logic 100
▁chosen 100
▁соответствую 100
▁propag 100
FILES 100
▁emp 100
Colour 100
▁удаля 100
nos 100
▁banner 100
тегори 100
Tools 100
▁REMOTE 100
subclass 100
umid 100
works 100
просе 100
▁oct 100
▁Lookup 100
ope 100
tol 100
▁Visual 100
▁окна 100
▁decision 100
▁Tags 100
▁'6 100
▁deque 100
lared 100
orrow 100
▁pivot 100
▁ClientAuthentic 100
▁anim 100
▁milestone 100
▁подска 100
▁вз 100
STAMP 100
▁итоге 100
▁800 100
Stub 100
ATTERN 100
▁claim 100
▁Def 100
▁regist 100
▁Position 100
monic 100
▁VOLUME 100
▁questions 100
SOR 100
▁STDOUT 100
▁примере 100
▁varname 100
▁VAR 100
▁mil 100
▁Created 100
▁такую 100
▁shortcut 100
▁snmp 100
Metric 100
▁программу 100
▁Assign 100
▁филь 100
PLA 100
▁конфи 100
▁запустить 100
Strings 100
▁Rational 100
▁MOCK 100
▁verification 100
salt 100
herited 100
Curve 100
▁Problem 100
DEN 100
VED 100
▁street 100
offsets 100
cg 100
pow 100
Direct 100
▁favor 100
▁ampl 100
▁jpeg 100
▁такие 100
▁savefig 100
Language 100
APP 100
▁xc 100
▁PYTHON 100
subs 100
ющий 100
▁meet 100
▁coordinate 100
▁identifiers 100
▁сред 100
тами 100
▁notifier 100
argo 100
▁NA 100
urement 100
▁bookmark 100
Zero 100
▁pulse 100
statistics 100
▁поряд 100
▁Place 100
CONF 100
▁hue 100
▁Cookie 100
▁architecture 100
▁bul 100
NAMES 100
Fil 100
define 100
▁nrows 100
vt 100
TEMP 100
▁Categorical 100
CALE 100
▁Также 100
learn 100
▁inactive 100
Two 100
▁intf 100
▁captured 100
spawn 100
▁LINE 100
optimizer 100
▁INTEGER 100
▁instanti 100
▁directories 100
▁прин 100
▁63 100
calendar 100
▁Customer 100
▁ресур 100
tensions 100
▁detector 100
▁базе 100
▁paste 100
Detail 100
SM 100
ложение 100
NUM 100
uris 100
▁vstack 100
кнулся 100
▁foreach 100
locals 100
▁starts 100
▁slider 100
▁shipping 100
▁пусто 100
ernel 100
▁holidays 100
▁самом 100
Download 100
▁filePath 100
compose 100
broadcast 100
dget 100
▁revert 100
▁коди 100
BC 100
▁tn 100
arded 100
▁mini 100
▁getC 100
▁RESOURCE 100
▁ограни 100
▁timeline 100
Imp 100
ecycle 100
▁случай 100
separator 100
agents 100
Strategy 100
▁retVal 100
mited 100
▁IMPL 100
жест 100
▁dh 100
▁WR 100
▁экземп 100
▁phrase 100
▁distances 100
▁edu 100
▁Setup 100
▁убрать 100
▁chi 100
▁WORK 100
dependent 100
solution 100
вым 100
fk 100
perform 100
▁пози 100
▁Agg 100
Bro 100
▁composite 100
ск 100
▁dock 100
▁Generate 100
({ 100
▁вида 100
Head 100
cas 100
▁COMMAND 100
coordinates 100
▁coin 100
▁confidence 100
WAR 100
REEN 100
▁assoc 100
oser 100
верх 100
▁'123' 100
▁picks 100
▁fwd 100
Matcher 100
▁6. 100
▁ua 100
▁fam 100
Middleware 100
concat 100
▁visitor 100
▁cw 100
▁плаги 100
▁цикла 100
▁bam 100
▁Заранее 100
▁sandbox 100
isnull 100
▁111 100
▁leader 100
rical 100
▁expiry 100
GT 100
собо 100
▁grep 100
▁CLASS 100
▁ключ 100
▁interaction 100
▁<! 100
serted 100
▁analyze 100
▁intersect 100
isters 100
RGB 100
вует 100
▁($ 100
▁тех 100
сер 100
01\ 100
▁Store 100
prog 100
▁forwards 100
▁4' 100
tached 100
▁WS 100
photo 100
▁анима 100
▁airflow 100
▁unsub 100
ANCEL 100
ранить 100
Assert 100
shard 100
▁dbg 100
customer 100
Hand 100
▁organisation 100
▁cherrypy 100
▁easy 100
менять 100
verbose 100
▁FakeVirt 100
BAD 100
▁asdf 100
▁sigmoid 100
▁unsupported 100
▁brightness 100
SN 100
▁содержа 100
too 100
тало 100
ENTITY 100
▁ячей 100
▁peek 100
▁100%; 100
вался 100
commend 100
▁страница 100
▁appendChild 100
crash 100
▁tooltip 100
шение 100
▁uname 100
▁entropy 100
▁rsa 100
▁mpi 100
▁videos 100
▁изв 100
based 100
ulus 100
▁pane 100
▁сообщения 100
▁toon 100
bove 100
[" 100
▁paper 100
▁DATABASE 100
▁extracted 100
▁очере 100
eled 100
▁land 100
reat 100
Canvas 100
Changes 100
▁304 100
▁возника 100
▁Pos 100
tran 100
▁phot 100
▁Необходимо 100
▁FOO 100
ENSION 100
▁Од 100
Queries 100
gether 100
RST 100
[0] 100
factors 100
igma 100
CATE 100
rated 100
station 100
▁prof 100
receiver 100
▁Disk 100
▁Des 100
▁Processing 100
ANNEL 100
▁pname 100
▁docstring 100
▁tech 100
▁prefixes 100
▁Parameters 100
▁coeffs 100
▁wkt 100
TRA 100
▁slope 100
▁overlay 100
▁StaticText 100
clock 100
▁incident 100
▁подскажите 100
▁nome 100
▁uses 100
ufacturer 100
aws 100
Person 100
▁reaction 100
▁qc 100
▁коло 100
▁scheduled 100
▁numer 100
▁addHandler 100
▁opened 100
▁sphere 100
▁operands 100
▁stacklevel 100
▁months 100
▁tries 100
▁scaling 100
Margin 100
ERR 100
COMP 100
terior 100
▁теперь 100
▁freeze 100
mf 100
▁Screen 100
chr 100
shal 100
▁reduced 100
▁rn 100
▁mandatory 100
algorithm 100
Pointer 100
▁mtype 100
▁Scan 100
UMN 100
docker 100
ubmit 100
▁ni 100
▁funcs 100
▁students 100
ography 100
iff 100
▁exam 100
▁использования 100
▁Help 100
▁Поэтому 100
▁iptables 100
dispatcher 100
▁advanced 100
dof 100
▁spectrum 100
PAGE 100
▁gens 100
▁удоб 100
▁persistent 100
ONLY 100
▁syslog 100
csr 100
▁DC 100
▁subscriber 100
▁Upload 100
measurement 100
ProcessError 100
▁servicelist 100
▁Widget 100
thumbnail 100
▁intervals 100
▁mpl 100
▁crs 100
scaled 100
Produ 100
Compat 100
▁ContentType 100
Delay 100
density 100
journal 100
▁addItem 100
PEND 100
definitions 100
▁FIEL 100
▁выбор 100
▁controls 100
▁ie 100
Join 100
▁ча 100
plain 100
▁EMPTY 100
enk 100
Switch 100
▁assertTemplate 100
nergy 100
▁articles 100
▁repeated 100
▁Big 100
charge 100
▁vehicle 100
▁capitalize 100
▁mer 100
adius 100
contacts 100
Same 100
▁lag 100
circle 100
notifications 100
циона 100
▁distrib 100
▁deadline 100
statuses 100
Bits 100
▁'5' 100
rant 100
heads 100
Media 100
▁plate 100
Commands 100
▁transactions 100
▁себя 100
▁завер 100
▁give 100
▁fiscal 100
ROPoller 100
scenario 100
_0_ 100
▁TS 100
▁веб 100
embedding 100
▁Пробовал 100
percentage 100
▁gcc 100
means 100
hw 100
▁nim 100
tained 100
▁grand 100
▁sector 100
▁одном 100
▁Other 100
leton 100
▁Ни 100
льного 100
▁благо 100
CHED 100
▁subplots 100
▁VIR 100
lusion 100
10' 100
▁38 100
▁rms 100
▁vrf 100
explicit 100
▁Cir 100
▁Should 100
▁momentum 100
▁mks 100
degree 100
Images 100
nick 100
▁graphics 100
тный 100
every 100
▁AG 100
Patch 100
hello 100
▁2010 100
PED 100
▁isChecked 100
decl 100
▁ASC 100
"," 100
Required 100
▁toolchain 100
whitespace 100
xo 100
5, 100
▁die 100
doctype 100
:3 100
▁firefox 100
needs 100
Supported 100
▁MultiIndex 100
▁информацию 100
hem 100
▁FIL 100
▁bed 100
▁hop 100
▁переменная 100
offer 100
▁copied 100
▁дело 100
urst 100
▁broken 100
inds 100
▁vcs 100
▁overflow 100
▁Pop 100
лё 100
)? 100
ynomial 100
▁abcd 100
Permission 100
▁eig 100
▁statements 100
▁сейчас 100
CAD 100
SCRIPTION 100
мина 100
▁Feed 100
trig 100
еся 100
story 100
▁3, 100
Ratio 100
▁программ 100
▁ud 100
зать 100
▁bounding 100
пуска 100
deep 100
▁Ind 100
▁General 100
▁multipart 100
той 100
Delta 100
фф 100
▁tur 100
posts 100
Sets 100
▁compatible 100
▁Invoice 100
stors 100
▁дополни 100
▁preferences 100
IMAGE 100
▁LibvirtDriver 100
▁resample 100
Br 100
▁lattice 100
▁superuser 100
syn 100
ErrorFormat 100
▁Checking 100
LEMENT 100
pytest 100
Modal 100
ха 100
HOME 100
▁whitespace 100
TS 100
▁crypt 100
▁вашем 100
▁deck 100
▁консоль 100
foreign 100
=> 100
ROW 100
stride 100
dit 100
▁yum 100
sessions 100
▁Organization 100
▁ARMErrorFormat 100
▁Ok 100
Holder 100
Mgr 100
▁ldb 100
▁lista 100
▁Team 100
Period 100
gradients 100
▁изображения 100
▁NoS 100
lerts 100
overflow 100
dies 100
▁explo 100
▁preload 100
▁pressure 100
▁Deta 100
Uuid 100
lery 100
apters 100
▁Extension 100
▁confirmed 100
cedure 100
▁Render 100
▁verts 100
.4' 100
appa 100
тает 100
жида 100
ung 100
icast 100
CV 100
ouse 100
lax 100
▁fqdn 100
RF 100
▁1; 100
oot 100
disks 100
▁mach 100
▁conditional 100
▁PS 100
▁fobj 100
▁─ 100
▁SITE 100
▁grammar 100
uli 100
Plug 100
▁базы 100
▁предста 100
▁shader 100
ij 100
half 100
hest 100
Bus 100
▁aid 100
▁animation 100
пози 100
▁Publish 100
▁timed 100
ASS 100
quisition 100
▁problems 100
Vars 100
▁Tab 100
▁спра 100
▁arn 100
Drop 100
▁implicit 100
Java 100
▁100000 100
1\ 100
handles 100
indicator 100
written 100
▁Migration 100
▁compound 100
recognized 100
Na 100
LETED 100
nostics 100
disconnect 100
Sync 100
references 100
▁регис 100
Complete 100
▁Left 100
lg 100
remaining 100
BOX 100
▁sph 100
▁tty 100
▁ticks 100
▁getConfig 100
PM 100
▁Topic 100
дить 100
101 100
▁бес 100
▁badge 100
▁replic 100
▁переменные 100
▁nf 100
uel 100
audit 100
apture 100
OWER 100
masked 100
▁PK 100
expired 100
▁xid 100
Dev 100
▁Pat 100
▁weekday 100
failures 100
gnoring 100
ких 100
▁точно 100
▁Identity 100
minus 100
▁были 100
pod 100
▁trait 100
▁tensors 100
mate 100
configured 100
sigma 100
▁документации 100
bases 100
▁forecast 100
detect 100
TV 100
▁aggregation 100
atern 100
▁pagination 100
COD 100
▁lear 100
▁CONNE 100
nowledge 100
▁blacklist 100
ching 100
▁разобраться 100
Partition 100
got 100
Certificate 100
uction 100
▁Param 100
▁Backend 100
▁periodic 100
000' 100
▁psutil 100
▁конечно 100
жен 100
Marker 100
WITH 100
Encoder 100
▁2017 100
12' 100
▁slide 100
through 100
viewer 100
▁Duplicate 100
▁trunk 100
iteration 100
▁variants 100
дела 100
▁ERR 100
▁Snapshot 100
▁facebook 100
▁Pass 100
consistency 100
party 100
▁чтоб 100
▁atten 100
viation 100
▁hstack 100
▁tagged 100
elems 100
LER 100
▁Card 100
▁maxval 100
▁wk 100
terminal 100
achable 100
iving 100
▁mom 100
▁asn 100
moves 100
▁getsize 100
▁authorized 100
subplot 100
theta 100
reboot 100
▁sending 100
Serial 100
organization 100
▁Stat 100
stable 100
Master 100
:2 100
▁calling 100
▁TEMP 100
▁Did 100
▁srid 100
▁prepend 100
▁tanh 100
OTAL 100
▁bdms 100
scriptors 100
Inf 100
ADDR 100
cepted 100
▁distributed 100
▁47 100
▁LC 100
quit 100
rn 100
▁ты 100
рован 100
RAY 100
▁POS 100
":" 100
▁john 100
▁sensors 100
mutable 100
▁multiprocessing 100
▁непо 100
▁свойство 100
▁hadoop 100
▁Func 100
▁MAN 100
▁cass 100
▁schemas 100
▁outs 100
syntax 100
▁extmethods 100
▁Private 100
popup 100
▁задачу 100
▁Second 100
▁downloaded 100
▁copyfile 100
▁lease 100
▁tipo 100
▁clang 100
ValueError 100
Req 100
trunc 100
encoded 100
quotas 100
Unary 100
▁rescue 100
ider 100
▁4096 100
ENTRY 100
▁Full 100
enkins 100
ваете 100
▁proxies 100
uby 100
▁tvdb 100
▁mods 100
▁mobileTemplate 100
▁Super 100
▁stripped 100
Common 100
▁className 100
fic 100
▁transforms 100
▁currentIndex 100
Any 100
▁locate 100
Attach 100
▁operators 100
▁LIMIT 100
▁Socket 100
▁enums 100
втор 100
▁Namespace 100
anchor 100
Vert 100
symlink 100
▁against 100
flattened 100
1234 100
▁modifier 100
▁cause 100
illing 100
▁water 100
OTH 100
000" 100
▁randrange 100
dog 100
cmds 100
▁любой 100
▁ситуа 100
dx 100
STAT 100
idle 100
▁стать 100
▁MT 100
▁заменить 100
емый 100
candidate 100
▁embedded 100
ato 100
ots 100
dy 100
▁skipping 100
▁changelist 100
trail 100
rv 100
▁Body 100
corr 100
▁heads 100
▁понятно 100
WH 100
▁изу 100
alarm 100
Ptr 100
▁splits 100
ulty 100
Generic 100
populate 100
▁запуске 100
▁цикле 100
▁параметра 100
nado 100
▁requirement 100
BLOCK 100
▁taxes 100
BD 100
FFER 100
▁factors 100
▁diffs 100
▁разре 100
Ans 100
▁fullpath 100
▁decompress 100
▁cnf 100
▁googleapis 100
fh 100
▁пунк 100
▁Bro 100
▁части 100
handled 100
USERNAME 100
▁transformed 100
COMMAND 100
Rules 100
enroll 100
friend 100
▁facility 100
ronic 100
kin 100
▁SIZE 100
Sm 100
lso 100
Modifi 100
Spin 100
glob 100
▁tiles 100
▁provisioning 100
▁аб 100
▁dark 100
▁YANG 100
difference 100
▁NetDevice 100
discovery 100
slash 100
▁условие 100
Scheduler 100
▁появляется 100
▁Uni 100
4, 100
▁$_ 100
▁basket 100
matcher 100
ил 100
vmod 100
Locator 100
▁enroll 100
vertex 100
▁задать 100
weet 100
▁далее 100
again 100
▁releases 100
ностью 100
▁кнопка 100
Statement 100
grpc 100
▁EXIST 100
▁assertThat 100
ki 100
renderer 100
▁confirmation 100
▁marked 100
▁ND 100
editable 100
202 100
pret 100
shards 100
compressed 100
▁ACCEPT 100
▁Platform 100
▁TIMEOUT 100
periods 100
▁QUERY 100
жения 100
motion 100
▁Хочу 100
union 100
vecs 100
plane 100
▁netmask 100
▁Activ 100
▁параметры 100
▁символ 100
▁Далее 100
▁estimate 100
▁Mod 100
▁motor 100
▁persist 100
Abs 100
▁FIFF 100
integration 100
▁prime 100
uber 100
Board 100
diction 100
▁Users 100
▁Workflow 100
▁patron 100
reement 100
delitem 100
Timestamp 100
abo 100
▁Db 100
RESH 100
scode 100
Variables 100
ariate 100
▁tarinfo 100
▁usb 100
▁SkipTest 100
По 100
detach 100
▁wildcard 100
▁positional 100
▁suggestion 100
▁CALL 100
Branch 100
resolution 100
▁ZipFile 100
Validation 100
▁тер 100
▁dow 100
arer 100
▁Step 100
яза 100
.3' 100
Effect 100
▁PREFIX 100
▁automation 100
▁Car 100
Install 100
▁которую 100
svc 100
комен 100
Arguments 100
working 100
▁indi 100
ибо 100
▁ElementTree 100
0% 100
▁nbsp 100
built 100
REF 100
▁Пи 100
▁percentile 100
▁mkstemp 100
acion 100
levant 100
▁Имеется 100
▁writerow 100
▁comparison 100
▁види 100
sl 100
▁первого 100
▁segmentation 100
▁cle 100
(){ 100
▁friendly 100
▁таком 100
уть 100
▁fps 100
▁CERT 100
▁bio 100
unset 100
utter 100
spacing 100
Executor 100
Enable 100
▁vconfig 100
▁transitions 100
▁Ins 100
RPC 100
Closed 100
▁DOTALL 100
▁Eval 100
▁типо 100
dropout 100
▁04 100
▁ответа 100
▁Bot 100
requencies 100
xffff 100
▁her 100
▁буду 100
cam 100
Fill 100
▁CHAR 100
▁куда 100
ficients 100
▁Loading 100
inverse 100
PIC 100
▁trying 100
▁occurred 100
▁succeeded 100
▁проблемой 100
ните 100
orient 100
lio 100
ADDRESS 100
(( 100
▁unlock 100
▁mne 100
▁passphrase 100
cn 100
▁means 100
▁fromtimestamp 100
▁qry 100
cutoff 100
alendar 100
▁transcript 100
Virtual 100
green 100
▁Opt 100
illed 100
▁paint 100
▁imports 100
Mesh 100
Home 100
ulse 100
argv 100
▁HEADER 100
стей 100
▁FC 100
▁battery 100
▁2008 100
learning 100
▁найд 100
▁осно 100
▁FreeCAD 100
0000000000000000 100
oauth 100
▁дви 100
morphic 100
▁edited 100
▁оши 100
ORAGE 100
multipart 100
▁MIME 100
риф 100
▁UPD 100
▁MM 100
Calc 100
▁stddev 100
▁enforce 100
acters 100
tp 100
▁subTest 100
▁RESPONSE 100
rend 100
proba 100
▁sing 100
▁Пытаюсь 100
▁discover 100
▁procurement 100
▁Reset 100
▁QDialog 100
USTOM 100
icket 100
▁texts 100
▁12345 100
▁strand 100
VarInt 100
▁directive 100
CTYPE 100
▁Chrome 100
▁reserve 100
heel 100
▁Are 100
▁EXPE 100
▁последовательно 100
Side 100
▁hmac 100
▁насле 100
▁ru 100
▁lvm 100
activated 100
DC 100
laps 100
▁vstruct 100
▁npt 100
agger 100
rowse 100
▁показа 100
▁1.3 100
utorial 100
▁pants 100
implemented 100
▁vcf 100
Trigger 100
ffered 100
▁ek 100
▁MESSAGE 100
▁individual 100
vif 100
Free 100
inherit 100
▁QColor 100
▁влож 100
▁contour 100
Bundle 100
▁automatic 100
лле 100
logo 100
▁aug 100
▁команды 100
▁восполь 100
▁wm 100
ущест 100
▁decorated 100
▁delim 100
▁elevated 100
▁vms 100
▁yaw 100
▁'2013 100
мена 100
▁rol 100
льным 100
▁privile 100
▁xf 100
▁точки 100
▁rgba 100
▁jquery 100
▁счита 100
ствует 100
▁отдельно 100
lide 100
▁Ten 100
datastore 100
bag 100
▁never 100
уг 100
▁lng 100
NULL 100
▁опти 100
▁setter 100
▁FakeVirtAPI 100
▁memcache 100
▁Registration 100
▁Теперь 100
▁модели 100
▁alphabet 100
fold 100
rates 100
▁77 100
suggest 100
▁shares 100
▁изображение 100
▁возник 100
▁ticker 100
▁принци 100
воз 100
▁52 100
▁0.02 100
rust 100
▁tenants 100
imen 100
▁jQuery 100
▁название 100
▁bandwidth 100
reqs 100
▁создания 100
▁election 100
RefCount 100
xes 100
bbox 100
них 100
rebuild 100
▁сбор 100
webs 100
▁sit 100
▁weather 100
▁маши 100
▁dbapi 100
фай 100
providers 100
чные 100
BA 100
▁индек 100
AILABLE 100
nums 100
inject 100
▁96 100
each 100
tracks 100
oprot 100
terist 100
▁соответственно 100
▁коллек 100
▁1000.0 100
▁translator 100
▁пло 100
▁binascii 100
Loss 100
▁nfs 100
▁WP 100
guess 100
▁установлен 100
▁goto 100
eper 100
▁классе 100
▁QPushButton 100
7_ 100
▁cub 100
multiplier 100
▁sem 100
deriv 100
vanced 100
▁dao 100
cards 100
▁feeds 100
Course 100
▁сначала 100
duplicates 100
3\ 100
▁Split 100
ню 100
tl 100
▁apic 100
Missing 100
ATTRIB 100
▁вопроса 100
▁RequestId 100
oral 100
▁divmod 100
mtls 100
High 100
▁ouch 100
▁learner 100
▁whitelist 100
thers 100
▁dT 100
▁blocked 100
▁arglist 100
solve 100
qp 100
trees 100
▁lap 100
▁простой 100
online 100
▁одна 100
▁multiplier 100
mps 100
tls 100
▁88 100
▁gold 100
▁SPE 100
▁кас 100
▁stre 100
▁&= 100
▁GUI 100
▁freqs 100
ILI 100
integr 100
▁posting 100
arc 100
][ 100
▁\\\\ 100
▁interpolate 100
▁vnf 100
Layers 100
▁weakref 100
CPU 100
▁tier 100
жение 100
deployment 100
▁RPC 100
▁deb 100
Expected 100
yy 100
▁speaker 100
serialization 100
credit 100
outh 100
three 100
mantic 100
▁probability 100
▁*/ 100
▁XY 100
Unique 100
inx 100
attention 100
MASK 100
contract 100
▁boost 100
▁conan 100
Hub 100
▁sed 100
▁AUTO 100
▁Blog 100
▁setWindowTitle 100
alker 100
▁testfile 100
Btn 100
This 100
▁несколь 100
▁BLOCK 100
▁EXPAND 100
▁stim 100
bert 100
CHO 100
▁Worker 100
▁Initial 100
▁injected 100
languages 100
▁hashed 100
▁valor 100
▁subst 100
▁содержит 100
SSING 100
zoom 100
▁writable 100
▁блоки 100
▁цвет 100
▁gdk 100
▁dj 100
arter 100
loor 100
▁indx 100
ighest 100
▁genes 100
alone 100
▁получен 100
▁chunksize 100
mdb 100
▁ry 100
linked 100
▁/* 100
▁LT 100
perf 100
▁Clean 100
▁USERNAME 100
▁holder 100
nor 100
▁кур 100
▁%02 100
States 100
▁мог 100
▁onclick 100
▁prepared 100
▁CACHE 100
▁iframe 100
zure 100
▁applied 100
QUIRED 100
▁department 100
▁odd 100
▁BadRequest 100
IDE 100
▁journ 100
▁вклю 100
▁Public 100
▁jit 100
lant 100
▁heartbeat 100
lenv 100
Bitmap 100
SyntaxError 100
▁базу 100
abort 100
▁still 100
▁treeview 100
▁CSV 100
▁atan 100
▁ancestor 100
ala 100
minator 100
rotation 100
▁enco 100
outs 100
▁adb 100
▁сколько 100
▁Transfer 100
▁itemsize 100
unge 100
devs 100
▁installer 100
ORS 100
▁Embed 100
prefixes 100
OKIE 100
▁dog 100
▁экран 100
мотри 100
▁OPTIONS 100
▁ipaddress 100
▁Ка 100
▁digit 100
торе 100
▁FLOAT 100
patial 100
▁консоли 100
Reset 100
Img 100
▁cxx 100
▁dependent 100
▁gm 100
usr 100
▁Lim 100
Without 100
▁SetValue 100
▁cros 100
▁skipTest 100
▁Html 100
▁Folder 100
wind 100
▁ввода 100
▁offline 100
▁tornado 100
WAY 100
shadow 100
tunnel 100
▁mutable 100
tector 100
▁DOWN 100
▁endog 100
хода 100
crop 100
▁orth 100
▁SS 100
▁slack 100
▁реализации 100
255 100
optim 100
season 100
▁использова 100
zie 100
Fit 100
▁Route 100
▁hover 100
translations 100
▁biases 100
_6 100
assigned 100
▁Deferred 100
=""> 100
Atom 100
modal 100
▁поиска 100
Times 100
▁Coord 100
▁CN 100
ведение 100
▁автоматически 100
otor 100
fds 100
▁secrets 100
tc 100
▁pars 100
PATTERN 100
▁vectors 100
Real 100
▁dequeue 100
▁ofp 100
▁создавать 100
cular 100
▁'1.0' 100
▁внеш 100
Router 100
rored 100
▁успе 100
▁integrate 100
mixed 100
▁хорошо 100
▁NORMAL 100
Instances 100
▁110 100
hierarchy 100
HO 100
▁Destroy 100
▁432 100
vp 100
BLE 100
▁Docker 100
▁microsecond 100
▁vmware 100
MessageType 100
isfi 100
vertices 100
ETIME 100
▁выполняется 100
2) 100
▁прямо 100
="@ 100
Payload 100
▁queues 100
angular 100
categorical 100
▁папку 100
▁Fetch 100
▁08 100
▁west 100
testing 100
▁поток 100
FFIX 100
Tasks 100
▁Atom 100
▁gps 100
ulp 100
▁Cont 100
mers 100
ствен 100
▁MY 100
▁Gdk 100
▁Double 100
▁ipaddr 100
▁revisions 100
▁Дела 100
▁apple 100
▁51 100
▁помощь 100
▁trainer 100
Links 100
▁записать 100
Arr 100
emit 100
▁continuation 100
500 100
scopes 100
ATFORM 100
▁NaT 100
andra 100
▁Tri 100
▁sbox 100
news 100
Slice 100
▁certs 100
▁самое 100
▁CP 100
amel 100
▁лишь 100
▁ao 100
Fetch 100
linux 100
▁bitmap 100
щение 100
▁Polygon 100
▁npy 100
Units 100
umidity 100
123' 100
например 100
▁importlib 100
_200_ 100
aemon 100
▁идет 100
▁openid 100
▁sentences 100
▁curs 100
▁tel 100
▁8859 100
▁2.1 100
▁?> 100
▁меньше 100
▁webapp 100
раз 100
Merge 100
▁скры 100
Elem 100
videos 100
availability 100
:00" 100
▁Vec 100
BIN 100
▁ним 100
▁событие 100
lp 100
▁jax 100
▁amplitude 100
Light 100
▁xaxis 100
▁assertion 100
▁5' 100
orem 100
cow 100
ves 100
▁ALIGN 100
vnc 100
imports 100
▁horizon 100
▁screenshot 100
▁Member 100
▁Choice 100
▁рус 100
▁postgresql 100
▁упра 100
DataFrame 100
▁presence 100
▁above 100
▁setAttribute 100
OPT 100
▁81 100
Insert 100
▁pylab 100
▁расшир 100
Duration 100
Static 100
еры 100
generated 100
abb 100
▁HTTPNotFound 100
authentication 100
▁uc 100
redis 100
▁благодар 100
▁Couldn 100
▁проще 100
▁SESSION 100
▁Progress 100
ious 100
▁значит 100
passed 100
▁seqs 100
snapshots 100
▁assertNum 100
readable 100
▁номер 100
▁hc 100
cohort 100
▁TASK 100
▁\033 100
▁QIcon 100
courses 100
▁padded 100
▁"127.0.0.1 100
▁ак 100
chi 100
▁feconf 100
▁gfile 100
▁Waiting 100
▁hm 100
'. 100
Boolean 100
▁компью 100
▁сказа 100
udnn 100
invoke 100
▁RandomState 100
▁кодиров 100
Polygon 100
▁nombre 100
▁restriction 100
ylabel 100
▁announce 100
▁incr 100
ira 100
▁:= 100
▁MULTI 100
quivalent 100
generation 100
▁библиотеку 100
▁ther 100
▁With 100
тия 100
utine 100
▁CURRENT 100
фици 100
▁ij 100
zon 100
▁exclusive 100
INIT 100
▁Metric 100
▁wik 100
extended 100
▁inds 100
tesian 100
▁utility 100
▁Util 100
Export 100
requires 100
ldap 100
▁наш 100
Contact 100
▁вос 100
▁Attemp 100
NUMBER 100
inted 100
▁spell 100
newlines 100
Operations 100
лки 100
▁категори 100
(0 100
REGEX 100
▁Ip 100
▁xr 100
ному 100
Entries 100
frag 100
▁substr 100
▁sequential 100
ste 100
2222 100
бую 100
▁GB 100
lets 100
▁xmlrpc 100
▁hos 100
▁Edge 100
candidates 100
▁LANGUAGE 100
дует 100
▁смыс 100
▁captcha 100
▁Буд 100
▁этому 100
▁navigate 100
▁formfield 100
▁las 100
▁запросы 100
▁Провер 100
▁Url 100
auge 100
▁Attach 100
▁defining 100
▁argsort 100
зировать 100
▁SUM 100
▁vp 100
▁plaintext 100
▁2048 100
▁20.0 100
={ 100
fff 100
▁zz 100
FIELDS 100
▁массиве 100
▁Generator 100
▁warm 100
readed 100
▁opening 100
asing 100
▁deactivate 100
regexp 100
▁traverse 100
▁Однако 100
verification 100
▁директори 100
accum 100
▁ParseError 100
▁JavaScript 100
▁выбрать 100
111 100
CLI 100
▁eigen 100
RES 100
▁ndb 100
ternative 100
subprocess 100
==== 100
django 100
archar 100
▁Cmd 100
IABLE 100
rient 100
▁letters 100
▁refund 100
▁yi 100
front 100
Unicode 100
Ready 100
▁53 100
▁eos 100
UNK 100
▁keypair 100
▁пробовал 100
feat 100
pref 100
▁intro 100
▁Driver 100
▁сохран 100
▁assertItems 100
ISH 100
▁неправи 100
▁thresholds 100
Jobs 100
UAL 100
▁объекты 100
RESPONSE 100
▁barcode 100
▁конце 100
▁raster 100
▁QQ 100
framework 100
▁() 100
▁defs 100
pixels 100
▁lesson 100
▁Authentication 100
▁bgp 100
▁выводится 100
▁der 100
▁guard 100
▁Dag 100
▁inference 100
uator 100
centers 100
formatted 100
рисо 100
▁первой 100
яс 100
▁cancelled 100
▁ему 100
рга 100
▁мину 100
▁Sales 100
ktop 100
▁ошибок 100
▁следующим 100
etime 100
▁TOP 100
Chars 100
позитори 100
▁Incorrect 100
▁convertTo 100
▁apk 100
▁обно 100
▁unary 100
uberne 100
▁downgrade 100
attrib 100
displayed 100
▁содержимое 100
hover 100
▁ckpt 100
▁46 100
rights 100
codec 100
Structure 100
ubernetes 100
▁analyzer 100
pur 100
▁ProjectFactory 100
▁GPU 100
▁Direction 100
▁IntegerField 100
tcp 100
▁gpg 100
Repo 100
клад 100
combin 100
вают 100
▁emoji 100
▁getpid 100
▁preds 100
managed 100
▁packets 100
YLE 100
pci 100
otonic 100
Alignment 100
ский 100
▁специ 100
▁экрана 100
▁посмотреть 100
PLACE 100
interpol 100
WithCallback 100
▁JOB 100
LEASE 100
▁approved 100
rollback 100
Ipv 100
Owner 100
▁корректно 100
▁Level 100
▁quoted 100
▁configurations 100
:4 100
Clicked 100
▁covariance 100
▁patcher 100
▁72 100
▁себе 100
▁перем 100
▁PRIMARY 100
Kit 100
▁wl 100
isect 100
▁busy 100
▁expl 100
SCHEMA 100
▁предпо 100
ие 100
REE 100
▁MB 100
SHA 100
▁SMTP 100
▁anon 100
▁jac 100
▁allocated 100
▁OAuth 100
mdk 100
▁assessment 100
▁слово 100
benchmark 100
▁Comm 100
▁вызвать 100
▁venv 100
▁:) 100
▁instit 100
▁atleast 100
▁databases 100
later 100
▁}) 100
▁scm 100
▁Та 100
need 100
теля 100
Readable 100
▁ein 100
▁кни 100
▁Right 100
есси 100
▁exposure 100
alic 100
liers 100
▁DESC 100
Fixed 100
▁builtins 100
▁Neutron 100
Dyn 100
▁над 100
prediction 100
Reply 100
argspec 100
▁VStruct 100
ulo 100
Hint 100
▁shor 100
Tables 100
▁SUPER 100
zation 100
▁commits 100
ORDER 100
▁hdfs 100
gies 100
▁angles 100
ARM 100
▁doctest 100
mute 100
▁ISO 100
▁LINK 100
▁So 100
▁получилось 100
igner 100
trast 100
ilk 100
Commit 100
▁lg 100
torrent 100
nic 100
xel 100
дап 100
▁Attr 100
▁гото 100
▁SCOPE 100
onomy 100
▁vk 100
infer 100
ggled 100
▁Adding 100
ёл 100
▁builds 100
▁слу 100
visibility 100
▁выполнить 100
udge 100
Allowed 100
▁fastq 100
▁PDF 100
▁1.4 100
▁futures 100
license 100
arb 100
▁goo 100
Sparse 100
▁recover 100
▁counters 100
Division 100
▁shif 100
▁думаю 100
Tracker 100
Connected 100
кое 100
SUCCESS 100
▁getText 100
▁таких 100
▁телефо 100
▁Dir 100
▁03 100
▁Retry 100
Cir 100
▁gh 100
▁га 100
SDK 100
▁бер 100
▁EL 100
▁guide 100
▁браузера 100
▁platforms 100
▁authenticated 100
▁facet 100
▁datas 100
▁Использу 100
▁FR 100
ект 100
craft 100
▁Вывод 100
charset 100
loads 100
Conv 100
▁firm 100
controls 100
▁truncated 100
lipse 100
Wrap 100
sentence 100
anno 100
▁nothing 100
▁Draft 100
▁substitute 100
зацию 100
▁pkey 100
tm 100
goal 100
▁spread 100
▁WEB 100
Public 100
PROPER 100
▁eggs 100
membership 100
▁сами 100
provision 100
▁Backup 100
▁numberOf 100
▁representation 100
▁Direct 100
▁ubuntu 100
▁обычно 100
▁headline 100
▁whole 100
▁ingress 100
▁другом 100
ят 100
▁associated 100
▁getProperty 100
diter 100
▁truth 100
Standard 100
▁режи 100
je 100
don 100
RIPT 100
▁говори 100
▁debugger 100
▁leaves 100
▁useFixture 100
MODEL 100
▁Handle 100
▁привя 100
ших 100
WRITE 100
▁прид 100
Raise 100
migrations 100
ший 100
/201 100
▁8.0 100
▁выбира 100
▁GLOBAL 100
pf 100
FIL 100
aur 100
Native 100
▁concrete 100
squared 100
▁Quantity 100
recipe 100
▁svntest 100
▁below 100
nake 100
tmpl 100
▁stype 100
resolved 100
Vol 100
arator 100
▁near 100
Threshold 100
▁artifacts 100
flows 100
чки 100
▁spike 100
▁runTest 100
▁пути 100
VOLUME 100
feedback 100
Later 100
vocation 100
нок 100
weighted 100
▁gran 100
sound 100
шите 100
loading 100
Face 100
ribs 100
▁Country 100
stand 100
▁jd 100
ifs 100
yes 100
▁поддержи 100
▁psy 100
GHT 100
▁ACCESS 100
▁QgsVector 100
ah 100
ваи 100
▁атрибу 100
CM 100
▁MEDIA 100
▁Соб 100
ин 100
дыду 100
OBJECT 100
▁grow 100
USH 100
=0 100
▁subparsers 100
▁Asset 100
▁mention 100
ModuleError 100
▁Two 100
▁sky 100
distances 100
dll 100
LACK 100
vidence 100
Configured 100
еди 100
cant 100
HW 100
▁rights 100
▁катало 100
istrator 100
▁sect 100
▁idl 100
▁конт 100
TC 100
▁MAP 100
▁bat 100
▁MODULE 100
possible 100
ualenv 100
▁2007 100
▁getInstance 100
▁lld 100
Members 100
RM 100
▁movies 100
▁affected 100
Wkt 100
▁ENABLE 100
▁dataframe 100
▁stc 100
stylesheet 100
▁свою 100
describe 100
рави 100
▁derived 100
flex 100
▁индекс 100
ibration 100
▁NameError 100
▁скрипта 100
▁OW 100
wid 100
▁meas 100
▁food 100
▁Switch 100
▁tearDownClass 100
▁Mongo 100
▁ef 100
Registration 100
.1/ 100
gested 100
filesystem 100
▁кру 100
▁games 100
▁вся 100
▁00:00:00 100
ADATA 100
manent 100
▁gallery 100
▁protein 100
addrs 100
TCP 100
▁поиск 100
arms 100
DELETE 100
▁папке 100
1> 100
cendants 100
Utf 100
▁ddf 100
Props 100
TRIC 100
▁AES 100
▁'2011 100
▁qname 100
purchase 100
▁картинку 100
▁hh 100
▁based 100
▁память 100
▁dz 100
▁2) 100
▁assume 100
▁setChecked 100
'' 100
▁POINTER 100
▁HAS 100
▁cpus 100
then 100
▁setProperty 100
iters 100
▁сортиров 100
▁пор 100
▁делает 100
Pressed 100
Cookie 100
жит 100
Forward 100
LU 100
▁место 100
anging 100
endpoints 100
authors 100
spark 100
Defaults 100
Functions 100
reports 100
digo 100
влении 100
▁arrayfunc 100
▁subtract 100
lee 100
▁prune 100
▁ndimage 100
credential 100
▁gas 100
шения 100
▁NoSuch 100
▁чт 100
▁elect 100
mal 100
figure 100
▁STATIC 100
▁EDIT 100
Buttons 100
▁discri 100
▁Drop 100
strict 100
▁немного 100
▁citation 100
▁recurse 100
▁похо 100
MARK 100
uler 100
▁indexed 100
deletion 100
rawtransaction 100
▁вызов 100
▁limited 100
▁ссы 100
▁postfix 100
eth 100
▁fv 100
▁hal 100
subnets 100
TestModel 100
SUP 100
▁morph 100
Direction 100
▁hdf 100
▁FILES 100
▁expressions 100
▁кроме 100
Watch 100
omaly 100
▁dists 100
rief 100
▁Style 100
anger 100
▁ami 100
▁assertHTML 100
▁0) 100
▁om 100
▁поч 100
requis 100
TICAL 100
▁others 100
▁rectangle 100
schemas 100
separ 100
▁LDAP 100
Second 100
Minimum 100
▁другого 100
ILL 100
опреде 100
fixtures 100
▁referer 100
▁итера 100
ima 100
▁computed 100
▁gam 100
▁3000 100
neutron 100
▁logdir 100
Particle 100
▁restricted 100
▁trakt 100
WE 100
lag 100
▁cnx 100
▁stripe 100
mpp 100
isto 100
▁updater 100
Linear 100
Catalog 100
reserved 100
▁signup 100
▁restrict 100
was 100
▁timing 100
▁символы 100
▁publication 100
exam 100
▁Stock 100
▁TOTAL 100
▁Sequential 100
▁gx 100
▁Properties 100
Abstract 100
▁возникает 100
▁getAll 100
▁Задача 100
▁обрабаты 100
лово 100
ractions 100
0000000 100
▁сохранить 100
▁написал 100
buffers 100
slide 100
inet 100
Activ 100
FLAG 100
Avatar 100
LEFT 100
▁QWidget 100
▁analytic 100
▁RIGHT 100
variants 100
▁существует 100
▁Successfully 100
▁comps 100
▁полей 100
▁Ин 100
▁внима 100
recon 100
▁aiohttp 100
▁well 100
▁адми 100
▁ссылке 100
▁менять 100
Now 100
Metrics 100
▁userdata 100
Percent 100
rams 100
asked 100
but 100
▁ou 100
println 100
▁FIN 100
жда 100
▁алгоритм 100
vpn 100
Radius 100
▁ROLE 100
▁Airflow 100
Annotation 100
▁protocols 100
▁хранить 100
Acc 100
▁sampler 100
▁vf 100
▁SAMPLE 100
libvirt 100
▁linesep 100
Signature 100
fficient 100
▁Signature 100
gines 100
▁100. 100
▁Nova 100
▁sip 100
Mult 100
representation 100
▁POL 100
▁subdomain 100
-14 100
пас 100
Distribution 100
ente 100
umbs 100
(): 100
лли 100
▁BaseException 100
▁Errors 100
.25 100
▁примера 100
AMETER 100
▁timestamps 100
PK 100
players 100
▁относи 100
если 100
▁NUMBER 100
terministic 100
dashboard 100
▁ClientError 100
curr 100
▁фото 100
▁ран 100
vertical 100
▁ASS 100
▁WITH 100
SCRIPT 100
▁TMessageType 100
▁EPS 100
вайте 100
COND 100
igure 100
▁обяза 100
▁нужна 100
listing 100
▁gi 100
alogs 100
ServiceClient 100
uck 100
▁dfs 100
FIN 100
▁attname 100
FILENAME 100
▁Provider 100
▁levelname 100
nl 100
▁About 100
▁dont 100
▁свои 100
shop 100
Camera 100
▁IGNORECASE 100
cident 100
Car 100
pubkey 100
▁EXISTS 100
▁proposed 100
▁PROTOCOL 100
▁iqn 100
consistent 100
character 100
▁relations 100
512 100
▁pyplot 100
OUTPUT 100
▁сложно 100
▁rejected 100
▁вход 100
▁соедин 100
encryption 100
accuracy 100
▁rvs 100
▁разме 100
El 100
Ins 100
▁цве 100
▁полностью 100
iprot 100
▁conversation 100
fy 100
▁модель 100
▁gcs 100
▁qa 100
▁CODE 100
▁ONE 100
Execute 100
▁Builder 100
▁репозитори 100
basename 100
▁blocksize 100
ACTIVE 100
▁pep 100
SPEC 100
listeners 100
iq 100
▁Math 100
▁psdf 100
wallet 100
shuffle 100
Accessor 100
▁GRA 100
▁ostream 100
▁onchange 100
▁предыду 100
▁xsd 100
Optimizer 100
Cla 100
▁решил 100
▁outgoing 100
▁bk 100
acher 100
▁writeString 100
else 100
▁trees 100
▁dmp 100
▁fmap 100
▁weapon 100
▁TensorShape 100
UMENT 100
Constant 100
AML 100
basis 100
▁SCRIPT 100
▁ctr 100
▁бд 100
▁getType 100
лове 100
▁ramdisk 100
▁REST 100
▁mse 100
▁DD 100
directories 100
▁WINDOW 100
blocking 100
▁повто 100
▁mnt 100
▁forced 100
▁magnitude 100
ulations 100
▁иска 100
▁testuser 100
▁myid 100
Indices 100
masks 100
getattribute 100
▁ia 100
▁доб 100
▁PACK 100
▁contest 100
▁события 100
▁Conf 100
xlabel 100
ados 100
collector 100
▁TTransport 100
odata 100
▁Fact 100
Records 100
▁Overflow 100
▁simulate 100
▁contributors 100
legend 100
ulative 100
▁conference 100
dataframe 100
▁Commit 100
▁вывода 100
жем 100
Include 100
345 100
initi 100
sf 100
▁argstr 100
▁BA 100
upted 100
ivo 100
Ops 100
▁mozilla 100
classifier 100
(0, 100
spin 100
.... 100
▁BIN 100
mos 100
aware 100
guard 100
AUT 100
solver 100
ToolTip 100
RUN 100
▁setVisible 100
▁vin 100
▁множест 100
▁PID 100
Diag 100
▁apikey 100
▁Попробуйте 100
oggle 100
additional 100
beam 100
▁Click 100
▁Review 100
ctr 100
▁queued 100
▁detailed 100
SV 100
нное 100
▁тай 100
Measure 100
▁analytics 100
▁adv 100
ACCESS 100
idi 100
▁instantiate 100
CEPTION 100
▁Refresh 100
▁placement 100
ipment 100
letters 100
clide 100
.5' 100
▁следующее 100
▁setCurrentIndex 100
Dim 100
PPING 100
чных 100
▁Cl 100
щения 100
▁zk 100
▁recall 100
▁Rot 100
Relation 100
▁Issue 100
▁Получа 100
▁zs 100
Platform 100
▁классов 100
▁устанавли 100
(1 100
supp 100
ood 100
▁esc 100
▁gaussian 100
▁первом 100
quiv 100
▁MetaData 100
ргани 100
vd 100
▁tq 100
▁ddof 100
▁propagate 100
▁shrink 100
dup 100
ANY 100
▁eager 100
▁Cisco 100
PROJECT 100
mostat 100
▁Impro 100
pended 100
▁каким 100
бора 100
▁туда 100
minder 100
relations 100
▁нам 100
▁drawing 100
=1 100
▁wi 100
▁Sta 100
▁eid 100
▁cumsum 100
▁adding 100
Dump 100
quad 100
interp 100
udflare 100
ALSE 100
сить 100
omo 100
▁opens 100
due 100
Material 100
MON 100
continue 100
:30 100
00:00:00 100
▁аргумен 100
▁certificates 100
ложить 100
▁deltas 100
▁nid 100
txn 100
drag 100
▁scratch 100
▁digital 100
▁handles 100
pment 100
▁collapse 100
▁TestAction 100
▁writing 100
Surface 100
▁osv 100
▁начала 100
NotImplemented 100
▁SL 100
Chart 100
шой 100
prefs 100
cannot 100
manual 100
upy 100
▁manufacturer 100
▁defaultValue 100
OCK 100
hib 100
desktop 100
▁tableName 100
efs 100
▁7. 100
embeddings 100
▁использованием 100
uge 100
▁Repo 100
▁phy 100
tok 100
▁eli 100
▁owners 100
800 100
vend 100
▁срабатывает 100
.0.2 100
дитель 100
RIGHT 100
▁Ra 100
flux 100
compiled 100
▁transports 100
ansion 100
боль 100
EK 100
Band 100
reward 100
▁век 100
▁Xml 100
▁уви 100
▁назы 100
Raster 100
TestData 100
▁парси 100
uppet 100
▁escaped 100
▁gis 100
Verify 100
▁bel 100
pective 100
Brush 100
▁paid 100
Serialized 100
▁прост 100
▁fetched 100
CLUDE 100
▁consts 100
▁netaddr 100
LW 100
▁mong 100
▁shlex 100
▁frm 100
chors 100
minor 100
liation 100
▁assertSequence 100
▁отображается 100
ulls 100
▁centers 100
Bounds 100
vv 100
▁vnc 100
▁newname 100
▁ylim 100
▁му 100
TypeError 100
stick 100
Classes 100
Clip 100
▁denied 100
▁активи 100
replicas 100
outcome 100
▁пользователей 100
▁chainer 100
RD 100
witness 100
▁Добрый 100
▁vul 100
▁nose 100
▁tkinter 100
▁floatingip 100
▁pet 100
пре 100
bw 100
▁corner 100
wsgi 100
▁Username 100
Fake 100
▁issuer 100
instrument 100
кла 100
▁VirtualMachine 100
▁sku 100
▁Scope 100
▁octet 100
Graphics 100
obot 100
▁Sync 100
▁fully 100
rogate 100
▁AnsibleModule 100
▁finditer 100
deferred 100
▁getting 100
cobian 100
▁getData 100
_10 100
▁2001 100
▁these 100
detection 100
наче 100
▁Inst 100
dience 100
Unknown 100
▁outside 100
▁she 100
▁матри 100
▁0.0000 100
▁Formatter 100
▁pct 100
DynClass 100
▁YANGDynClass 100
exer 100
delivery 100
▁hierarchy 100
▁'7 100
▁react 100
PN 100
Plugins 100
namespaces 100
рин 100
filled 100
probe 100
atellite 100
▁analyse 100
xi 100
▁localize 100
▁tom 100
▁Router 100
pets 100
▁Offset 100
▁listeners 100
▁contexts 100
datasets 100
owners 100
▁iterate 100
влять 100
mium 100
▁1: 100
▁subj 100
рот 100
▁OPT 100
▁toy 100
нным 100
▁ljust 100
400 100
▁raid 100
VO 100
▁Structure 100
▁scrapertools 100
vid 100
▁Indexed 100
It 100
▁pkl 100
▁comma 100
Devices 100
▁TRUE 100
shares 100
INTERVAL 100
▁yt 100
mol 100
mpeg 100
Methods 100
rng 100
▁qn 100
▁ends 100
▁mutation 100
▁reviewer 100
▁mktime 100
▁изменя 100
▁ipa 100
▁zi 100
▁keyfile 100
anza 100
FILTER 100
▁Bool 100
▁Purchase 100
ament 100
Analy 100
▁NOTIFICATION 100
▁rounding 100
Cert 100
▁генери 100
normalized 100
dbc 100
▁City 100
▁прос 100
magic 100
mazon 100
ElementById 100
▁определить 100
Logging 100
▁advert 100
▁Dynamic 100
▁воспользоваться 100
rist 100
ander 100
▁Safe 100
▁Spark 100
▁прои 100
succe 100
▁pids 100
▁выводить 100
▁подо 100
ParameterValue 100
arge 100
ilies 100
▁адап 100
▁Removing 100
▁setLayout 100
idad 100
ivariate 100
▁alternate 100
▁Сто 100
▁mov 100
▁Keyword 100
7, 100
iser 100
▁внутр 100
chie 100
▁данными 100
lask 100
▁интерфейс 100
▁srs 100
▁cout 100
▁dask 100
googleapis 100
buntu 100
▁See 100
писал 100
▁ADDON 100
▁процесс 100
▁dual 100
▁QFile 100
▁Plan 100
evaluate 100
▁tu 100
ityError 100
hp 100
exclusive 100
▁Github 100
рь 100
Hist 100
либо 100
Gateway 100
VIDER 100
▁globs 100
Mapper 100
▁implement 100
▁rag 100
Alias 100
▁rbd 100
тах 100
LEAN 100
▁being 100
▁используйте 100
specified 100
▁firstname 100
имен 100
▁YES 100
вали 100
Words 100
▁devnull 100
нт 100
flip 100
xen 100
▁ALTER 100
▁TApplication 100
organ 100
="1 100
▁указатель 100
▁функциона 100
▁отправить 100
▁Push 100
▁paused 100
PR 100
agged 100
▁sqs 100
▁VIE 100
▁tiny 100
passwd 100
▁pricelist 100
',' 100
Enter 100
warehouse 100
▁программи 100
▁ConnectionError 100
Mail 100
▁batches 100
▁imshow 100
▁nodeid 100
▁'10' 100
енные 100
▁containing 100
▁LEN 100
▁ttype 100
▁simplefilter 100
ndarray 100
DivisionError 100
minutes 100
▁Primary 100
.0/24' 100
▁printf 100
▁boo 100
▁wid 100
---------------- 100
▁epg 100
▁необходи 100
.0.1 100
▁импо 100
stopped 100
Blob 100
▁tmin 100
caller 100
ATIONS 100
acon 100
ентифика 100
alg 100
▁Resources 100
reraise 100
HD 100
▁мар 100
Clear 100
▁переменных 100
▁assertHTMLEqual 100
▁interest 100
▁denominator 100
CORD 100
trained 100
▁выражение 100
▁capability 100
▁cats 100
iscsi 100
STM 100
▁traffic 100
given 100
logout 100
rnn 100
▁Too 100
▁CourseFactory 100
Padding 100
▁передавать 100
▁dbo 100
▁attrname 100
▁polar 100
Comm 100
▁Mi 100
▁GIT 100
urb 100
▁parseString 100
▁lastname 100
▁foreground 100
ambig 100
Cells 100
▁PART 100
▁иметь 100
CENTER 100
▁exprs 100
▁ptype 100
мой 100
lad 100
▁jwt 100
▁asctime 100
assis 100
▁setTitle 100
successful 100
▁docname 100
uum 100
▁функций 100
▁vtx 100
▁еди 100
▁реша 100
▁UID 100
▁HIGH 100
▁попытке 100
colour 100
▁waitFor 100
▁ожида 100
▁способо 100
▁Gradient 100
▁rdd 100
▁Quality 100
▁minimize 100
vault 100
▁consumed 100
wa 100
exchange 100
hift 100
▁instring 100
тре 100
▁'9 100
inite 100
▁DAG 100
DEBUG 100
▁tilt 100
▁adjoint 100
▁chromium 100
fan 100
SESSION 100
▁"127.0.0.1" 100
OPEN 100
▁htm 100
нение 100
routers 100
▁Deploy 100
ира 100
pyfile 100
Alpha 100
MODULE 100
▁имени 100
ularity 100
▁Partition 100
caps 100
▁поста 100
▁работу 100
▁mkt 100
authenticate 100
totype 100
▁подс 100
▁stylesheet 100
MEDI 100
▁targ 100
rotate 100
TRL 100
▁Realm 100
▁ascending 100
▁transparent 100
▁hv 100
DOM 100
▁ENTITY 100
▁putln 100
URSE 100
Enc 100
▁объяс 100
▁grouping 100
Quant 100
ONT 100
▁bx 100
▁Lin 100
▁fund 100
CLOSE 100
▁Termin 100
▁approval 100
reddit 100
▁exper 100
Conflict 100
''' 100
gments 100
ffold 100
projection 100
▁MAC 100
▁Employee 100
▁downloads 100
▁setFormatter 100
▁cash 100
sdk 100
tours 100
trim 100
▁пакет 100
▁modal 100
documents 100
past 100
▁unload 100
▁CD 100
▁lem 100
▁filesize 100
▁Face 100
Seconds 100
▁refer 100
▁sug 100
▁команду 100
▁Registry 100
▁Arg 100
▁prj 100
▁Segment 100
▁wagtail 100
▁intermediate 100
▁– 100
▁extr 100
▁методе 100
jwt 100
Forbidden 100
▁rfc 100
▁Bound 100
▁occup 100
▁DOM 100
intain 100
icipant 100
Tri 100
verb 100
MQ 100
▁bq 100
▁7.0 100
▁getId 100
▁проверки 100
▁ven 100
▁прак 100
Convert 100
▁таблиц 100
pem 100
Fire 100
▁DN 100
ython 100
arios 100
▁Mail 100
▁ncols 100
Maximum 100
Tx 100
▁pokemon 100
▁SECRET 100
pher 100
▁pth 100
▁insecure 100
▁Pick 100
Shared 100
▁galaxy 100
gsnapshot 100
▁udf 100
▁Geometry 100
trust 100
Sig 100
Retry 100
▁ipsum 100
-01-01' 100
subscriptions 100
чении 100
▁Ca 100
▁bone 100
Term 100
▁сети 100
replication 100
▁QVBoxLayout 100
folio 100
TERM 100
MOVE 100
MISSION 100
▁pseudo 100
▁наличи 100
лоба 100
тичес 100
▁httpretty 100
▁numa 100
▁проверку 100
▁deserializer 100
бовать 100
sb 100
APIException 100
WEB 100
ising 100
palette 100
▁addTest 100
▁indptr 100
▁budget 100
есте 100
▁inode 100
▁makefile 100
inations 100
Codes 100
Example 100
ignored 100
▁dilation 100
▁kick 100
nostic 100
gons 100
regression 100
стя 100
▁FIELD 100
CheckBox 100
intervals 100
▁revoke 100
olding 100
низ 100
limited 100
LM 100
ido 100
▁гуг 100
wp 100
Pickle 100
▁timetuple 100
▁архи 100
pection 100
daemon 100
386 100
ptic 100
▁появи 100
нке 100
▁coupon 100
▁poster 100
▁органи 100
так 100
nm 100
HCP 100
▁FILTER 100
▁signing 100
▁лиш 100
dro 100
napse 100
ATURES 100
▁XR 100
Globals 100
ponsor 100
▁traits 100
▁Downloading 100
'> 100
▁Icon 100
YY 100
hits 100
whitelist 100
onor 100
▁writeStructEnd 100
REA 100
marize 100
▁unescape 100
▁vy 100
▁Сейчас 100
▁добавлять 100
▁particles 100
▁bmp 100
▁'1.2.3 100
▁methodName 100
▁writeFieldStop 100
rewrite 100
▁Software 100
▁curdir 100
▁обраща 100
▁Результа 100
▁загрузки 100
song 100
approx 100
▁contextlib 100
▁dra 100
Uns 100
utations 100
▁Payment 100
▁aggr 100
relationship 100
▁varchar 100
▁zoo 100
issues 100
larations 100
ribe 100
▁Fil 100
▁CourseMode 100
шем 100
exus 100
юда 100
▁4, 100
▁minid 100
▁деле 100
Finder 100
▁UserError 100
▁affinity 100
remo 100
▁eventlet 100
Management 100
▁ceph 100
дол 100
cion 100
▁office 100
▁school 100
▁Credentials 100
▁dg 100
▁месте 100
particle 100
▁Firefox 100
▁vb 100
macro 100
▁VIEW 100
▁ALLOW 100
нем 100
▁уника 100
▁repositories 100
HAND 100
▁HA 100
▁Regex 100
▁ov 100
▁клиент 100
▁installation 100
▁FUNCTION 100
Sw 100
▁friends 100
енных 100
timedelta 100
Org 100
▁позволяет 100
GRAM 100
▁Apply 100
▁pony 100
▁netapp 100
grant 100
▁разли 100
▁justify 100
iner 100
▁High 100
рое 100
▁workbook 100
Runtime 100
stdin 100
▁Zone 100
chains 100
itivity 100
coded 100
classification 100
logic 100
Templates 100
▁работают 100
▁parame 100
▁данной 100
▁intensity 100
ртуа 100
ceed 100
▁Gem 100
▁Fast 100
▁xlim 100
▁become 100
FLOW 100
▁разни 100
▁calibration 100
▁каждом 100
шло 100
ALOG 100
Plain 100
▁записей 100
GRESS 100
▁Duration 100
▁TIMESTAMP 100
ama 100
▁ion 100
▁0.99 100
▁Extract 100
▁bufsize 100
▁WebSocket 100
▁smo 100
ippets 100
TES 100
▁базо 100
▁wavelength 100
▁idp 100
▁expectation 100
RAW 100
Reason 100
aps 100
ключается 100
▁vhd 100
▁лег 100
▁вызова 100
ardi 100
taint 100
HEIGHT 100
▁Azure 100
▁DEV 100
▁nets 100
▁specification 100
Zip 100
copg 100
▁kws 100
icator 100
▁macros 100
▁Summary 100
▁arp 100
▁aligned 100
gte 100
▁IOS 100
▁NETWORK 100
▁minimal 100
▁Ме 100
нак 100
▁lz 100
▁OptionParser 100
▁Dimension 100
▁aaaa 100
([ 100
wire 100
▁864 100
▁tmax 100
▁ary 100
▁Unauthorized 100
▁DEC 100
legram 100
IDDEN 100
VB 100
="" 100
losses 100
мож 100
▁bench 100
▁privacy 100
▁lost 100
inside 100
▁functional 100
гов 100
▁paginate 100
▁SUPERUSER 100
чка 100
▁контролл 100
CODING 100
▁Он 100
▁Panel 100
ogus 100
▁0.15 100
▁brand 100
extractor 100
formset 100
predicate 100
▁monitoring 100
▁классы 100
▁writelines 100
WD 100
▁заголов 100
▁deleting 100
▁ENV 100
▁elm 100
arma 100
LABEL 100
lying 100
▁WRITE 100
ees 100
camp 100
dip 100
lade 100
▁VerifyAll 100
▁DatetimeIndex 100
▁sas 100
tect 100
quotes 100
▁клике 100
▁дочер 100
▁pixbuf 100
Glyph 100
▁splitter 100
▁arct 100
contexts 100
▁transcode 100
▁universal 100
▁fieldnames 100
INPUT 100
NotModified 100
Unt 100
rab 100
SEC 100
NORMAL 100
senter 100
▁masks 100
▁collected 100
confirmed 100
▁Updating 100
▁jj 100
preference 100
GC 100
▁minval 100
▁DIST 100
▁watcher 100
▁Bus 100
▁webdriver 100
▁Функ 100
▁songs 100
▁texto 100
Connector 100
▁Disposition 100
▁Distribution 100
touch 100
▁Begin 100
aternion 100
▁wfile 100
емые 100
ylim 100
▁recurrent 100
rior 100
▁Flat 100
▁docstatus 100
erk 100
Chat 100
▁pidfile 100
xC 100
pagination 100
-1' 100
▁ква 100
▁capsys 100
▁door 100
TARGET 100
ровал 100
Termin 100
▁extractor 100
вьте 100
terminate 100
▁gg 100
seek 100
svn 100
▁lfn 100
parsing 100
tbl 100
▁lyr 100
▁SYSTEM 100
▁assertNo 100
robot 100
▁xform 100
▁activated 100
▁eff 100
javascript 100
Gu 100
cile 100
▁FULL 100
Requests 100
▁groupdict 100
▁AGENT 100
▁постро 100
estimators 100
▁yo 100
ведите 100
gengen 100
Hex 100
0000' 100
▁присваи 100
▁Improperly 100
▁maintenance 100
Cl 100
▁варианты 100
Pane 100
▁Monitor 100
IFIER 100
unused 100
▁firmware 100
вов 100
▁starttime 100
▁passes 100
▁homepage 100
▁unsubscribe 100
vhd 100
▁Scroll 100
Geom 100
▁sbin 100
▁компонен 100
▁методом 100
▁301 100
▁shot 100
Resolver 100
xlim 100
venio 100
▁voter 100
istra 100
▁Keys 100
▁вашего 100
▁следует 100
subdir 100
Stage 100
▁iff 100
Created 100
probability 100
:5 100
▁POINT 100
▁renamed 100
▁einsum 100
▁Forbidden 100
▁plat 100
▁triggers 100
contiguous 100
▁Bin 100
intent 100
▁pubsub 100
300 100
▁Тогда 100
iece 100
jump 100
tos 100
▁pager 100
likelihood 100
▁configfile 100
▁графи 100
▁datacenter 100
STOP 100
▁Просто 100
ico 100
▁0.95 100
▁relationships 100
▁клиен 100
anceled 100
▁фрей 100
includes 100
adm 100
Regression 100
▁QgsVectorLayer 100
stri 100
Src 100
▁Handler 100
Theme 100
▁динамически 100
VAC 100
▁приложении 100
ODY 100
▁2018 100
▁talk 100
PARAMS 100
▁lstm 100
iam 100
Skip 100
ency 100
▁поставить 100
-00 100
▁colorbar 100
▁affi 100
▁информации 100
▁trap 100
▁че 100
▁endif 100
▁колон 100
tracking 100
artment 100
central 100
▁also 100
Radio 100
▁скро 100
▁speech 100
▁tvshow 100
▁itemgetter 100
Initial 100
лет 100
▁peers 100
▁userId 100
▁FS 100
pex 100
▁CM 100
▁know 100
Bottom 100
▁формате 100
quester 100
▁bisect 100
▁fsm 100
▁IC 100
▁ITE 100
▁загружа 100
▁vd 100
undo 100
Complex 100
▁Results 100
▁OBJECT 100
▁Aggregate 100
xFFFF 100
▁fort 100
summaries 100
▁computer 100
▁CONST 100
ongs 100
prox 100
▁foot 100
▁Seq 100
▁STOCK 100
resume 100
▁Transform 100
▁reqs 100
▁9. 100
ercise 100
places 100
▁replicas 100
0123456789 100
eof 100
▁9999 100
allo 100
▁rbf 100
BIT 100
▁nop 100
▁xbmcgui 100
▁exported 100
▁браузер 100
▁Ck 100
▁SKIP 100
▁mmap 100
▁baseurl 100
HttpRequest 100
▁параметров 100
▁acceler 100
▁рекомен 100
▁dataType 100
▁эфф 100
▁09 100
▁locs 100
▁yaxis 100
Backup 100
fferent 100
har 100
Scalar 100
▁getpass 100
▁beg 100
▁gmail 100
Dirs 100
Answer 100
Family 100
▁LABEL 100
cout 100
anc 100
▁занима 100
▁sockets 100
▁outstr 100
readonly 100
нять 100
.11 100
▁overview 100
▁recorder 100
▁codename 100
▁введ 100
▁dicts 100
verified 100
pressed 100
CTOR 100
SW 100
World 100
inspect 100
▁58 100
▁Selection 100
▁RES 100
AF 100
▁tower 100
imuth 100
▁<!-- 100
▁подключа 100
deserializer 100
Confi 100
Predi 100
Permissions 100
▁imap 100
▁жела 100
▁клиента 100
▁Deleting 100
False 100
logical 100
▁uninstall 100
GP 100
TimeSeries 100
▁discriminator 100
▁xenapi 100
▁typecode 100
Break 100
▁moved 100
ny 100
▁autospec 100
▁требуется 100
▁bre 100
umption 100
▁affine 100
▁доступа 100
▁TV 100
ARCHAR 100
moment 100
▁darwin 100
tpl 100
▁nos 100
rescue 100
▁lro 100
AGENT 100
Phase 100
▁flows 100
▁tlist 100
IOS 100
▁реализова 100
▁отсут 100
▁INSTANCE 100
▁вызывается 100
eep 100
scaler 100
indexed 100
▁fabric 100
ycler 100
iface 100
тери 100
▁cool 100
vendor 100
▁bands 100
▁сесси 100
wc 100
бой 100
blog 100
Sound 100
▁IntegrityError 100
webkit 100
▁Patch 100
equ 100
чной 100
▁poss 100
▁Abort 100
ttl 100
localhost 100
outline 100
▁INITIAL 100
SHOT 100
mqtt 100
▁dropna 100
KEYS 100
▁CAS 100
polygon 100
▁Shell 100
graphs 100
▁Redis 100
▁ending 100
▁orange 100
▁isclose 100
▁Msg 100
▁bay 100
▁Unique 100
▁Complex 100
▁Il 100
ador 100
▁Ubuntu 100
External 100
▁libc 100
Cost 100
▁recs 100
▁Master 100
frac 100
Shift 100
нова 100
heat 100
▁gol 100
▁rmdir 100
▁Boot 100
▁datafile 100
ADMIN 100
▁Cursor 100
IFT 100
▁вет 100
▁'0.0.0 100
▁Tr 100
▁delayed 100
▁4.5 100
▁выглядеть 100
▁AnsibleError 100
GINE 100
below 100
USTER 100
тика 100
▁HH 100
ceivers 100
▁Работа 100
▁перено 100
▁suspend 100
▁grace 100
▁ensemble 100
Disabled 100
▁launcher 100
aby 100
▁authority 100
мые 100
▁пишу 100
▁повтор 100
местить 100
▁performance 100
both 100
▁--> 100
BL 100
Secret 100
MessageBegin 100
WARE 100
osome 100
ходить 100
▁быст 100
▁modification 100
▁Rew 100
▁alle 100
▁apiclient 100
▁какую 100
▁nbytes 100
▁imperson 100
INE 100
▁prot 100
▁MODEL 100
vergence 100
▁navigation 100
▁corp 100
▁192.168 100
ами 100
rance 100
▁конструктор 100
▁adc 100
▁naming 100
coeffs 100
▁documentation 100
▁voltage 100
tolerance 100
▁ROUT 100
▁rates 100
Defined 100
▁запросов 100
▁transformation 100
▁0.0001 100
вляются 100
▁родитель 100
нер 100
▁buffers 100
гна 100
azard 100
scii 100
COVER 100
▁retrieved 100
▁longer 100
PLY 100
patches 100
▁addrs 100
webhook 100
▁CMS 100
▁fed 100
portion 100
▁hb 100
▁cctxt 100
▁fuzzy 100
▁supplied 100
orry 100
▁dnf 100
▁quest 100
▁langs 100
гура 100
▁Lambda 100
riting 100
▁папки 100
▁Members 100
▁getUser 100
NotModifiedError 100
Specs 100
▁evoked 100
Relative 100
▁toplevel 100
_01 100
▁Mob 100
orded 100
▁Condition 100
seqs 100
▁stacks 100
cum 100
watcher 100
▁OverflowError 100
▁$(" 100
▁tuples 100
▁AU 100
▁Вариан 100
▁неболь 100
irrored 100
▁ragged 100
igs 100
pell 100
▁setFont 100
atum 100
▁ipam 100
▁NET 100
▁tif 100
▁получения 100
LECTION 100
dicators 100
▁gds 100
greater 100
▁chunked 100
▁MISSING 100
confirmation 100
vdi 100
▁mobj 100
▁sweep 100
dirname 100
▁Па 100
RATE 100
пок 100
▁signatures 100
maph 100
▁Пос 100
▁assertRegex 100
▁Rate 100
▁respond 100
▁RH 100
▁theclass 100
="{ 100
jid 100
starts 100
▁RED 100
▁slim 100
▁размера 100
MainWindow 100
UNC 100
▁помог 100
toolbar 100
▁Equals 100
▁compact 100
▁GraphKeys 100
▁SOL 100
plural 100
ita 100
passes 100
▁ordinal 100
▁Ctrl 100
Amount 100
▁highest 100
Arn 100
night 100
ENSOR 100
▁warns 100
▁residue 100
rientation 100
▁Live 100
queues 100
ugate 100
чется 100
▁жи 100
heading 100
▁Tkinter 100
▁srcdir 100
▁miss 100
▁hess 100
FOLDER 100
▁Experiment 100
▁shows 100
▁checking 100
while 100
▁Subscription 100
olate 100
OPTIONS 100
▁placeholders 100
ксе 100
mpify 100
▁Scale 100
fuzz 100
▁сли 100
▁'2014 100
▁early 100
▁psycopg 100
▁8. 100
▁другую 100
▁аналоги 100
SECRET 100
▁throttle 100
▁благодарен 100
▁uniq 100
▁vr 100
▁GLib 100
▁celery 100
▁diagonal 100
▁5, 100
cloudflare 100
лять 100
▁mit 100
reserve 100
▁identify 100
▁applications 100
▁pca 100
avatar 100
▁oozie 100
▁supply 100
▁preference 100
▁Sending 100
▁lamb 100
уго 100
mended 100
▁switches 100
▁2009 100
▁infra 100
POLICY 100
Mi 100
▁Area 100
▁vers 100
▁provides 100
▁reviews 100
LISH 100
2> 100
bib 100
▁minions 100
sockopt 100
▁символа 100
док 100
▁brain 100
▁symmetric 100
uling 100
▁Floating 100
▁detection 100
:10 100
▁взять 100
composition 100
▁dil 100
▁dpid 100
▁damage 100
▁Endpoint 100
ica 100
▁findAll 100
▁correlation 100
▁95 100
Stamp 100
Colors 100
Repe 100
▁rq 100
▁редакти 100
Analysis 100
▁производи 100
yr 100
▁HD 100
▁видно 100
▁kafka 100
ety 100
opener 100
Named 100
▁assembly 100
▁bookmarks 100
▁.4 100
spring 100
EXIST 100
▁Transport 100
▁виртуа 100
▁Validate 100
otype 100
▁Something 100
▁чём 100
▁failIf 100
ENDPOINT 100
AsyncClient 100
▁ICON 100
▁pvalue 100
inters 100
▁поменять 100
▁orphan 100
▁настроить 100
▁contig 100
▁PLUGIN 100
Git 100
movie 100
▁codigo 100
падает 100
▁svm 100
latex 100
▁english 100
Lost 100
▁IDE 100
▁seriesList 100
▁kl 100
▁стили 100
▁prox 100
Extent 100
▁ratings 100
▁createElement 100
stores 100
▁countries 100
TURN 100
Pages 100
▁testserver 100
▁ak 100
▁imgs 100
1_1 100
criteria 100
Pipeline 100
Audio 100
▁getD 100
▁PB 100
▁запросе 100
▁executed 100
Partial 100
▁глоба 100
CURRENT 100
▁xdata 100
anda 100
▁PUBLIC 100
▁clipboard 100
▁argd 100
8, 100
▁readMessageEnd 100
▁слож 100
▁Audio 100
▁\0' 100
cers 100
▁fro 100
▁заполн 100
▁IPAddress 100
Spacing 100
▁mailbox 100
▁had 100
▁нужный 100
1: 100
▁je 100
▁дополнитель 100
printer 100
Room 100
шить 100
▁Обра 100
▁шаблон 100
▁messaging 100
sto 100
▁вали 100
ived 100
athon 100
combine 100
▁argmin 100
race 100
▁pathsep 100
▁mpf 100
ходят 100
ручную 100
▁измени 100
▁lxml 100
ENDING 100
▁подроб 100
тие 100
▁hyp 100
▁cisco 100
keyboard 100
ilkat 100
▁BEGIN 100
FL 100
▁succeed 100
▁вижу 100
attempt 100
▁enough 100
▁привед 100
bp 100
▁SVG 100
▁\1 100
▁wor 100
▁permutation 100
▁pyfunc 100
▁результате 100
tempdir 100
▁playing 100
▁'1234' 100
▁loglevel 100
▁saml 100
▁osc 100
▁fecha 100
MenuItem 100
▁сте 100
esome 100
Bl 100
amble 100
рав 100
▁MOD 100
Sys 100
▁gca 100
▁Sensor 100
▁later 100
FROM 100
Decoder 100
▁EXPECTED 100
▁Distributed 100
▁When 100
▁scoring 100
▁chip 100
▁erase 100
velocity 100
▁reconnect 100
snippet 100
▁underline 100
▁ROW 100
▁hor 100
▁mins 100
▁nice 100
▁оптими 100
▁regression 100
▁самого 100
▁Где 100
▁altitude 100
imed 100
▁нужны 100
▁tagname 100
дума 100
▁Pol 100
▁slugify 100
▁Translation 100
▁lcd 100
▁PAGE 100
▁timestep 100
backends 100
EXTENSION 100
▁addParameter 100
ctures 100
▁hybrid 100
▁findtext 100
LOCAL 100
pal 100
arbage 100
Collector 100
▁unsafe 100
baseline 100
▁thickness 100
▁padx 100
▁списке 100
lief 100
▁VS 100
▁away 100
▁albums 100
▁дата 100
ester 100
tel 100
▁React 100
ValidationError 100
ple 100
etter 100
▁Ma 100
▁Shared 100
▁tarball 100
▁Объ 100
▁2020 100
▁meeting 100
▁orb 100
▁kappa 100
Neighb 100
▁Nested 100
LOCATION 100
▁кажется 100
fish 100
▁lvl 100
▁пишет 100
authorization 100
lexa 100
chilkat 100
▁gst 100
▁постоя 100
cdnjs 100
▁cop 100
▁testval 100
INGLE 100
Inputs 100
▁gobject 100
SIG 100
▁TW 100
▁GemRB 100
nik 100
claim 100
discu 100
GA 100
▁dolor 100
canonical 100
RESOURCE 100
minimum 100
male 100
▁OPTION 100
▁expense 100
BUFFER 100
warded 100
▁модуль 100
▁jenkins 100
чку 100
▁doi 100
▁Вас 100
packets 100
expanded 100
▁ugettext 100
▁Instrument 100
384 100
stored 100
Constants 100
Frames 100
▁restype 100
▁отдельный 100
Old 100
lings 100
More 100
Assignment 100
▁getP 100
курси 100
▁money 100
пря 100
▁Sort 100
SUPPORT 100
▁Результат 100
синхро 100
▁AutoField 100
lize 100
▁toks 100
ingerprint 100
▁'11 100
▁синта 100
▁команд 100
▁некоторые 100
Variant 100
identifiers 100
▁similarity 100
бро 100
▁Pr 100
ligh 100
▁centroid 100
▁вставить 100
centration 100
▁lev 100
▁suffixes 100
цен 100
▁jp 100
Until 100
ELL 100
▁QgsProcessing 100
except 100
▁Short 100
lscreen 100
▁SecurityGroup 100
▁пово 100
▁(' 100
occur 100
discount 100
_7 100
▁parm 100
лок 100
utive 100
Transfer 100
▁tablet 100
▁terminated 100
IMP 100
emb 100
▁itr 100
Clock 100
inp 100
vfs 100
OVER 100
hance 100
WINDOW 100
icons 100
▁shut 100
▁PyQt 100
пазо 100
▁nit 100
▁relativedelta 100
▁900 100
▁attribs 100
idxs 100
▁dyn 100
▁cairo 100
▁plots 100
▁ccx 100
▁Subnet 100
▁clazz 100
overwrite 100
▁hdrs 100
olete 100
▁Maximum 100
backing 100
▁Machine 100
▁evaluator 100
▁statistic 100
▁Loose 100
ALLED 100
directed 100
well 100
take 100
▁QSizePolicy 100
▁бота 100
rar 100
▁surrogate 100
▁1500 100
мень 100
ressor 100
lications 100
declaration 100
ятся 100
▁hero 100
abe 100
Both 100
BRARY 100
▁действия 100
▁declaration 100
MOD 100
▁usages 100
▁subsection 100
▁использовании 100
▁pu 100
▁bigquery 100
Under 100
▁isabs 100
▁idxs 100
▁maxiter 100
Slider 100
matrices 100
▁Допустим 100
▁4" 100
transpose 100
кольку 100
▁ifname 100
▁prices 100
▁Items 100
4. 100
dash 100
▁registers 100
paid 100
Tokens 100
▁estimated 100
пад 100
▁98 100
▁staging 100
▁vh 100
▁makepyfile 100
▁[0 100
▁themes 100
[1] 100
vention 100
▁сравни 100
uplicated 100
▁999999 100
▁ARCH 100
▁ки 100
▁Буду 100
within 100
▁знает 100
ClassName 100
expiration 100
▁присво 100
▁преобразо 100
▁unk 100
▁spice 100
characters 100
▁didn 100
▁86400 100
▁времен 100
Existing 100
▁skeleton 100
▁viewport 100
vour 100
design 100
catch 100
▁fonts 100
ketch 100
▁Hyper 100
▁dynam 100
notebook 100
▁embeddings 100
bt 100
▁CTx 100
ynchron 100
▁reflect 100
discussion 100
▁|| 100
Animation 100
▁avId 100
▁Material 100
DT 100
▁меняется 100
MENU 100
▁sio 100
ampling 100
Share 100
▁getlist 100
▁Der 100
encrypt 100
▁настройки 100
▁hasContent 100
▁amt 100
tected 100
▁GT 100
▁160 100
Team 100
▁PLAY 100
regist 100
▁скорее 100
Mis 100
urly 100
quivo 100
▁termination 100
USED 100
heap 100
▁jvm 100
getstate 100
▁getroot 100
dvr 100
isions 100
oclient 100
▁splitted 100
▁создании 100
хва 100
▁MPI 100
▁Vert 100
▁scsi 100
▁Relation 100
▁запускается 100
▁httpd 100
▁rdata 100
▁использование 100
чика 100
resid 100
▁pady 100
detector 100
▁composer 100
▁хотелось 100
▁openerp 100
▁inferred 100
▁association 100
▁Sys 100
roi 100
етесь 100
▁Contin 100
atomic 100
▁README 100
▁Ability 100
▁Analy 100
▁simplejson 100
станов 100
relate 100
▁HTTPS 100
▁Enc 100
texts 100
▁pixmap 100
'), 100
Actor 100
▁SB 100
▁kp 100
look 100
▁помогите 100
▁Пред 100
Viewer 100
▁LOCK 100
Priority 100
▁проверять 100
▁replacements 100
▁SG 100
▁компонент 100
AGER 100
▁принимает 100
▁нескольких 100
ENABLED 100
020 100
▁sdf 100
refcount 100
▁receipt 100
species 100
▁developer 100
▁liste 100
▁verifier 100
FAIL 100
Revision 100
мую 100
▁uuidutils 100
▁updating 100
▁outf 100
FERENCE 100
▁setData 100
readcr 100
дви 100
ZONE 100
▁"/ 100
▁Кон 100
86_64 100
gebra 100
maphore 100
▁associate 100
xr 100
GO 100
▁crawler 100
beros 100
▁SAME 100
▁Measure 100
▁surname 100
тый 100
▁700 100
▁Использую 100
Subscription 100
Cols 100
▁активити 100
▁returning 100
compression 100
']; 100
▁rack 100
▁челове 100
йдет 100
▁elf 100
ISHED 100
formula 100
▁similar 100
▁LooseVersion 100
▁incomplete 100
Aggreg 100
чного 100
Separator 100
▁regularizer 100
nthe 100
▁viz 100
Parts 100
▁replaced 100
▁240 100
▁имеется 100
▁funcname 100
spect 100
▁какая 100
Generate 100
Sources 100
▁alphas 100
▁coding 100
16" 100
DAY 100
_00 100
replay 100
implement 100
▁currentText 100
▁пустой 100
▁любы 100
STER 100
▁bracket 100
▁секун 100
ilover 100
▁pydev 100
▁TRAIN 100
▁oh 100
ceeded 100
vity 100
lator 100
▁'2012 100
▁125 100
▁hasher 100
popen 100
▁omit 100
▁race 100
▁Flavor 100
▁Logging 100
caches 100
запрос 100
▁distutils 100
corpus 100
▁poller 100
▁autocomplete 100
Sto 100
joined 100
▁readString 100
▁toarray 100
▁Integral 100
etag 100
▁2006 100
▁ACT 100
▁blend 100
ORIZONT 100
sthrough 100
mods 100
гружа 100
▁окру 100
untered 100
▁tode 100
ORIZONTAL 100
▁InfoBar 100
▁порядке 100
demo 100
Kernel 100
INSTANCE 100
▁методов 100
▁elevation 100
Story 100
iring 100
chanism 100
▁успеш 100
▁видимо 100
rained 100
▁etype 100
ida 100
unix 100
▁conc 100
▁65535 100
▁them 100
▁существую 100
▁addChild 100
ARGS 100
highlight 100
▁Зна 100
▁trailing 100
▁kvm 100
jit 100
leaves 100
standing 100
▁внимание 100
▁enterprise 100
ya 100
Cfg 100
▁Gate 100
▁fails 100
▁History 100
▁Estimator 100
widths 100
▁bag 100
▁размет 100
misc 100
SUM 100
▁выходе 100
▁GMT 100
equality 100
льном 100
'], 100
▁uptime 100
▁0000 100
▁arctan 100
Playing 100
▁вручную 100
paragraph 100
▁Finished 100
micro 100
▁stale 100
▁sampled 100
pkt 100
▁envelope 100
▁паке 100
skill 100
▁CUSTOM 100
▁recommend 100
_3_ 100
asis 100
revert 100
Mean 100
нная 100
isson 100
▁Gaussian 100
?? 100
▁cog 100
▁Mult 100
behavior 100
trial 100
▁utxo 100
aurant 100
▁servo 100
physical 100
EAR 100
kwarg 100
Capture 100
▁Notify 100
▁Си 100
▁tst 100
▁самый 100
assignments 100
1</ 100
Steps 100
▁Updated 100
▁Тут 100
ступ 100
▁InvalidInput 100
▁descriptions 100
▁pytester 100
▁TestSuite 100
Expi 100
▁rab 100
_12 100
▁tim 100
▁уча 100
gather 100
▁uk 100
counters 100
inactive 100
expressions 100
▁setIcon 100
MPLE 100
▁Fit 100
VATE 100
▁шриф 100
▁Radio 100
_201 100
▁sendMessage 100
hesis 100
allocated 100
▁exts 100
acterist 100
▁57 100
▁QT 100
▁Trying 100
▁referenced 100
▁выходит 100
pip 100
▁loan 100
▁Полу 100
duction 100
▁выражения 100
▁UserWarning 100
▁nil 100
▁fabs 100
▁[1 100
▁Flags 100
мотрите 100
▁слай 100
▁tape 100
▁условия 100
▁TProtocol 100
▁factorial 100
▁RuntimeWarning 100
6666 100
▁Scene 100
▁night 100
▁MEM 100
▁jack 100
▁исключение 100
▁тран 100
▁regs 100
▁sibling 100
extmethods 100
▁Собственно 100
▁eof 100
against 100
rat 100
▁}} 100
ENV 100
▁crt 100
▁мини 100
▁argtypes 100
sympy 100
▁TRANS 100
▁PC 100
▁chroot 100
▁assertValid 100
what 100
SOCKET 100
Im 100
}} 100
▁чет 100
spatial 100
▁SDK 100
TERNAL 100
▁Mozilla 100
▁mission 100
▁предо 100
IDS 100
atty 100
▁seqid 100
▁expose 100
▁excutils 100
▁RequestFactory 100
▁дере 100
▁cascade 100
Oc 100
LANG 100
▁нажи 100
▁REF 100
▁tpu 100
▁rdfvalue 100
▁utilities 100
▁попробовать 100
▁COMPLETE 100
pkgs 100
возможно 100
шим 100
king 100
scoped 100
▁opp 100
▁byteorder 100
cko 100
▁ksize 100
Creation 100
graded 100
Private 100
prof 100
sprite 100
Replace 100
URATION 100
▁ik 100
reachable 100
▁soap 100
▁Trigger 100
▁trusted 100
GTH 100
▁открыть 100
tooltip 100
Tile 100
▁прав 100
OUR 100
Ca 100
:01 100
ском 100
▁нему 100
▁всю 100
vmops 100
APSHOT 100
▁rooms 100
▁winfo 100
▁какое 100
сте 100
cuda 100
piece 100
gorithms 100
▁unwrap 100
▁недо 100
▁marshal 100
11' 100
preferences 100
▁диапазо 100
▁immediate 100
MENTS 100
▁INNER 100
▁кодом 100
livery 100
нес 100
losing 100
▁ironic 100
WidgetItem 100
▁osm 100
CURITY 100
implicit 100
RS 100
Ve 100
▁smb 100
alph 100
fasta 100
▁ancestors 100
Proc 100
TASK 100
▁med 100
▁нее 100
itulo 100
▁подключить 100
gm 100
tap 100
▁systems 100
wit 100
Compiler 100
▁behavior 100
ArgumentError 100
▁ENO 100
лении 100
▁winner 100
▁зака 100
keeper 100
▁pprint 100
blk 100
▁Launch 100
▁gmtime 100
tentions 100
▁Identifier 100
FRAME 100
cendant 100
Implementation 100
нения 100
locate 100
▁приходит 100
▁Canvas 100
overview 100
▁ival 100
▁assignments 100
▁sftp 100
▁Dashboard 100
▁Dump 100
subtype 100
tection 100
▁ItemFactory 100
Started 100
▁excludes 100
▁courseware 100
LING 100
▁tit 100
SUFFIX 100
luding 100
commits 100
UNIT 100
▁activities 100
▁вызове 100
▁Copyright 100
UTION 100
естно 100
▁baud 100
▁ima 100
▁картинка 100
ген 100
▁inherited 100
timestamps 100
▁Branch 100
▁clauses 100
▁67 100
▁epi 100
veloper 100
Deferred 100
ghi 100
vip 100
votes 100
▁одним 100
nam 100
oload 100
Manifest 100
▁слов 100
На 100
▁Price 100
Alt 100
Embed 100
▁Values 100
5. 100
▁oai 100
▁находя 100
Other 100
▁вызывать 100
SIBLE 100
merged 100
▁Revision 100
▁fromkeys 100
Components 100
clidean 100
CADE 100
▁intel 100
▁Distance 100
пла 100
▁TLS 100
▁rece 100
tablename 100
▁nodeType 100
Slices 100
▁сама 100
▁скоро 100
▁DS 100
нием 100
▁"4" 100
сор 100
▁PT 100
▁сек 100
▁[" 100
Wdg 100
▁bouquet 100
▁вернуть 100
▁vac 100
▁Unity 100
рен 100
birth 100
▁поме 100
WAIT 100
▁системы 100
Inline 100
▁Params 100
▁debian 100
caling 100
CONTROL 100
▁SQ 100
TRANS 100
Stretch 100
▁getObject 100
▁QPa 100
▁fos 100
▁bogus 100
▁excel 100
itations 100
fromUtf 100
▁написано 100
▁LOAD 100
▁мет 100
▁Этот 100
▁'1234 100
▁requester 100
quoted 100
▁sensitive 100
gi 100
SEARCH 100
▁demisto 100
encrypted 100
ponder 100
▁LOGIN 100
▁devs 100
▁coo 100
▁пароль 100
▁inserted 100
▁loops 100
▁procedure 100
6, 100
▁npm 100
▁LIKE 100
▁QgsPoint 100
▁basicConfig 100
▁moz 100
▁VARCHAR 100
▁reported 100
▁получится 100
▁noop 100
▁overall 100
-13 100
▁qp 100
inplace 100
▁personal 100
▁3.2 100
:02 100
мым 100
▁urwid 100
▁ctime 100
▁bugs 100
▁webnotes 100
tainty 100
▁passive 100
▁2019 100
hdf 100
▁nobs 100
▁impact 100
Movie 100
▁hid 100
locks 100
▁Don 100
▁QObject 100
ague 100
▁sanit 100
chk 100
▁district 100
2: 100
MULT 100
Soft 100
orator 100
▁scaffold 100
▁pure 100
▁sendall 100
▁playback 100
xblock 100
ENC 100
fici 100
▁quotes 100
▁проекте 100
▁graphs 100
Subset 100
▁drivers 100
▁linestyle 100
▁mixer 100
рованный 100
▁rolling 100
emy 100
▁xa 100
commended 100
▁closure 100
mil 100
grader 100
together 100
Train 100
▁appear 100
▁completions 100
▁PG 100
lam 100
руем 100
▁собира 100
700 100
osv 100
expiry 100
▁часто 100
processors 100
nom 100
▁pretend 100
Conversion 100
▁Den 100
ridden 100
▁QText 100
LV 100
see 100
▁"200 100
Called 100
reject 100
Polling 100
attachments 100
metic 100
smooth 100
▁SU 100
▁vfs 100
cmdline 100
99' 100
human 100
lifi 100
▁Deleted 100
▁programs 100
Filters 100
bandwidth 100
▁UInt 100
04' 100
кро 100
▁GObject 100
bul 100
▁glu 100
▁EXEC 100
Exc 100
uts 100
▁FLAG 100
ITCH 100
TRAN 100
▁связ 100
▁Stats 100
enrolled 100
▁ox 100
▁runpytest 100
▁мене 100
▁monitors 100
Plane 100
▁consec 100
Uni 100
identify 100
-01' 100
▁BAR 100
▁VolumeBackend 100
Rank 100
igen 100
▁ipsec 100
secondary 100
▁Bob 100
▁scen 100
▁отклю 100
offering 100
▁суток 100
setter 100
orientation 100
▁caching 100
▁совет 100
▁явно 100
glyph 100
▁"6 100
▁wo 100
Opts 100
▁moose 100
▁readFieldBegin 100
vms 100
▁setSize 100
▁зачем 100
▁Traceback 100
80' 100
Shader 100
racle 100
Destination 100
▁123456 100
xF 100
стру 100
▁boundaries 100
▁readStructBegin 100
▁Вс 100
▁readStructEnd 100
▁readFieldEnd 100
▁цент 100
▁EXCEPTION 100
Self 100
▁trove 100
Publish 100
branches 100
▁CReadable 100
crit 100
desk 100
лите 100
▁sto 100
▁Vist 100
extras 100
Extensions 100
▁slic 100
Cent 100
ipro 100
▁resol 100
▁profiler 100
▁copyright 100
echo 100
▁'2015 100
▁tight 100
Lexer 100
▁getint 100
ERO 100
ятно 100
фа 100
▁rowcount 100
▁IDL 100
privile 100
▁trajectory 100
eto 100
▁PM 100
▁Available 100
ruit 100
▁вашей 100
▁Building 100
▁isfinite 100
▁zap 100
scanner 100
markers 100
Connections 100
uptools 100
AVAILABLE 100
▁'6' 100
▁vserver 100
▁RDF 100
▁kern 100
▁ключа 100
▁paralle 100
1000 100
▁virtualenv 100
▁Off 100
▁saving 100
▁Мето 100
Channels 100
▁changelog 100
ographic 100
Lat 100
▁IR 100
Accept 100
▁FALSE 100
osed 100
setstate 100
Hy 100
EDIT 100
csrf 100
cod 100
▁Div 100
▁libxml 100
▁MULTILINE 100
quirement 100
▁mor 100
▁столбца 100
▁buildChildren 100
▁Catalog 100
▁declared 100
▁gpio 100
Final 100
▁institution 100
▁COLUMN 100
▁fu 100
▁Execution 100
PARAM 100
overlay 100
▁PENDING 100
▁chown 100
llation 100
ometric 100
▁numerator 100
▁setD 100
▁Already 100
Associ 100
▁форме 100
▁microseconds 100
▁bytecode 100
expire 100
Archive 100
▁gauss 100
▁версия 100
fut 100
IFIED 100
▁PLATFORM 100
▁средства 100
▁fst 100
PROTOCOL 100
leet 100
▁orbit 100
▁redraw 100
jvm 100
▁Mesh 100
▁getChild 100
▁зано 100
▁BL 100
▁oracle 100
ages 100
▁carrier 100
▁LookupError 100
▁переме 100
▁SETTINGS 100
▁DBSession 100
usec 100
▁Temporary 100
orrent 100
pane 100
▁pal 100
▁buildAttributes 100
ddy 100
▁456 100
▁RSA 100
▁csvfile 100
▁takes 100
▁openssl 100
▁frequencies 100
Logs 100
▁aioclient 100
333 100
STORE 100
11111111 100
requirement 100
ubar 100
▁TER 100
▁LENGTH 100
▁orderby 100
▁QgsGeometry 100
34" 100
▁owned 100
▁blink 100
▁assertCount 100
▁risk 100
ette 100
▁elb 100
▁вст 100
▁QLineEdit 100
▁Hi 100
▁Space 100
1.0 100
sizer 100
VARIABLE 100
▁employ 100
unctuation 100
▁checkequal 100
▁версию 100
▁Pattern 100
▁Здесь 100
▁Limit 100
▁pkgname 100
▁Axis 100
▁UDP 100
▁Sheet 100
▁BUTTON 100
gpus 100
Blocks 100
▁May 100
bracket 100
softmax 100
CALL 100
AINER 100
▁60.0 100
▁обработчик 100
notype 100
▁ethertype 100
▁jav 100
▁omero 100
Numbers 100
Tick 100
▁иначе 100
▁Annotation 100
merce 100
▁пара 100
▁inbound 100
▁forget 100
▁Scheduler 100
UTES 100
xxxx 100
▁товара 100
▁dna 100
▁скоб 100
▁battle 100
▁получать 100
▁STREAM 100
▁dropped 100
коне 100
▁nth 100
ides 100
▁qualified 100
creasing 100
ExecutionError 100
pwd 100
▁rfile 100
▁rtype 100
abstract 100
▁нажатия 100
ssa 100
▁[] 100
Force 100
▁ssid 100
qr 100
▁classify 100
formance 100
▁latency 100
ставляет 100
▁peaks 100
▁egress 100
▁dum 100
▁cycles 100
▁минима 100
новремен 100
▁csc 100
▁rhn 100
BAR 100
▁Sql 100
▁tsv 100
▁Scalar 100
▁QPoint 100
CG 100
presence 100
jd 100
playing 100
▁SF 100
VALUES 100
neighbor 100
▁192 100
▁SEEK 100
▁speak 100
OGLE 100
▁квадра 100
▁Ви 100
mv 100
broker 100
▁alerts 100
▁верх 100
Vm 100
▁skew 100
▁setInput 100
Support 100
010 100
▁102 100
SECTION 100
inge 100
▁widths 100
▁colormap 100
▁Ст 100
▁Light 100
▁datal 100
▁втором 100
▁treat 100
computed 100
▁повторя 100
RequestError 100
▁setStyle 100
CLE 100
Low 100
▁компилятор 100
▁leading 100
▁kubernetes 100
▁mine 100
PART 100
▁разби 100
куда 100
▁svd 100
▁ujson 100
/0 100
▁Smart 100
▁Функция 100
▁skipna 100
transformer 100
▁форми 100
мно 100
teams 100
acency 100
▁5.5 100
▁224 100
▁прокру 100
production 100
Sym 100
▁downloader 100
▁configparser 100
лировать 100
ICES 100
usable 100
вольно 100
сно 100
Question 100
dere 100
▁LAST 100
imensions 100
▁exporter 100
typ 100
choose 100
▁accumulator 100
fits 100
▁reps 100
▁StreamHandler 100
▁CUD 100
▁Day 100
ramid 100
тором 100
assessment 100
idf 100
yield 100
ipedia 100
▁chess 100
▁osf 100
alter 100
▁62 100
▁fade 100
wildcard 100
▁PATCH 100
▁inbox 100
ListView 100
▁обла 100
yms 100
▁MC 100
▁taken 100
startup 100
Suffix 100
▁autocommit 100
▁og 100
рачи 100
Hello 100
▁Flask 100
▁%} 100
стью 100
_400_ 100
rival 100
ASET 100
▁five 100
SYNC 100
▁выле 100
▁Env 100
▁aes 100
Annot 100
pitch 100
▁spo 100
▁2005 100
▁derivative 100
vable 100
▁добавил 100
▁setColor 100
▁подходит 100
▁iid 100
▁gyp 100
▁defines 100
▁namedtuple 100
▁um 100
Mul 100
uds 100
/4 100
▁rname 100
▁Timedelta 100
768 100
MATCH 100
▁ENOENT 100
▁продол 100
▁fre 100
▁кри 100
▁Conn 100
odo 100
middle 100
▁iters 100
▁координаты 100
traj 100
▁Yedit 100
▁award 100
▁getblock 100
▁CopyFrom 100
нде 100
nets 100
oting 100
▁друга 100
▁colname 100
▁fitness 100
▁animal 100
olved 100
▁3.14 100
▁Types 100
▁максимально 100
iko 100
▁mtu 100
▁snd 100
▁Сам 100
senger 100
Jar 100
bond 100
▁озна 100
▁нужные 100
▁argspec 100
▁buildbot 100
lider 100
Resize 100
бут 100
▁categ 100
▁tname 100
▁exactly 100
inference 100
cts 100
▁ue 100
▁stress 100
▁Events 100
▁REQ 100
▁blo 100
▁why 100
ListEntry 100
▁Disable 100
▁rowCount 100
caption 100
▁rabbit 100
▁textarea 100
▁{' 100
weak 100
50" 100
lipsis 100
arable 100
sudo 100
checkout 100
шая 100
mobile 100
_9 100
▁derive 100
▁байт 100
NESS 100
▁WIN 100
торов 100
▁Press 100
Than 100
quick 100
▁создал 100
▁keyname 100
▁Final 100
▁ArrayList 100
vari 100
Printer 100
▁submissions 100
▁rtn 100
▁отри 100
▁sle 100
▁impersonation 100
XXXXXXXXXXXXXXXX 100
▁Getting 100
▁coroutine 100
▁расс 100
▁gevent 100
▁генера 100
spot 100
▁пар 100
enqueue 100
ждения 100
▁Analysis 100
▁2.3 100
▁Abs 100
▁ema 100
wheel 100
▁Diff 100
▁trend 100
.* 100
▁bv 100
tries 100
etc 100
▁Делаю 100
oop 100
▁mysq 100
▁собра 100
das 100
▁ведь 100
▁Added 100
▁делается 100
▁Destination 100
▁Ц 100
344 100
▁редак 100
▁adjusted 100
▁TestModel 100
▁setsockopt 100
iph 100
Counts 100
Constraints 100
▁ConfigEntry 100
▁поможет 100
▁deposit 100
▁qi 100
▁Alert 100
▁buttonBox 100
Present 100
scheduled 100
ROUND 100
▁ADDR 100
▁просты 100
▁анг 100
fm 100
▁вклад 100
UNKNOWN 100
▁planet 100
outing 100
▁summarize 100
▁legal 100
▁setupUi 100
completer 100
емых 100
▁coro 100
▁смог 100
▁cassandra 100
▁pathlib 100
="0 100
▁polys 100
▁strength 100
▁ew 100
делать 100
../ 100
QUERY 100
▁fresh 100
▁II 100
▁srt 100
▁считы 100
▁stacked 100
▁сторону 100
уголь 100
▁purpose 100
hm 100
▁far 100
spectrum 100
transforms 100
opened 100
▁Бо 100
▁ki 100
▁Ticket 100
▁bottle 100
▁typedef 100
▁рекурси 100
▁disambig 100
▁76 100
▁relevant 100
ley 100
usages 100
▁composition 100
▁Many 100
▁vhost 100
▁регистра 100
Keyboard 100
▁ori 100
letes 100
▁POWER 100
▁имею 100
TITLE 100
▁xlsx 100
▁autop 100
▁Gu 100
▁QRect 100
returned 100
▁Owner 100
▁заключается 100
Mag 100
door 100
prun 100
▁Std 100
▁pymongo 100
Foo 100
▁говоря 100
▁shortname 100
▁Eq 100
▁Вто 100
▁Уда 100
▁Надо 100
▁QVariant 100
▁результата 100
REQ 100
▁цело 100
Models 100
wk 100
▁TMP 100
▁QString 100
▁nbr 100
▁controllers 100
Dock 100
▁104 100
▁DateTimeField 100
▁экземпля 100
ATIVE 100
▁subscribed 100
nother 100
Primitive 100
Border 100
▁flattened 100
▁multiline 100
▁Constraint 100
▁returnValue 100
aas 100
,0 100
▁{} 100
▁photos 100
лил 100
▁zfill 100
▁correctly 100
▁грани 100
trailing 100
mpool 100
▁artists 100
▁setItem 100
▁BlockDevice 100
▁attendee 100
CHANNEL 100
▁penalty 100
sector 100
▁scaler 100
cmap 100
▁redd 100
▁ciphertext 100
▁made 100
ату 100
Pipe 100
objective 100
ксис 100
▁exitcode 100
Tr 100
10" 100
Pin 100
▁lx 100
▁scp 100
сылка 100
▁getSetting 100
docstring 100
▁xhtml 100
attached 100
▁компиляции 100
:59 100
▁Пишу 100
▁Blob 100
PARATOR 100
procs 100
▁умень 100
0101 100
▁помочь 100
Observer 100
▁certfile 100
▁interrupt 100
sampling 100
▁внутрен 100
▁Aff 100
▁LL 100
tiles 100
▁climate 100
▁playbook 100
▁forbidden 100
lte 100
▁locales 100
▁тесто 100
мум 100
Primary 100
▁duplicates 100
▁getmtime 100
igi 100
▁sport 100
MF 100
▁SEARCH 100
ButtonBox 100
STYLE 100
▁асинхро 100
▁405 100
▁сущ 100
▁thin 100
▁internet 100
roids 100
▁новую 100
Dependencies 100
PUBLIC 100
▁Camera 100
undefined 100
phot 100
▁typed 100
Added 100
▁Describe 100
Multip 100
▁namelist 100
▁sname 100
▁islink 100
шей 100
Matching 100
Episode 100
▁сути 100
makeOne 100
▁fragments 100
rex 100
▁normalization 100
▁rsync 100
▁classpath 100
▁ios 100
▁Intel 100
▁cval 100
▁mutate 100
[...]
