<unk>	0
<s>	0
</s>	0
NE	-0
LI	-1
LINE	-2
NEW	-3
▁NEW	-4
▁.	-5
DE	-6
▁(	-7
▁)	-8
se	-9
▁,	-10
NT	-11
DENT	-12
▁=	-13
▁'	-14
▁se	-15
re	-16
▁:	-17
▁sel	-18
▁self	-19
in	-20
on	-21
te	-22
de	-23
▁I	-24
st	-25
▁DE	-26
▁IN	-27
▁INDENT	-28
▁DEDENT	-29
▁"	-30
▁a	-31
▁c	-32
or	-33
at	-34
▁_	-35
▁i	-36
le	-37
me	-38
▁re	-39
▁p	-40
al	-41
▁[	-42
▁]	-43
▁f	-44
er	-45
▁s	-46
▁de	-47
▁n	-48
ge	-49
ar	-50
▁e	-51
▁t	-52
ur	-53
▁def	-54
nt	-55
ion	-56
▁d	-57
ce	-58
an	-59
▁in	-60
ct	-61
it	-62
ro	-63
ue	-64
▁m	-65
pe	-66
ame	-67
ser	-68
▁l	-69
▁if	-70
ate	-71
▁o	-72
▁ret	-73
ut	-74
urn	-75
▁1	-76
▁b	-77
▁return	-78
ss	-79
get	-80
▁v	-81
▁-	-82
id	-83
▁as	-84
▁0	-85
▁st	-86
ot	-87
ck	-88
li	-89
ra	-90
▁N	-91
one	-92
fi	-93
ing	-94
sert	-95
▁u	-96
ri	-97
▁w	-98
he	-99
▁assert	-100
▁te	-101
mp	-102
nd	-103
▁con	-104
▁get	-105
ode	-106
ol	-107
▁for	-108
▁/	-109
lo	-110
▁%	-111
ter	-112
▁None	-113
ata	-114
▁T	-115
▁ex	-116
▁{	-117
▁}	-118
pt	-119
ul	-120
ke	-121
il	-122
ve	-123
name	-124
ype	-125
▁+	-126
▁h	-127
la	-128
ad	-129
▁S	-130
▁r	-131
qu	-132
di	-133
▁res	-134
▁*	-135
alue	-136
ch	-137
xt	-138
▁is	-139
gs	-140
age	-141
ath	-142
▁test	-143
▁co	-144
up	-145
▁name	-146
el	-147
ect	-148
as	-149
▁2	-150
ult	-151
▁F	-152
▁g	-153
▁==	-154
ab	-155
▁lo	-156
ation	-157
▁not	-158
et	-159
ile	-160
un	-161
ror	-162
▁x	-163
is	-164
co	-165
um	-166
rue	-167
▁ar	-168
der	-169
am	-170
▁C	-171
ime	-172
th	-173
es	-174
od	-175
ver	-176
▁__	-177
con	-178
que	-179
ist	-180
▁data	-181
▁п	-182
iz	-183
bj	-184
qual	-185
▁id	-186
vi	-187
and	-188
key	-189
▁ap	-190
▁set	-191
__	-192
▁k	-193
▁j	-194
▁me	-195
▁True	-196
▁ad	-197
ma	-198
▁A	-199
▁le	-200
ption	-201
▁par	-202
▁el	-203
ig	-204
ort	-205
▁в	-206
us	-207
▁pro	-208
ub	-209
ted	-210
ance	-211
ment	-212
▁else	-213
▁value	-214
ction	-215
▁P	-216
type	-217
▁<	-218
alse	-219
able	-220
то	-221
put	-222
ew	-223
▁с	-224
ine	-225
Equal	-226
file	-227
int	-228
ith	-229
ize	-230
tem	-231
op	-232
quest	-233
▁add	-234
00	-235
▁pa	-236
ry	-237
▁н	-238
▁False	-239
rror	-240
▁ma	-241
tt	-242
▁str	-243
Error	-244
▁path	-245
ow	-246
▁assertEqual	-247
text	-248
fig	-249
stance	-250
ise	-251
ent	-252
▁>	-253
▁y	-254
ic	-255
to	-256
mat	-257
▁user	-258
fo	-259
all	-260
▁or	-261
url	-262
▁ra	-263
▁file	-264
▁to	-265
ed	-266
set	-267
ta	-268
▁M	-269
art	-270
res	-271
▁3	-272
unt	-273
▁len	-274
args	-275
▁D	-276
che	-277
ock	-278
ase	-279
▁key	-280
▁ch	-281
▁R	-282
ost	-283
ть	-284
eld	-285
our	-286
▁\	-287
▁di	-288
pon	-289
ns	-290
▁result	-291
per	-292
ponse	-293
ack	-294
▁obj	-295
ls	-296
ен	-297
▁ro	-298
ра	-299
init	-300
▁E	-301
tr	-302
date	-303
▁к	-304
ff	-305
▁en	-306
po	-307
pro	-308
▁log	-309
reate	-310
▁и	-311
ord	-312
ap	-313
▁np	-314
out	-315
▁out	-316
▁args	-317
path	-318
▁and	-319
bu	-320
но	-321
▁sh	-322
ange	-323
pec	-324
ers	-325
ource	-326
pend	-327
data	-328
for	-329
ро	-330
▁type	-331
en	-332
▁request	-333
vice	-334
str	-335
▁kw	-336
ule	-337
rent	-338
▁raise	-339
rom	-340
▁os	-341
dex	-342
▁**	-343
TR	-344
lient	-345
▁he	-346
list	-347
val	-348
roup	-349
lass	-350
▁append	-351
▁fi	-352
om	-353
та	-354
pl	-355
▁G	-356
ind	-357
▁exce	-358
ag	-359
▁по	-360
ity	-361
im	-362
sc	-363
error	-364
▁L	-365
ip	-366
▁kwargs	-367
▁time	-368
▁о	-369
▁4	-370
.0	-371
ssage	-372
code	-373
▁V	-374
ет	-375
mple	-376
ader	-377
▁B	-378
ssion	-379
atch	-380
atus	-381
ys	-382
▁with	-383
pa	-384
sh	-385
▁al	-386
▁jo	-387
value	-388
▁STR	-389
ure	-390
▁url	-391
mo	-392
▁new	-393
tent	-394
▁com	-395
▁context	-396
time	-397
dir	-398
ive	-399
▁col	-400
par	-401
oo	-402
fa	-403
odel	-404
▁up	-405
NEWLINE	-406
ер	-407
▁STRNEWLINE	-408
▁format	-409
▁config	-410
▁response	-411
cess	-412
▁U	-413
▁item	-414
ial	-415
ht	-416
vent	-417
ec	-418
ory	-419
ild	-420
ans	-421
▁д	-422
▁do	-423
▁O	-424
os	-425
ams	-426
▁un	-427
In	-428
▁fa	-429
▁pre	-430
ask	-431
▁node	-432
▁create	-433
son	-434
ex	-435
▁sub	-436
▁try	-437
instance	-438
ray	-439
ork	-440
▁cls	-441
▁list	-442
lif	-443
red	-444
sg	-445
rite	-446
ли	-447
ape	-448
▁!	-449
▁except	-450
▁elif	-451
▁int	-452
ER	-453
lic	-454
ва	-455
▁cur	-456
▁start	-457
lay	-458
▁5	-459
ner	-460
▁H	-461
ml	-462
▁text	-463
pen	-464
und	-465
ery	-466
▁z	-467
port	-468
▁error	-469
▁im	-470
ies	-471
▁object	-472
▁м	-473
ext	-474
▁qu	-475
ль	-476
heck	-477
▁val	-478
▁на	-479
dict	-480
ay	-481
▁+=	-482
▁line	-483
ри	-484
nect	-485
ume	-486
thod	-487
odule	-488
▁sa	-489
▁ser	-490
▁mock	-491
bo	-492
▁join	-493
ps	-494
ator	-495
pected	-496
ute	-497
▁pass	-498
▁status	-499
nc	-500
ler	-501
▁update	-502
▁client	-503
rint	-504
late	-505
▁num	-506
AT	-507
info	-508
▁bu	-509
ings	-510
cal	-511
ph	-512
▁from	-513
lu	-514
col	-515
▁field	-516
▁db	-517
те	-518
lock	-519
count	-520
▁output	-521
est	-522
▁comp	-523
ress	-524
with	-525
arget	-526
ON	-527
ject	-528
ib	-529
Con	-530
ca	-531
if	-532
obj	-533
Re	-534
▁date	-535
▁att	-536
ptions	-537
ger	-538
▁instance	-539
ant	-540
▁tr	-541
ore	-542
▁write	-543
▁Q	-544
▁msg	-545
за	-546
▁fil	-547
ary	-548
uct	-549
▁th	-550
▁max	-551
▁state	-552
▁index	-553
▁sup	-554
▁0.	-555
▁expected	-556
uth	-557
ition	-558
ign	-559
▁input	-560
scri	-561
▁check	-562
▁has	-563
ем	-564
dent	-565
▁W	-566
test	-567
▁ко	-568
▁message	-569
ес	-570
▁read	-571
py	-572
min	-573
▁run	-574
size	-575
▁group	-576
ault	-577
mand	-578
ST	-579
ight	-580
tes	-581
gin	-582
▁print	-583
ard	-584
▁isinstance	-585
ces	-586
го	-587
line	-588
ber	-589
itle	-590
ни	-591
low	-592
ir	-593
work	-594
ty	-595
ак	-596
Name	-597
ink	-598
▁default	-599
▁!=	-600
pre	-601
▁json	-602
▁10	-603
ken	-604
add	-605
ени	-606
▁б	-607
by	-608
attr	-609
▁не	-610
ти	-611
ersion	-612
cation	-613
md	-614
load	-615
▁ac	-616
▁ч	-617
▁info	-618
plit	-619
form	-620
▁app	-621
back	-622
▁params	-623
ll	-624
▁q	-625
tra	-626
word	-627
▁end	-628
ла	-629
LE	-630
ся	-631
▁content	-632
own	-633
▁host	-634
▁model	-635
▁po	-636
util	-637
ка	-638
да	-639
abel	-640
▁image	-641
loat	-642
ны	-643
▁dis	-644
▁event	-645
▁In	-646
read	-647
▁arg	-648
mport	-649
ception	-650
▁py	-651
ument	-652
▁ge	-653
ifi	-654
▁class	-655
ters	-656
user	-657
▁the	-658
ttp	-659
▁base	-660
unc	-661
ree	-662
ac	-663
ло	-664
01	-665
▁target	-666
OR	-667
IN	-668
▁range	-669
rect	-670
lose	-671
ribu	-672
state	-673
ann	-674
▁query	-675
config	-676
mplate	-677
▁header	-678
fe	-679
valid	-680
og	-681
Type	-682
lete	-683
▁6	-684
ре	-685
ari	-686
▁trans	-687
▁on	-688
ody	-689
arch	-690
vers	-691
▁an	-692
▁be	-693
▁8	-694
map	-695
▁super	-696
▁dtype	-697
▁version	-698
▁size	-699
fix	-700
▁X	-701
ang	-702
▁open	-703
▁dict	-704
class	-705
▁split	-706
▁cont	-707
ast	-708
▁mo	-709
▁parent	-710
▁sys	-711
com	-712
lace	-713
oc	-714
▁ent	-715
ren	-716
St	-717
etwork	-718
olume	-719
lement	-720
mit	-721
▁bo	-722
rame	-723
Ex	-724
ust	-725
▁call	-726
▁filename	-727
ield	-728
ля	-729
▁за	-730
▁э	-731
на	-732
▁all	-733
bs	-734
ly	-735
ко	-736
▁session	-737
▁;	-738
▁row	-739
▁objects	-740
="	-741
move	-742
RE	-743
▁rep	-744
▁count	-745
▁exp	-746
▁Value	-747
▁min	-748
main	-749
▁module	-750
▁Ex	-751
▁Re	-752
▁connect	-753
▁source	-754
▁mode	-755
▁float	-756
string	-757
▁rec	-758
bug	-759
▁tra	-760
▁project	-761
uid	-762
ite	-763
▁label	-764
gth	-765
▁array	-766
▁import	-767
da	-768
▁port	-769
group	-770
ft	-771
▁у	-772
end	-773
ms	-774
▁про	-775
▁sc	-776
▁reg	-777
mb	-778
ump	-779
▁current	-780
sed	-781
▁shape	-782
во	-783
arn	-784
iew	-785
▁action	-786
▁Con	-787
ther	-788
▁api	-789
mail	-790
ome	-791
ME	-792
orm	-793
ait	-794
де	-795
len	-796
act	-797
ref	-798
▁we	-799
method	-800
ron	-801
▁load	-802
32	-803
▁values	-804
▁filter	-805
led	-806
rc	-807
▁pl	-808
▁title	-809
are	-810
▁su	-811
▁pos	-812
▁act	-813
ис	-814
pos	-815
vel	-816
ync	-817
▁table	-818
log	-819
▁ca	-820
▁ax	-821
▁ValueError	-822
ull	-823
▁no	-824
unction	-825
idth	-826
▁rand	-827
▁вы	-828
lab	-829
gra	-830
field	-831
▁other	-832
from	-833
tain	-834
ines	-835
▁?	-836
▁find	-837
▁task	-838
▁resource	-839
index	-840
lob	-841
Pro	-842
no	-843
pace	-844
ded	-845
▁|	-846
ld	-847
num	-848
row	-849
node	-850
ID	-851
adata	-852
umn	-853
tern	-854
▁code	-855
▁wh	-856
▁save	-857
1'	-858
equal	-859
▁init	-860
▁param	-861
ual	-862
ick	-863
по	-864
mi	-865
▁&	-866
▁то	-867
▁100	-868
Id	-869
▁const	-870
item	-871
▁doc	-872
▁cmd	-873
point	-874
▁debug	-875
▁#	-876
ream	-877
▁root	-878
▁auth	-879
ide	-880
File	-881
▁та	-882
▁match	-883
▁body	-884
▁foo	-885
ци	-886
▁exec	-887
ook	-888
andler	-889
▁ра	-890
бо	-891
ле	-892
scription	-893
ound	-894
version	-895
▁K	-896
▁assertT	-897
▁при	-898
ст	-899
ample	-900
ton	-901
▁ver	-902
cur	-903
▁options	-904
▁part	-905
▁П	-906
ass	-907
▁form	-908
▁method	-909
▁http	-910
ne	-911
▁items	-912
List	-913
annel	-914
▁device	-915
▁ns	-916
ax	-917
rap	-918
tadata	-919
▁post	-920
qui	-921
utils	-922
create	-923
ки	-924
▁$	-925
amb	-926
ises	-927
va	-928
its	-929
▁valid	-930
▁В	-931
array	-932
▁server	-933
▁assertTrue	-934
жно	-935
play	-936
▁pop	-937
▁что	-938
nsor	-939
▁@	-940
fault	-941
db	-942
bject	-943
indow	-944
▁service	-945
ak	-946
▁of	-947
▁fake	-948
check	-949
▁attr	-950
ids	-951
ager	-952
lus	-953
▁close	-954
Res	-955
urse	-956
▁ф	-957
rol	-958
ated	-959
utton	-960
client	-961
ди	-962
cs	-963
base	-964
ched	-965
rip	-966
err	-967
▁delete	-968
ey	-969
▁мо	-970
▁command	-971
idget	-972
lib	-973
ariable	-974
▁per	-975
AR	-976
▁fe	-977
ations	-978
tings	-979
▁logger	-980
▁page	-981
ffset	-982
▁map	-983
call	-984
▁pack	-985
ateg	-986
comp	-987
▁dir	-988
ribute	-989
▁pri	-990
ep	-991
об	-992
▁parse	-993
names	-994
dd	-995
▁string	-996
tml	-997
rst	-998
ambda	-999
ру	-1000
To	-1001
мо	-1002
ses	-1003
OL	-1004
Data	-1005
object	-1006
▁Get	-1007
▁datetime	-1008
▁tag	-1009
Ra	-1010
rt	-1011
result	-1012
▁last	-1013
request	-1014
ify	-1015
CT	-1016
▁lambda	-1017
▁std	-1018
12	-1019
reg	-1020
rig	-1021
▁""	-1022
▁St	-1023
64	-1024
▁gra	-1025
lean	-1026
params	-1027
▁by	-1028
AL	-1029
▁child	-1030
▁ct	-1031
tring	-1032
);	-1033
▁fla	-1034
ви	-1035
anager	-1036
ists	-1037
▁"""	-1038
▁token	-1039
view	-1040
▁html	-1041
▁headers	-1042
De	-1043
▁remove	-1044
ix	-1045
lection	-1046
▁build	-1047
▁ip	-1048
update	-1049
▁req	-1050
▁make	-1051
ET	-1052
▁block	-1053
orted	-1054
ature	-1055
▁op	-1056
ave	-1057
andle	-1058
▁env	-1059
iv	-1060
▁это	-1061
▁7	-1062
▁->	-1063
ds	-1064
response	-1065
api	-1066
▁random	-1067
▁network	-1068
▁tf	-1069
▁search	-1070
ctor	-1071
ark	-1072
▁sp	-1073
▁exc	-1074
otal	-1075
Raises	-1076
▁local	-1077
▁ref	-1078
▁volume	-1079
▁extra	-1080
RO	-1081
▁как	-1082
ION	-1083
▁var	-1084
▁12	-1085
▁stat	-1086
▁next	-1087
▁assertRaises	-1088
PE	-1089
ions	-1090
rate	-1091
▁back	-1092
not	-1093
sub	-1094
▁0.0	-1095
IT	-1096
▁inter	-1097
wer	-1098
message	-1099
▁со	-1100
▁replace	-1101
▁а	-1102
▁password	-1103
▁pk	-1104
Value	-1105
AB	-1106
▁func	-1107
▁tmp	-1108
action	-1109
nder	-1110
▁hel	-1111
ok	-1112
izer	-1113
▁settings	-1114
ten	-1115
▁err	-1116
хо	-1117
model	-1118
ql	-1119
▁parser	-1120
be	-1121
▁username	-1122
lobal	-1123
river	-1124
Up	-1125
▁send	-1126
older	-1127
CE	-1128
▁copy	-1129
table	-1130
▁J	-1131
cre	-1132
mon	-1133
▁view	-1134
▁keys	-1135
host	-1136
▁src	-1137
▁ed	-1138
tep	-1139
we	-1140
arg	-1141
▁от	-1142
do	-1143
ча	-1144
▁use	-1145
▁9	-1146
tri	-1147
▁Type	-1148
label	-1149
Ch	-1150
▁template	-1151
▁lay	-1152
▁email	-1153
▁show	-1154
▁my	-1155
dis	-1156
▁dest	-1157
▁pub	-1158
▁select	-1159
зо	-1160
rid	-1161
box	-1162
Not	-1163
format	-1164
mode	-1165
▁del	-1166
oi	-1167
▁order	-1168
▁Exception	-1169
ccess	-1170
input	-1171
gn	-1172
лу	-1173
▁top	-1174
▁course	-1175
▁200	-1176
▁lib	-1177
div	-1178
run	-1179
▁while	-1180
amp	-1181
duct	-1182
inal	-1183
ере	-1184
UT	-1185
ма	-1186
ется	-1187
▁Y	-1188
▁opt	-1189
output	-1190
space	-1191
process	-1192
ash	-1193
json	-1194
▁results	-1195
Co	-1196
inter	-1197
SS	-1198
parse	-1199
ops	-1200
▁sum	-1201
header	-1202
▁first	-1203
default	-1204
uple	-1205
▁temp	-1206
▁ut	-1207
AN	-1208
ging	-1209
start	-1210
shape	-1211
ors	-1212
▁об	-1213
▁spec	-1214
.1	-1215
context	-1216
▁at	-1217
вать	-1218
▁df	-1219
▁из	-1220
▁change	-1221
use	-1222
▁fields	-1223
iled	-1224
ures	-1225
▁warn	-1226
ку	-1227
▁resp	-1228
2'	-1229
чи	-1230
▁contin	-1231
df	-1232
Se	-1233
">	-1234
▁work	-1235
module	-1236
ialize	-1237
▁Н	-1238
of	-1239
ffer	-1240
ong	-1241
▁uuid	-1242
Di	-1243
tainer	-1244
▁К	-1245
▁1.0	-1246
Par	-1247
max	-1248
lude	-1249
image	-1250
▁Un	-1251
onent	-1252
uration	-1253
link	-1254
io	-1255
face	-1256
▁description	-1257
▁cr	-1258
spec	-1259
▁conn	-1260
▁pi	-1261
▁inst	-1262
fil	-1263
swith	-1264
SE	-1265
▁aw	-1266
▁во	-1267
licy	-1268
▁record	-1269
▁ес	-1270
mt	-1271
▁old	-1272
var	-1273
▁entry	-1274
queue	-1275
▁continue	-1276
types	-1277
net	-1278
lication	-1279
men	-1280
_1	-1281
mpty	-1282
▁Pro	-1283
▁sy	-1284
ain	-1285
cale	-1286
▁metadata	-1287
direct	-1288
▁Test	-1289
ми	-1290
uto	-1291
▁ta	-1292
viron	-1293
▁strip	-1294
chema	-1295
▁xml	-1296
abled	-1297
ont	-1298
reak	-1299
ameters	-1300
struct	-1301
raw	-1302
vert	-1303
▁domain	-1304
▁dist	-1305
lugin	-1306
Ser	-1307
ding	-1308
▁gener	-1309
▁link	-1310
status	-1311
▁yield	-1312
ение	-1313
values	-1314
ister	-1315
ста	-1316
▁ne	-1317
▁address	-1318
▁connection	-1319
files	-1320
ments	-1321
pr	-1322
▁User	-1323
▁sign	-1324
не	-1325
▁location	-1326
▁exte	-1327
▁main	-1328
def	-1329
les	-1330
▁execute	-1331
uld	-1332
▁axis	-1333
page	-1334
Test	-1335
▁cal	-1336
cope	-1337
nce	-1338
▁De	-1339
▁async	-1340
pect	-1341
▁color	-1342
nap	-1343
▁orig	-1344
verse	-1345
ping	-1346
ript	-1347
ры	-1348
10	-1349
FI	-1350
▁channel	-1351
ATE	-1352
core	-1353
▁ph	-1354
Set	-1355
lat	-1356
▁total	-1357
ocket	-1358
ols	-1359
▁width	-1360
▁process	-1361
▁timeout	-1362
▁uid	-1363
trans	-1364
Field	-1365
block	-1366
feren	-1367
ert	-1368
▁exception	-1369
_2	-1370
ply	-1371
▁20	-1372
mission	-1373
connect	-1374
▁ре	-1375
rial	-1376
right	-1377
▁prefix	-1378
Text	-1379
▁да	-1380
ую	-1381
stamp	-1382
UL	-1383
Exception	-1384
sor	-1385
UR	-1386
же	-1387
▁но	-1388
▁files	-1389
▁raw	-1390
query	-1391
▁requi	-1392
▁1.	-1393
▁hass	-1394
Me	-1395
▁Set	-1396
AG	-1397
change	-1398
▁cache	-1399
order	-1400
▁logging	-1401
vis	-1402
ries	-1403
се	-1404
pi	-1405
ши	-1406
▁Not	-1407
thon	-1408
▁account	-1409
</	-1410
OG	-1411
ng	-1412
▁oper	-1413
content	-1414
ения	-1415
▁sample	-1416
ution	-1417
▁до	-1418
xy	-1419
▁ctx	-1420
mary	-1421
event	-1422
luster	-1423
ай	-1424
▁mat	-1425
▁break	-1426
▁exists	-1427
▁idx	-1428
▁conf	-1429
iter	-1430
Time	-1431
AME	-1432
ible	-1433
▁я	-1434
pack	-1435
cache	-1436
server	-1437
▁RE	-1438
lease	-1439
ould	-1440
си	-1441
tail	-1442
ical	-1443
pp	-1444
▁length	-1445
▁encode	-1446
Ar	-1447
▁ст	-1448
▁job	-1449
▁ab	-1450
▁admin	-1451
▁`	-1452
lect	-1453
мен	-1454
▁play	-1455
String	-1456
length	-1457
pert	-1458
device	-1459
▁offset	-1460
rec	-1461
▁ис	-1462
▁global	-1463
▁fail	-1464
▁patch	-1465
orage	-1466
jo	-1467
▁net	-1468
▁bar	-1469
ud	-1470
ank	-1471
▁getattr	-1472
▁org	-1473
ormal	-1474
▁bool	-1475
ach	-1476
vider	-1477
service	-1478
▁inc	-1479
token	-1480
lines	-1481
func	-1482
▁setUp	-1483
▁await	-1484
▁lower	-1485
new	-1486
▁stream	-1487
ributes	-1488
umns	-1489
ncy	-1490
ts	-1491
ING	-1492
uri	-1493
perties	-1494
perty	-1495
▁bin	-1496
пис	-1497
kip	-1498
pc	-1499
ategory	-1500
▁char	-1501
▁number	-1502
04	-1503
resh	-1504
Col	-1505
▁stop	-1506
▁one	-1507
▁Data	-1508
ear	-1509
part	-1510
()	-1511
PI	-1512
ped	-1513
ill	-1514
OT	-1515
old	-1516
unk	-1517
▁бы	-1518
Path	-1519
▁us	-1520
0000	-1521
▁function	-1522
Is	-1523
ternal	-1524
▁mem	-1525
command	-1526
▁this	-1527
▁element	-1528
▁render	-1529
Item	-1530
OM	-1531
0'	-1532
mote	-1533
uter	-1534
▁frame	-1535
rix	-1536
▁lang	-1537
▁level	-1538
▁iter	-1539
▁для	-1540
umpy	-1541
const	-1542
stat	-1543
lem	-1544
TP	-1545
MB	-1546
▁column	-1547
▁Se	-1548
▁dump	-1549
itor	-1550
cond	-1551
▁can	-1552
1"	-1553
yle	-1554
Request	-1555
▁clean	-1556
app	-1557
▁constant	-1558
▁models	-1559
ifier	-1560
▁abs	-1561
▁found	-1562
▁meta	-1563
flow	-1564
лем	-1565
льно	-1566
▁utils	-1567
icode	-1568
ference	-1569
56	-1570
ected	-1571
CH	-1572
loc	-1573
▁environ	-1574
etch	-1575
▁rule	-1576
▁stdout	-1577
mock	-1578
▁HT	-1579
▁>=	-1580
session	-1581
про	-1582
ystem	-1583
до	-1584
▁help	-1585
▁eval	-1586
▁plugin	-1587
34	-1588
▁vo	-1589
▁product	-1590
template	-1591
ED	-1592
task	-1593
OST	-1594
▁errors	-1595
fg	-1596
store	-1597
doc	-1598
▁lines	-1599
▁TAB	-1600
oice	-1601
▁pay	-1602
▁decode	-1603
bin	-1604
▁кото	-1605
filter	-1606
▁По	-1607
vail	-1608
ameter	-1609
Po	-1610
▁batch	-1611
auth	-1612
igh	-1613
▁lim	-1614
▁С	-1615
▁height	-1616
▁No	-1617
tocol	-1618
▁full	-1619
Node	-1620
ration	-1621
▁unit	-1622
script	-1623
▁display	-1624
ttribute	-1625
shot	-1626
▁cli	-1627
▁Res	-1628
▁option	-1629
▁word	-1630
нны	-1631
coding	-1632
▁handle	-1633
Object	-1634
For	-1635
sp	-1636
▁fin	-1637
ас	-1638
▁startswith	-1639
▁wait	-1640
any	-1641
gg	-1642
▁Как	-1643
▁dec	-1644
nsion	-1645
Bo	-1646
▁hasattr	-1647
lear	-1648
▁ali	-1649
prot	-1650
pu	-1651
ustom	-1652
mage	-1653
▁vm	-1654
AD	-1655
02	-1656
▁так	-1657
msg	-1658
▁train	-1659
trol	-1660
▁pat	-1661
den	-1662
pri	-1663
atures	-1664
поль	-1665
▁Qt	-1666
SY	-1667
ole	-1668
▁point	-1669
▁utf	-1670
fn	-1671
napshot	-1672
▁Key	-1673
uage	-1674
frame	-1675
▁register	-1676
rib	-1677
dential	-1678
▁cs	-1679
▁driver	-1680
att	-1681
options	-1682
▁img	-1683
▁з	-1684
▁CON	-1685
Key	-1686
Config	-1687
▁package	-1688
▁reverse	-1689
▁now	-1690
here	-1691
CK	-1692
du	-1693
55	-1694
ell	-1695
▁TypeError	-1696
▁ids	-1697
rm	-1698
▁variable	-1699
root	-1700
▁control	-1701
source	-1702
мер	-1703
▁<=	-1704
cept	-1705
EST	-1706
▁mon	-1707
my	-1708
let	-1709
▁weight	-1710
gex	-1711
▁dev	-1712
▁раз	-1713
▁left	-1714
▁zer	-1715
▁sort	-1716
▁dt	-1717
temp	-1718
ulti	-1719
Dict	-1720
ches	-1721
▁compute	-1722
mented	-1723
pass	-1724
sum	-1725
▁ident	-1726
ities	-1727
▁pool	-1728
▁ну	-1729
virt	-1730
ci	-1731
▁bot	-1732
quence	-1733
su	-1734
▁nodes	-1735
cket	-1736
argument	-1737
las	-1738
Response	-1739
req	-1740
rans	-1741
▁все	-1742
function	-1743
ization	-1744
▁0.5	-1745
▁store	-1746
лю	-1747
YPE	-1748
▁е	-1749
▁example	-1750
▁serial	-1751
▁Z	-1752
ride	-1753
ве	-1754
ты	-1755
▁ST	-1756
Info	-1757
▁must	-1758
▁^	-1759
fields	-1760
ttps	-1761
eta	-1762
address	-1763
ative	-1764
▁assertEquals	-1765
ification	-1766
range	-1767
ui	-1768
▁Е	-1769
EN	-1770
▁под	-1771
▁Ser	-1772
▁setup	-1773
▁vis	-1774
All	-1775
State	-1776
▁sw	-1777
imple	-1778
▁public	-1779
sett	-1780
▁Fa	-1781
SER	-1782
down	-1783
number	-1784
▁те	-1785
▁inputs	-1786
tag	-1787
fact	-1788
▁cl	-1789
MBOL	-1790
▁validate	-1791
called	-1792
FA	-1793
▁</	-1794
keys	-1795
ту	-1796
meta	-1797
▁LOG	-1798
round	-1799
▁zip	-1800
ULT	-1801
chedule	-1802
volume	-1803
2_	-1804
▁tuple	-1805
99	-1806
SYMBOL	-1807
▁HTTP	-1808
ran	-1809
▁thread	-1810
▁move	-1811
11	-1812
nown	-1813
▁numpy	-1814
▁position	-1815
▁assertIs	-1816
iss	-1817
▁TABSYMBOL	-1818
View	-1819
rop	-1820
▁cursor	-1821
▁assertF	-1822
del	-1823
▁login	-1824
▁Co	-1825
match	-1826
resource	-1827
▁system	-1828
ility	-1829
▁hash	-1830
derr	-1831
cted	-1832
ie	-1833
3'	-1834
fla	-1835
▁diff	-1836
DI	-1837
▁step	-1838
▁pol	-1839
▁cre	-1840
mplemented	-1841
title	-1842
write	-1843
ason	-1844
▁Error	-1845
cent	-1846
▁right	-1847
ized	-1848
тся	-1849
▁uni	-1850
▁stack	-1851
уд	-1852
delete	-1853
Model	-1854
serialize	-1855
manager	-1856
Class	-1857
ward	-1858
width	-1859
aster	-1860
▁entity	-1861
▁Add	-1862
LO	-1863
▁schema	-1864
▁Ес	-1865
24	-1866
▁mod	-1867
▁sql	-1868
▁window	-1869
MP	-1870
▁tree	-1871
Lo	-1872
Message	-1873
▁age	-1874
▁callback	-1875
▁sorted	-1876
NAME	-1877
▁eq	-1878
▁txt	-1879
element	-1880
▁mask	-1881
bar	-1882
▁direct	-1883
Index	-1884
▁names	-1885
lug	-1886
ret	-1887
▁graph	-1888
filename	-1889
▁assertFalse	-1890
▁исполь	-1891
▁over	-1892
▁widget	-1893
handler	-1894
▁real	-1895
level	-1896
her	-1897
ML	-1898
ек	-1899
ou	-1900
▁container	-1901
ined	-1902
▁down	-1903
▁plot	-1904
ning	-1905
sent	-1906
▁limit	-1907
rs	-1908
alog	-1909
▁tags	-1910
▁script	-1911
nel	-1912
▁allow	-1913
▁handler	-1914
му	-1915
▁rel	-1916
Size	-1917
16	-1918
entry	-1919
▁extend	-1920
▁16	-1921
▁success	-1922
▁Mock	-1923
▁skip	-1924
▁рабо	-1925
na	-1926
gle	-1927
ме	-1928
fs	-1929
▁socket	-1930
▁exit	-1931
▁Invalid	-1932
▁repo	-1933
ctions	-1934
▁dataset	-1935
▁attrs	-1936
▁layer	-1937
Box	-1938
▁coord	-1939
▁ка	-1940
▁есть	-1941
▁active	-1942
gr	-1943
dentials	-1944
▁fn	-1945
▁initial	-1946
pha	-1947
▁cons	-1948
нк	-1949
dia	-1950
Com	-1951
▁math	-1952
gress	-1953
▁пер	-1954
Fact	-1955
▁cluster	-1956
ics	-1957
▁struct	-1958
▁required	-1959
▁Ch	-1960
bose	-1961
uuid	-1962
лать	-1963
close	-1964
▁auto	-1965
build	-1966
vailable	-1967
project	-1968
вер	-1969
fter	-1970
hed	-1971
gment	-1972
зу	-1973
▁Me	-1974
hash	-1975
▁insert	-1976
▁application	-1977
▁File	-1978
location	-1979
▁true	-1980
▁зна	-1981
▁commit	-1982
▁da	-1983
alid	-1984
▁man	-1985
▁gen	-1986
▁argument	-1987
cate	-1988
atform	-1989
dices	-1990
opt	-1991
network	-1992
▁labels	-1993
iod	-1994
▁columns	-1995
Widget	-1996
▁И	-1997
).	-1998
▁фай	-1999
.2	-2000
1_	-2001
rule	-2002
gnore	-2003
жи	-2004
structor	-2005
жа	-2006
▁enume	-2007
metadata	-2008
annot	-2009
By	-2010
ally	-2011
MA	-2012
vate	-2013
Add	-2014
lice	-2015
▁SE	-2016
▁ans	-2017
▁profile	-2018
mask	-2019
▁category	-2020
Out	-2021
prefix	-2022
ek	-2023
▁inv	-2024
▁web	-2025
▁remote	-2026
▁stderr	-2027
▁access	-2028
▁ass	-2029
сь	-2030
▁Д	-2031
wd	-2032
ный	-2033
▁inte	-2034
прос	-2035
ilder	-2036
▁'1	-2037
▁пере	-2038
En	-2039
▁можно	-2040
Un	-2041
olve	-2042
hel	-2043
▁ker	-2044
most	-2045
headers	-2046
cmd	-2047
▁site	-2048
▁ast	-2049
Lay	-2050
ote	-2051
▁clear	-2052
▁cfg	-2053
▁compile	-2054
Implemented	-2055
tree	-2056
Element	-2057
ке	-2058
03	-2059
▁//	-2060
Event	-2061
▁flags	-2062
▁should	-2063
tom	-2064
cp	-2065
▁enumerate	-2066
▁cor	-2067
ingle	-2068
▁payload	-2069
ции	-2070
once	-2071
▁report	-2072
▁author	-2073
▁An	-2074
mark	-2075
color	-2076
▁collection	-2077
stream	-2078
▁bl	-2079
ower	-2080
▁mark	-2081
ultip	-2082
lasses	-2083
▁полу	-2084
▁generate	-2085
sign	-2086
▁https	-2087
ня	-2088
column	-2089
vm	-2090
riter	-2091
▁uint	-2092
▁sq	-2093
▁queue	-2094
▁г	-2095
gine	-2096
сто	-2097
tensor	-2098
erson	-2099
▁normal	-2100
ob	-2101
▁15	-2102
▁verbose	-2103
2"	-2104
▁role	-2105
▁ext	-2106
▁force	-2107
▁font	-2108
UN	-2109
▁'2	-2110
лько	-2111
Group	-2112
▁actual	-2113
бы	-2114
tk	-2115
difi	-2116
option	-2117
▁sha	-2118
idx	-2119
▁void	-2120
▁include	-2121
▁namespace	-2122
target	-2123
hape	-2124
▁scale	-2125
Factory	-2126
000	-2127
kw	-2128
▁loc	-2129
With	-2130
▁failed	-2131
▁empty	-2132
▁put	-2133
arning	-2134
ous	-2135
mbol	-2136
reen	-2137
▁сде	-2138
▁ва	-2139
▁NotImplemented	-2140
top	-2141
вы	-2142
itch	-2143
▁ow	-2144
leep	-2145
fore	-2146
▁tx	-2147
sample	-2148
ES	-2149
▁comment	-2150
▁List	-2151
patch	-2152
▁String	-2153
▁стро	-2154
▁11	-2155
Frame	-2156
Instance	-2157
▁users	-2158
ше	-2159
Te	-2160
rapper	-2161
IO	-2162
▁assertIn	-2163
▁fetch	-2164
settings	-2165
▁The	-2166
▁ss	-2167
cen	-2168
gram	-2169
peline	-2170
▁convert	-2171
CO	-2172
▁stats	-2173
av	-2174
fer	-2175
copy	-2176
▁pytest	-2177
rge	-2178
▁Attribute	-2179
ideo	-2180
xml	-2181
stack	-2182
▁wx	-2183
untime	-2184
▁disk	-2185
ting	-2186
▁Option	-2187
button	-2188
▁comple	-2189
▁па	-2190
▁encoding	-2191
▁document	-2192
curity	-2193
post	-2194
▁zeros	-2195
ush	-2196
▁dumps	-2197
▁year	-2198
▁Th	-2199
IG	-2200
child	-2201
over	-2202
▁timestamp	-2203
▁буд	-2204
▁are	-2205
▁art	-2206
▁Т	-2207
▁section	-2208
▁parameters	-2209
▁style	-2210
▁sig	-2211
roll	-2212
Client	-2213
▁ли	-2214
FAULT	-2215
Num	-2216
▁pe	-2217
▁данны	-2218
▁201	-2219
ported	-2220
ready	-2221
From	-2222
▁cond	-2223
ked	-2224
tails	-2225
ор	-2226
ENT	-2227
вани	-2228
eff	-2229
IL	-2230
unter	-2231
ну	-2232
▁bytes	-2233
bytes	-2234
Map	-2235
dim	-2236
lot	-2237
▁ID	-2238
ating	-2239
pth	-2240
▁component	-2241
унк	-2242
▁CONF	-2243
open	-2244
graph	-2245
ходи	-2246
parent	-2247
istory	-2248
ги	-2249
▁ignore	-2250
▁Col	-2251
Le	-2252
▁provider	-2253
conf	-2254
exec	-2255
▁seq	-2256
Service	-2257
enter	-2258
Str	-2259
char	-2260
ector	-2261
▁metri	-2262
▁Lo	-2263
FF	-2264
px	-2265
ract	-2266
▁mean	-2267
iste	-2268
▁head	-2269
▁uri	-2270
only	-2271
gener	-2272
delta	-2273
▁exist	-2274
active	-2275
imal	-2276
record	-2277
▁Te	-2278
▁loads	-2279
esc	-2280
handle	-2281
▁нужно	-2282
▁GET	-2283
body	-2284
Result	-2285
mount	-2286
conds	-2287
ranch	-2288
raint	-2289
▁Name	-2290
okup	-2291
▁Time	-2292
sy	-2293
irt	-2294
▁POST	-2295
ground	-2296
man	-2297
idden	-2298
variable	-2299
▁если	-2300
▁warning	-2301
KE	-2302
ient	-2303
lis	-2304
щи	-2305
▁arch	-2306
▁button	-2307
ava	-2308
▁де	-2309
▁Http	-2310
gest	-2311
▁invalid	-2312
domain	-2313
па	-2314
weight	-2315
ummy	-2316
Qu	-2317
▁Par	-2318
▁created	-2319
known	-2320
place	-2321
▁href	-2322
▁cell	-2323
▁groups	-2324
▁activ	-2325
ще	-2326
conn	-2327
▁reset	-2328
▁subprocess	-2329
VER	-2330
Log	-2331
User	-2332
icle	-2333
loy	-2334
▁long	-2335
▁track	-2336
kens	-2337
▁storage	-2338
ware	-2339
Ent	-2340
▁grid	-2341
Bu	-2342
▁ts	-2343
Count	-2344
▁li	-2345
EX	-2346
▁attributes	-2347
vision	-2348
position	-2349
▁chunk	-2350
▁scope	-2351
ift	-2352
▁so	-2353
email	-2354
▁30	-2355
raph	-2356
Handler	-2357
▁expr	-2358
ling	-2359
tains	-2360
▁ме	-2361
▁buf	-2362
▁game	-2363
channel	-2364
Check	-2365
ntic	-2366
сле	-2367
ux	-2368
▁properties	-2369
▁non	-2370
80	-2371
▁pd	-2372
▁tab	-2373
▁работа	-2374
▁sleep	-2375
▁where	-2376
points	-2377
жет	-2378
ale	-2379
repr	-2380
сти	-2381
▁т	-2382
▁fname	-2383
▁8'	-2384
вля	-2385
issing	-2386
gen	-2387
profile	-2388
▁opts	-2389
▁кон	-2390
book	-2391
connection	-2392
▁О	-2393
vor	-2394
cc	-2395
parser	-2396
ates	-2397
▁addr	-2398
▁сделать	-2399
50	-2400
▁platform	-2401
▁language	-2402
layer	-2403
▁ds	-2404
ного	-2405
PT	-2406
▁policy	-2407
zone	-2408
results	-2409
зовать	-2410
search	-2411
He	-2412
board	-2413
current	-2414
▁core	-2415
Met	-2416
Found	-2417
▁alpha	-2418
last	-2419
рани	-2420
▁мен	-2421
со	-2422
ceive	-2423
3_	-2424
▁''	-2425
вить	-2426
wo	-2427
ду	-2428
▁Content	-2429
next	-2430
UP	-2431
Al	-2432
items	-2433
▁pattern	-2434
▁prop	-2435
addr	-2436
▁fill	-2437
▁feature	-2438
dio	-2439
tact	-2440
▁ep	-2441
▁Optional	-2442
ug	-2443
pression	-2444
▁fp	-2445
cret	-2446
бли	-2447
▁it	-2448
loud	-2449
▁prob	-2450
▁case	-2451
constructor	-2452
▁rows	-2453
▁brow	-2454
▁cap	-2455
▁dst	-2456
Button	-2457
▁raises	-2458
posit	-2459
▁ops	-2460
▁install	-2461
offset	-2462
make	-2463
рам	-2464
scope	-2465
TYPE	-2466
▁0.1	-2467
зда	-2468
▁которы	-2469
▁git	-2470
▁directory	-2471
▁iss	-2472
▁Com	-2473
step	-2474
▁aut	-2475
▁database	-2476
html	-2477
comple	-2478
▁fix	-2479
ias	-2480
roid	-2481
▁release	-2482
Mock	-2483
▁edit	-2484
callback	-2485
▁sess	-2486
allback	-2487
admin	-2488
▁original	-2489
lable	-2490
nu	-2491
Line	-2492
▁custom	-2493
hell	-2494
▁mk	-2495
▁children	-2496
rection	-2497
▁any	-2498
▁50	-2499
ener	-2500
.5	-2501
LA	-2502
▁signal	-2503
▁video	-2504
▁backend	-2505
inst	-2506
ной	-2507
ination	-2508
▁go	-2509
▁1000	-2510
▁dirname	-2511
▁agent	-2512
▁python	-2513
hentic	-2514
▁fit	-2515
ные	-2516
//	-2517
▁filters	-2518
lish	-2519
SI	-2520
nodes	-2521
vars	-2522
▁cat	-2523
▁функ	-2524
Context	-2525
dered	-2526
▁Ar	-2527
pool	-2528
--	-2529
▁subnet	-2530
mem	-2531
▁desc	-2532
password	-2533
pub	-2534
▁cert	-2535
kwargs	-2536
cli	-2537
▁ten	-2538
local	-2539
лас	-2540
ffix	-2541
пу	-2542
▁ps	-2543
▁pick	-2544
▁'''	-2545
▁some	-2546
ATH	-2547
▁arr	-2548
▁interface	-2549
istry	-2550
▁Di	-2551
ango	-2552
▁unicode	-2553
▁player	-2554
▁DEFAULT	-2555
ular	-2556
▁ins	-2557
▁ни	-2558
▁Request	-2559
Form	-2560
pende	-2561
▁expect	-2562
ND	-2563
▁KeyError	-2564
▁snapshot	-2565
mbed	-2566
uble	-2567
▁или	-2568
account	-2569
▁loop	-2570
▁owner	-2571
ports	-2572
policy	-2573
▁gr	-2574
az	-2575
pat	-2576
parameters	-2577
leted	-2578
ho	-2579
▁знач	-2580
▁Py	-2581
▁side	-2582
▁types	-2583
mod	-2584
▁trace	-2585
▁bind	-2586
▁plt	-2587
▁imp	-2588
ancel	-2589
Get	-2590
▁common	-2591
▁М	-2592
case	-2593
пра	-2594
URL	-2595
VI	-2596
▁attribute	-2597
Trans	-2598
vs	-2599
▁topic	-2600
",	-2601
гу	-2602
▁ин	-2603
ified	-2604
▁edge	-2605
▁feed	-2606
go	-2607
▁changed	-2608
aml	-2609
asic	-2610
mbers	-2611
teps	-2612
▁tests	-2613
▁Sub	-2614
nection	-2615
plot	-2616
▁master	-2617
▁region	-2618
20	-2619
▁ui	-2620
▁tenant	-2621
▁Config	-2622
Dir	-2623
Window	-2624
78	-2625
heet	-2626
▁second	-2627
▁proxy	-2628
▁будет	-2629
▁MA	-2630
▁subject	-2631
чес	-2632
limit	-2633
▁events	-2634
▁selected	-2635
setup	-2636
▁dep	-2637
US	-2638
yn	-2639
▁util	-2640
▁tensor	-2641
▁\\	-2642
шиб	-2643
▁have	-2644
RI	-2645
▁win	-2646
rary	-2647
param	-2648
groups	-2649
lated	-2650
▁private	-2651
vo	-2652
▁pid	-2653
▁sol	-2654
▁lock	-2655
▁2.0	-2656
:00	-2657
Manager	-2658
End	-2659
▁draw	-2660
▁folder	-2661
▁TEST	-2662
▁чтобы	-2663
pol	-2664
oper	-2665
Status	-2666
cons	-2667
try	-2668
Parser	-2669
▁export	-2670
блем	-2671
▁score	-2672
▁fact	-2673
писа	-2674
зы	-2675
▁protocol	-2676
▁unique	-2677
inc	-2678
пол	-2679
вет	-2680
',	-2681
None	-2682
://	-2683
▁delta	-2684
▁hex	-2685
ROR	-2686
▁md	-2687
itu	-2688
nsions	-2689
cat	-2690
▁код	-2691
▁verify	-2692
▁fs	-2693
jango	-2694
thread	-2695
▁transform	-2696
▁oprot	-2697
virtual	-2698
лемен	-2699
oices	-2700
оба	-2701
Of	-2702
▁redirect	-2703
oogle	-2704
LECT	-2705
▁kernel	-2706
▁lat	-2707
VE	-2708
has	-2709
▁download	-2710
sup	-2711
adding	-2712
unit	-2713
▁kind	-2714
remove	-2715
diff	-2716
25	-2717
Code	-2718
udent	-2719
fail	-2720
OW	-2721
ategor	-2722
ik	-2723
timeout	-2724
section	-2725
от	-2726
dirs	-2727
axis	-2728
▁rest	-2729
hen	-2730
-01	-2731
▁messages	-2732
▁csv	-2733
▁As	-2734
▁sv	-2735
ulate	-2736
dist	-2737
▁prev	-2738
pare	-2739
ins	-2740
▁mar	-2741
ily	-2742
window	-2743
▁pkg	-2744
way	-2745
imum	-2746
Sh	-2747
▁does	-2748
▁En	-2749
▁place	-2750
orld	-2751
Down	-2752
4'	-2753
гда	-2754
33	-2755
lan	-2756
lation	-2757
▁vol	-2758
▁merge	-2759
▁layout	-2760
ializer	-2761
dec	-2762
▁же	-2763
Change	-2764
AS	-2765
▁only	-2766
now	-2767
QU	-2768
▁1'	-2769
▁rc	-2770
ero	-2771
▁zone	-2772
plu	-2773
▁images	-2774
train	-2775
▁transport	-2776
AGE	-2777
▁32	-2778
▁engine	-2779
imp	-2780
Comp	-2781
86	-2782
▁bucket	-2783
App	-2784
▁ви	-2785
▁fd	-2786
▁parts	-2787
bot	-2788
▁slug	-2789
▁ke	-2790
▁воз	-2791
Pos	-2792
ved	-2793
▁EX	-2794
▁schedule	-2795
лож	-2796
folder	-2797
plugin	-2798
▁buffer	-2799
Action	-2800
▁div	-2801
Image	-2802
bl	-2803
OK	-2804
cle	-2805
sets	-2806
('	-2807
▁outputs	-2808
▁flat	-2809
▁router	-2810
▁созда	-2811
▁мас	-2812
ble	-2813
▁apply	-2814
▁home	-2815
IME	-2816
▁объ	-2817
▁dot	-2818
ident	-2819
env	-2820
▁клас	-2821
Base	-2822
▁60	-2823
ORT	-2824
▁enable	-2825
▁controller	-2826
▁repr	-2827
words	-2828
▁хо	-2829
cast	-2830
▁пре	-2831
▁элемен	-2832
Array	-2833
▁оп	-2834
▁person	-2835
▁tm	-2836
▁lin	-2837
ric	-2838
ска	-2839
▁upper	-2840
matrix	-2841
▁manager	-2842
▁parsed	-2843
▁только	-2844
▁Если	-2845
TE	-2846
▁final	-2847
▁menu	-2848
sa	-2849
▁finally	-2850
ATION	-2851
▁pr	-2852
itions	-2853
Page	-2854
▁reason	-2855
▁member	-2856
dev	-2857
14	-2858
Cur	-2859
send	-2860
aded	-2861
▁agg	-2862
Th	-2863
▁Node	-2864
▁box	-2865
▁amount	-2866
ция	-2867
▁помо	-2868
ators	-2869
ker	-2870
print	-2871
methods	-2872
package	-2873
ример	-2874
▁static	-2875
),	-2876
▁2.	-2877
▁sim	-2878
▁pipeline	-2879
▁calc	-2880
very	-2881
▁My	-2882
▁ter	-2883
▁mig	-2884
itude	-2885
▁ob	-2886
ODE	-2887
▁rt	-2888
▁На	-2889
access	-2890
ROM	-2891
▁security	-2892
15	-2893
factory	-2894
pair	-2895
stats	-2896
Mode	-2897
dified	-2898
PA	-2899
▁sm	-2900
("	-2901
▁operation	-2902
▁features	-2903
exception	-2904
verage	-2905
driver	-2906
Inter	-2907
component	-2908
ей	-2909
▁Or	-2910
Table	-2911
▁argv	-2912
HT	-2913
non	-2914
▁requests	-2915
▁bad	-2916
▁assign	-2917
missions	-2918
▁addon	-2919
labels	-2920
▁nd	-2921
▁обра	-2922
▁AttributeError	-2923
▁тако	-2924
▁attach	-2925
ultiple	-2926
andom	-2927
▁already	-2928
bound	-2929
split	-2930
find	-2931
rl	-2932
▁bound	-2933
▁reshape	-2934
▁seed	-2935
save	-2936
anel	-2937
buffer	-2938
ube	-2939
▁од	-2940
▁Po	-2941
▁dim	-2942
▁indices	-2943
▁av	-2944
DER	-2945
▁day	-2946
▁меня	-2947
92	-2948
exc	-2949
ollow	-2950
▁~	-2951
▁мето	-2952
return	-2953
paths	-2954
▁evalu	-2955
js	-2956
FO	-2957
teger	-2958
hs	-2959
клю	-2960
Point	-2961
sk	-2962
rency	-2963
Input	-2964
▁tz	-2965
▁contents	-2966
▁To	-2967
lang	-2968
CON	-2969
ных	-2970
serv	-2971
ged	-2972
▁enabled	-2973
▁mac	-2974
лен	-2975
hook	-2976
RA	-2977
▁масси	-2978
▁variables	-2979
height	-2980
▁tool	-2981
tags	-2982
Pre	-2983
▁14	-2984
dient	-2985
▁Image	-2986
ru	-2987
▁updated	-2988
control	-2989
job	-2990
▁дру	-2991
▁gl	-2992
▁sqrt	-2993
▁ошиб	-2994
18	-2995
rows	-2996
▁drop	-2997
vide	-2998
▁Do	-2999
▁points	-3000
af	-3001
vious	-3002
▁ok	-3003
▁property	-3004
0"	-3005
▁vals	-3006
ерез	-3007
▁weights	-3008
itive	-3009
▁media	-3010
rappe	-3011
га	-3012
Command	-3013
▁js	-3014
▁IP	-3015
disk	-3016
▁endswith	-3017
▁его	-3018
▁outfile	-3019
▁click	-3020
apter	-3021
lush	-3022
сы	-3023
▁-=	-3024
can	-3025
Label	-3026
ision	-3027
▁flag	-3028
мы	-3029
▁frappe	-3030
cd	-3031
cer	-3032
▁icon	-3033
▁extract	-3034
rer	-3035
Be	-3036
▁13	-3037
poch	-3038
▁configuration	-3039
MS	-3040
vals	-3041
▁elem	-3042
▁dat	-3043
зова	-3044
Or	-3045
▁Index	-3046
used	-3047
QL	-3048
▁month	-3049
▁io	-3050
pk	-3051
cert	-3052
empty	-3053
▁hostname	-3054
ATA	-3055
▁flow	-3056
Query	-3057
▁40	-3058
▁ww	-3059
bit	-3060
▁API	-3061
collection	-3062
▁fig	-3063
ться	-3064
▁ms	-3065
Address	-3066
▁upload	-3067
▁Comp	-3068
roy	-3069
Ed	-3070
rypt	-3071
IS	-3072
pository	-3073
▁sin	-3074
hod	-3075
cho	-3076
DB	-3077
▁может	-3078
Version	-3079
xture	-3080
75	-3081
utor	-3082
np	-3083
ache	-3084
calls	-3085
▁resources	-3086
peed	-3087
▁после	-3088
umb	-3089
▁"2	-3090
▁Create	-3091
errors	-3092
▁png	-3093
TH	-3094
ств	-3095
Att	-3096
▁center	-3097
eb	-3098
exp	-3099
CA	-3100
course	-3101
Format	-3102
..	-3103
▁Message	-3104
ful	-3105
holder	-3106
▁са	-3107
▁iprot	-3108
INT	-3109
true	-3110
▁З	-3111
uest	-3112
.3	-3113
▁missing	-3114
aly	-3115
.0.0	-3116
▁est	-3117
▁multi	-3118
vas	-3119
▁null	-3120
ability	-3121
▁available	-3122
тов	-3123
▁rb	-3124
float	-3125
▁Sh	-3126
IP	-3127
▁доба	-3128
ire	-3129
▁через	-3130
▁nan	-3131
▁'1'	-3132
irtual	-3133
али	-3134
sel	-3135
▁Is	-3136
▁got	-3137
▁дол	-3138
ialog	-3139
▁predi	-3140
▁ста	-3141
▁br	-3142
▁proc	-3143
UM	-3144
▁route	-3145
▁Item	-3146
▁assertNot	-3147
udio	-3148
ze	-3149
abs	-3150
cript	-3151
▁FROM	-3152
▁confi	-3153
▁exclude	-3154
▁loss	-3155
tered	-3156
pb	-3157
▁fmt	-3158
scale	-3159
Color	-3160
expected	-3161
batch	-3162
On	-3163
▁period	-3164
▁Text	-3165
widget	-3166
dtype	-3167
ority	-3168
();	-3169
▁lookup	-3170
▁summary	-3171
ilter	-3172
▁ev	-3173
ariant	-3174
Sub	-3175
▁SELECT	-3176
▁round	-3177
si	-3178
almost	-3179
▁Valid	-3180
assert	-3181
binary	-3182
▁book	-3183
▁parameter	-3184
▁Bu	-3185
▁Runtime	-3186
show	-3187
Ret	-3188
▁after	-3189
attribute	-3190
▁255	-3191
▁arange	-3192
ish	-3193
▁short	-3194
NotFound	-3195
▁endpoint	-3196
▁td	-3197
▁ind	-3198
inition	-3199
states	-3200
22	-3201
▁builder	-3202
▁wrap	-3203
AIN	-3204
tuple	-3205
container	-3206
properties	-3207
▁ur	-3208
▁WH	-3209
▁astype	-3210
▁expand	-3211
▁timedelta	-3212
system	-3213
ef	-3214
validate	-3215
▁Base	-3216
ncies	-3217
▁cpu	-3218
▁accept	-3219
▁conv	-3220
▁sent	-3221
▁dtypes	-3222
Gui	-3223
less	-3224
rigger	-3225
changed	-3226
Child	-3227
▁проблем	-3228
ALI	-3229
▁OS	-3230
als	-3231
Control	-3232
▁was	-3233
▁reference	-3234
ness	-3235
img	-3236
▁credentials	-3237
effect	-3238
▁late	-3239
▁cc	-3240
style	-3241
ему	-3242
▁django	-3243
▁mail	-3244
▁price	-3245
coord	-3246
▁begin	-3247
Entry	-3248
емен	-3249
▁Event	-3250
▁пра	-3251
-0	-3252
tn	-3253
question	-3254
http	-3255
UG	-3256
helper	-3257
gate	-3258
3"	-3259
lector	-3260
▁alias	-3261
▁tokens	-3262
mer	-3263
ceived	-3264
▁pad	-3265
_4	-3266
нима	-3267
▁sock	-3268
▁indent	-3269
sw	-3270
reshold	-3271
▁actions	-3272
ometry	-3273
▁dummy	-3274
Layout	-3275
Mo	-3276
cor	-3277
classes	-3278
ificate	-3279
▁testing	-3280
▁days	-3281
68	-3282
Dis	-3283
ABLE	-3284
▁states	-3285
пи	-3286
▁fra	-3287
amily	-3288
▁mox	-3289
Core	-3290
ivity	-3291
▁keep	-3292
EL	-3293
▁сво	-3294
▁cv	-3295
зи	-3296
▁sequence	-3297
proto	-3298
▁called	-3299
▁paths	-3300
ationError	-3301
▁dag	-3302
gb	-3303
▁ctxt	-3304
▁reader	-3305
▁branch	-3306
lap	-3307
IC	-3308
lected	-3309
бра	-3310
▁enc	-3311
▁ER	-3312
▁сер	-3313
▁byte	-3314
FILE	-3315
cene	-3316
▁warnings	-3317
ian	-3318
logger	-3319
SION	-3320
▁Resource	-3321
OP	-3322
▁annot	-3323
ную	-3324
Fa	-3325
ils	-3326
score	-3327
lig	-3328
8'	-3329
agent	-3330
OD	-3331
▁бо	-3332
▁Client	-3333
▁tick	-3334
Device	-3335
menu	-3336
▁Fake	-3337
▁Up	-3338
▁note	-3339
▁www	-3340
▁subscription	-3341
OS	-3342
▁inf	-3343
RL	-3344
▁urllib	-3345
▁redu	-3346
directory	-3347
▁sender	-3348
grade	-3349
stop	-3350
▁destination	-3351
ee	-3352
▁operator	-3353
▁Any	-3354
цию	-3355
▁Log	-3356
▁six	-3357
Run	-3358
▁arguments	-3359
▁cook	-3360
KEY	-3361
▁false	-3362
▁зада	-3363
▁abc	-3364
▁файл	-3365
▁cp	-3366
▁Я	-3367
UB	-3368
lip	-3369
▁qs	-3370
▁25	-3371
ров	-3372
▁partner	-3373
▁binary	-3374
mar	-3375
▁company	-3376
▁share	-3377
▁symbol	-3378
▁nb	-3379
first	-3380
Date	-3381
тер	-3382
▁duration	-3383
Tag	-3384
▁lst	-3385
sec	-3386
13	-3387
▁seconds	-3388
▁metric	-3389
▁constants	-3390
▁answer	-3391
▁stub	-3392
сть	-3393
actions	-3394
▁assertAll	-3395
uch	-3396
off	-3397
invalid	-3398
regate	-3399
DIR	-3400
▁depth	-3401
Server	-3402
▁grad	-3403
▁Failed	-3404
SON	-3405
▁OK	-3406
left	-3407
As	-3408
utable	-3409
Len	-3410
▁ком	-3411
▁rot	-3412
▁padding	-3413
▁Есть	-3414
▁units	-3415
йте	-3416
ща	-3417
-9	-3418
▁FI	-3419
Tra	-3420
Number	-3421
ная	-3422
ZE	-3423
▁24	-3424
ERE	-3425
eq	-3426
▁secret	-3427
▁basename	-3428
ORM	-3429
▁progress	-3430
cb	-3431
features	-3432
metri	-3433
enu	-3434
▁matrix	-3435
pose	-3436
луча	-3437
чно	-3438
пример	-3439
pg	-3440
models	-3441
select	-3442
▁rect	-3443
.4	-3444
▁работает	-3445
prec	-3446
ifest	-3447
TER	-3448
flags	-3449
▁си	-3450
exte	-3451
alled	-3452
▁Про	-3453
card	-3454
96	-3455
▁sur	-3456
scribe	-3457
cii	-3458
▁freq	-3459
gt	-3460
▁tor	-3461
cheme	-3462
head	-3463
▁Qu	-3464
▁And	-3465
каза	-3466
exists	-3467
▁radi	-3468
▁RuntimeError	-3469
ribution	-3470
Fe	-3471
Output	-3472
са	-3473
це	-3474
loop	-3475
▁PRO	-3476
med	-3477
rep	-3478
▁refresh	-3479
cessed	-3480
samples	-3481
day	-3482
▁rv	-3483
▁Object	-3484
SH	-3485
▁backup	-3486
▁bit	-3487
edge	-3488
arm	-3489
andid	-3490
нов	-3491
alle	-3492
encode	-3493
▁DataFrame	-3494
reque	-3495
acy	-3496
rict	-3497
requi	-3498
▁AT	-3499
▁flush	-3500
▁commands	-3501
▁den	-3502
грам	-3503
▁suffix	-3504
Valid	-3505
timestamp	-3506
OMAIN	-3507
ря	-3508
▁slice	-3509
ilt	-3510
series	-3511
▁hour	-3512
ды	-3513
schema	-3514
SC	-3515
rit	-3516
5'	-3517
cl	-3518
▁exceptions	-3519
Spec	-3520
_0	-3521
▁high	-3522
▁regex	-3523
entries	-3524
isode	-3525
▁Response	-3526
attrs	-3527
30	-3528
import	-3529
че	-3530
attributes	-3531
ota	-3532
▁extension	-3533
ша	-3534
▁layers	-3535
▁А	-3536
▁identifier	-3537
▁norm	-3538
▁Check	-3539
formation	-3540
▁usage	-3541
▁memory	-3542
▁interval	-3543
▁existing	-3544
74	-3545
▁HttpResponse	-3546
▁URL	-3547
dims	-3548
▁У	-3549
Ad	-3550
scape	-3551
nsure	-3552
wrap	-3553
unicode	-3554
▁cb	-3555
tex	-3556
Content	-3557
▁fixed	-3558
opts	-3559
▁term	-3560
API	-3561
▁Dis	-3562
ips	-3563
ixel	-3564
▁sync	-3565
▁Но	-3566
▁объек	-3567
ASE	-3568
▁42	-3569
umer	-3570
lack	-3571
▁Column	-3572
▁simple	-3573
aut	-3574
ished	-3575
dest	-3576
▁shared	-3577
▁background	-3578
▁Run	-3579
sted	-3580
▁Ac	-3581
том	-3582
▁deserialize	-3583
▁proto	-3584
lex	-3585
▁primary	-3586
▁evaluate	-3587
src	-3588
▁чис	-3589
дин	-3590
fin	-3591
success	-3592
▁ones	-3593
ats	-3594
Callback	-3595
dic	-3596
ake	-3597
span	-3598
▁ty	-3599
▁before	-3600
▁choice	-3601
▁WHERE	-3602
aff	-3603
gument	-3604
чить	-3605
▁power	-3606
▁sk	-3607
▁student	-3608
std	-3609
lative	-3610
Dialog	-3611
atio	-3612
▁sep	-3613
AP	-3614
bind	-3615
▁запрос	-3616
▁setattr	-3617
tools	-3618
And	-3619
▁contact	-3620
raises	-3621
pay	-3622
▁none	-3623
ross	-3624
▁writer	-3625
▁просто	-3626
▁done	-3627
▁CO	-3628
▁resolve	-3629
▁chain	-3630
chain	-3631
enabled	-3632
▁shell	-3633
Reg	-3634
▁choices	-3635
sing	-3636
▁series	-3637
▁helper	-3638
▁worker	-3639
▁mp	-3640
▁quant	-3641
▁running	-3642
▁Не	-3643
▁rate	-3644
▁LI	-3645
▁sn	-3646
olute	-3647
ете	-3648
▁..	-3649
Rec	-3650
▁utc	-3651
display	-3652
asure	-3653
details	-3654
▁вот	-3655
▁QtGui	-3656
ctionary	-3657
98	-3658
▁Auth	-3659
OUT	-3660
▁distance	-3661
▁использовать	-3662
columns	-3663
три	-3664
▁ssh	-3665
▁you	-3666
PATH	-3667
ulation	-3668
▁origin	-3669
Int	-3670
dle	-3671
▁organ	-3672
▁red	-3673
▁flavor	-3674
cores	-3675
▁tear	-3676
_3	-3677
▁сто	-3678
▁push	-3679
uff	-3680
▁yaml	-3681
▁follow	-3682
▁табли	-3683
itional	-3684
▁ssl	-3685
istration	-3686
game	-3687
ony	-3688
edit	-3689
lain	-3690
▁details	-3691
Ns	-3692
uplic	-3693
▁factory	-3694
ites	-3695
olog	-3696
▁<<	-3697
рой	-3698
▁need	-3699
objects	-3700
Attribute	-3701
Source	-3702
cell	-3703
▁identity	-3704
mapping	-3705
▁quote	-3706
▁Model	-3707
▁history	-3708
oolean	-3709
role	-3710
ases	-3711
iment	-3712
prob	-3713
▁google	-3714
track	-3715
▁supported	-3716
uni	-3717
▁быть	-3718
seq	-3719
лся	-3720
sql	-3721
extra	-3722
▁mid	-3723
▁Qgs	-3724
▁tar	-3725
▁hidden	-3726
▁partition	-3727
▁unpack	-3728
▁world	-3729
Method	-3730
▁сле	-3731
ros	-3732
▁tax	-3733
▁acc	-3734
Ro	-3735
▁1"	-3736
▁team	-3737
▁mapping	-3738
▁modules	-3739
▁vert	-3740
▁ERROR	-3741
Per	-3742
▁каж	-3743
lert	-3744
events	-3745
▁previous	-3746
▁css	-3747
ueue	-3748
▁FA	-3749
▁factor	-3750
▁400	-3751
▁fast	-3752
▁curr	-3753
ested	-3754
like	-3755
pendencies	-3756
▁visit	-3757
ан	-3758
olution	-3759
▁This	-3760
▁Date	-3761
td	-3762
ровать	-3763
alt	-3764
▁cos	-3765
Connection	-3766
▁страни	-3767
▁который	-3768
▁safe	-3769
ью	-3770
▁он	-3771
▁delay	-3772
76	-3773
▁prec	-3774
Desc	-3775
▁pair	-3776
boot	-3777
▁screen	-3778
▁IO	-3779
lt	-3780
AND	-3781
▁cy	-3782
unch	-3783
▁direction	-3784
▁scan	-3785
▁inner	-3786
andard	-3787
▁axes	-3788
Return	-3789
static	-3790
▁случа	-3791
Header	-3792
CTION	-3793
▁"1	-3794
cls	-3795
▁tearDown	-3796
▁tasks	-3797
▁allowed	-3798
36	-3799
▁instances	-3800
property	-3801
repo	-3802
▁Path	-3803
tx	-3804
uture	-3805
cap	-3806
datetime	-3807
GER	-3808
▁star	-3809
▁При	-3810
ram	-3811
▁Trans	-3812
STR	-3813
imat	-3814
▁App	-3815
ное	-3816
▁span	-3817
▁submit	-3818
▁{0	-3819
обра	-3820
storage	-3821
none	-3822
▁фор	-3823
factor	-3824
▁nn	-3825
▁off	-3826
Pa	-3827
▁retry	-3828
chine	-3829
▁embed	-3830
▁DB	-3831
▁align	-3832
mpt	-3833
Token	-3834
▁using	-3835
ategy	-3836
clean	-3837
Link	-3838
▁external	-3839
▁'12	-3840
indices	-3841
▁deleted	-3842
тель	-3843
▁cast	-3844
▁comm	-3845
▁double	-3846
дер	-3847
ANG	-3848
Close	-3849
▁locale	-3850
▁entries	-3851
▁выво	-3852
▁atom	-3853
Layer	-3854
▁ren	-3855
Oper	-3856
▁fc	-3857
Module	-3858
▁console	-3859
▁filepath	-3860
ane	-3861
▁used	-3862
Level	-3863
▁INT	-3864
▁browser	-3865
▁optim	-3866
full	-3867
▁rules	-3868
▁equal	-3869
login	-3870
фи	-3871
other	-3872
▁1024	-3873
snapshot	-3874
00\	-3875
ynam	-3876
Row	-3877
done	-3878
▁hello	-3879
site	-3880
▁counter	-3881
scriptor	-3882
▁вер	-3883
▁Р	-3884
▁tri	-3885
кры	-3886
72	-3887
▁поль	-3888
▁cancel	-3889
total	-3890
▁beta	-3891
▁...	-3892
ctx	-3893
ocument	-3894
▁Мо	-3895
▁ти	-3896
▁require	-3897
orter	-3898
▁dr	-3899
дую	-3900
94	-3901
ured	-3902
alk	-3903
95	-3904
LAG	-3905
▁free	-3906
90	-3907
ice	-3908
resses	-3909
orig	-3910
▁switch	-3911
An	-3912
Process	-3913
▁card	-3914
vector	-3915
чен	-3916
▁issue	-3917
▁sensor	-3918
▁question	-3919
ia	-3920
▁services	-3921
▁matches	-3922
▁publish	-3923
Filter	-3924
ategories	-3925
Do	-3926
inputs	-3927
join	-3928
▁Mag	-3929
zip	-3930
br	-3931
▁reply	-3932
UE	-3933
▁перемен	-3934
▁Вы	-3935
▁tod	-3936
гру	-3937
miss	-3938
▁initialize	-3939
▁Instance	-3940
buf	-3941
desc	-3942
▁мне	-3943
▁unknown	-3944
No	-3945
ONE	-3946
▁reduce	-3947
amma	-3948
mc	-3949
Block	-3950
▁hook	-3951
PRO	-3952
ptr	-3953
ocker	-3954
au	-3955
proxy	-3956
commit	-3957
▁Б	-3958
▁404	-3959
▁prepare	-3960
Obj	-3961
Ref	-3962
▁gtk	-3963
Resource	-3964
▁cleaned	-3965
grid	-3966
▁rpc	-3967
▁stride	-3968
dataset	-3969
▁rank	-3970
ourse	-3971
eval	-3972
▁lon	-3973
oto	-3974
▁bro	-3975
▁System	-3976
▁програм	-3977
▁internal	-3978
ются	-3979
Start	-3980
periment	-3981
70	-3982
▁ws	-3983
▁devices	-3984
ftime	-3985
global	-3986
description	-3987
▁Task	-3988
raft	-3989
▁данные	-3990
▁words	-3991
flag	-3992
▁Out	-3993
gy	-3994
loss	-3995
▁alt	-3996
▁deep	-3997
▁detail	-3998
▁'0'	-3999
▁poly	-4000
usage	-4001
35	-4002
rable	-4003
▁archive	-4004
▁тек	-4005
ctype	-4006
▁single	-4007
▁ec	-4008
EXT	-4009
ести	-4010
▁clone	-4011
▁sparse	-4012
▁best	-4013
tach	-4014
▁blank	-4015
▁спис	-4016
▁et	-4017
85	-4018
stru	-4019
ход	-4020
entity	-4021
XX	-4022
▁=>	-4023
TO	-4024
Act	-4025
▁Per	-4026
paces	-4027
▁получа	-4028
provider	-4029
->	-4030
utes	-4031
84	-4032
light	-4033
ustome	-4034
normal	-4035
ест	-4036
ighb	-4037
loader	-4038
nn	-4039
ha	-4040
ULL	-4041
variables	-4042
Tree	-4043
bers	-4044
▁deli	-4045
▁sym	-4046
▁vars	-4047
org	-4048
pattern	-4049
▁cm	-4050
angle	-4051
Back	-4052
amera	-4053
▁hy	-4054
▁pt	-4055
▁sec	-4056
CP	-4057
gor	-4058
ITE	-4059
▁environment	-4060
▁packet	-4061
Property	-4062
▁eps	-4063
▁classes	-4064
▁tb	-4065
zero	-4066
▁tile	-4067
ars	-4068
▁escape	-4069
Task	-4070
▁0.2	-4071
▁emit	-4072
fd	-4073
▁rev	-4074
▁transaction	-4075
▁problem	-4076
▁defaults	-4077
ез	-4078
layout	-4079
▁ti	-4080
▁долж	-4081
EA	-4082
ении	-4083
▁00	-4084
▁boot	-4085
▁NOT	-4086
bum	-4087
▁isfile	-4088
ocab	-4089
▁program	-4090
▁On	-4091
ared	-4092
▁strftime	-4093
Template	-4094
SIZE	-4095
Case	-4096
▁constraint	-4097
present	-4098
ays	-4099
Mat	-4100
▁cred	-4101
▁uns	-4102
реде	-4103
convert	-4104
Def	-4105
single	-4106
interface	-4107
▁Group	-4108
regex	-4109
▁space	-4110
real	-4111
BUG	-4112
VICE	-4113
▁cols	-4114
complete	-4115
interval	-4116
▁Ч	-4117
tab	-4118
FIG	-4119
▁fun	-4120
ibility	-4121
▁mu	-4122
▁targets	-4123
▁запу	-4124
ithub	-4125
▁вс	-4126
▁Magic	-4127
faces	-4128
ца	-4129
ой	-4130
▁dom	-4131
ном	-4132
▁Open	-4133
▁repe	-4134
▁notify	-4135
вает	-4136
▁metrics	-4137
▁la	-4138
▁For	-4139
▁36	-4140
▁forward	-4141
▁TYPE	-4142
▁segment	-4143
▁реали	-4144
▁members	-4145
▁android	-4146
cei	-4147
NS	-4148
oci	-4149
decode	-4150
цы	-4151
dif	-4152
▁dl	-4153
children	-4154
::	-4155
Url	-4156
▁64	-4157
▁setText	-4158
▁gate	-4159
report	-4160
dk	-4161
cy	-4162
▁Dec	-4163
▁rs	-4164
▁two	-4165
▁tmpdir	-4166
ich	-4167
product	-4168
▁прави	-4169
ants	-4170
тельно	-4171
▁cloud	-4172
▁PI	-4173
▁pdf	-4174
00'	-4175
▁tt	-4176
after	-4177
CCE	-4178
Function	-4179
cu	-4180
▁translate	-4181
▁You	-4182
▁За	-4183
rf	-4184
▁seek	-4185
лов	-4186
▁partial	-4187
Changed	-4188
cing	-4189
▁library	-4190
▁mx	-4191
PORT	-4192
mig	-4193
istener	-4194
▁выпол	-4195
▁condition	-4196
Default	-4197
▁MagicMock	-4198
▁vector	-4199
ipient	-4200
rules	-4201
Regex	-4202
▁прилож	-4203
win	-4204
ending	-4205
Fla	-4206
▁servers	-4207
register	-4208
gorith	-4209
WOR	-4210
\\	-4211
▁пользова	-4212
null	-4213
self	-4214
tack	-4215
fetch	-4216
▁wrapper	-4217
term	-4218
▁xs	-4219
▁dialog	-4220
▁cannot	-4221
▁AL	-4222
▁Ptr	-4223
▁ValidationError	-4224
▁могу	-4225
UID	-4226
aa	-4227
Read	-4228
▁данных	-4229
тор	-4230
inv	-4231
▁помощ	-4232
ster	-4233
▁links	-4234
python	-4235
▁times	-4236
strip	-4237
Options	-4238
bucket	-4239
Protocol	-4240
▁пример	-4241
▁low	-4242
users	-4243
▁editor	-4244
▁shutil	-4245
▁deploy	-4246
▁dns	-4247
mean	-4248
ipe	-4249
opy	-4250
Types	-4251
▁sr	-4252
▁нет	-4253
▁State	-4254
▁registry	-4255
▁termin	-4256
ving	-4257
▁selection	-4258
ут	-4259
confi	-4260
ustomer	-4261
web	-4262
rpc	-4263
teri	-4264
oft	-4265
▁normalize	-4266
sens	-4267
▁ir	-4268
▁dx	-4269
Menu	-4270
ridge	-4271
▁'0	-4272
▁invoice	-4273
▁notification	-4274
▁board	-4275
messages	-4276
би	-4277
▁currency	-4278
▁seg	-4279
▁StringIO	-4280
Current	-4281
▁Cannot	-4282
Bar	-4283
ALL	-4284
ored	-4285
▁ATTR	-4286
▁qual	-4287
ology	-4288
rong	-4289
▁marker	-4290
▁border	-4291
dr	-4292
year	-4293
tty	-4294
debug	-4295
▁COM	-4296
▁кно	-4297
vironment	-4298
▁localhost	-4299
▁DOMAIN	-4300
arr	-4301
Part	-4302
aw	-4303
the	-4304
long	-4305
isten	-4306
▁realm	-4307
▁Command	-4308
▁abspath	-4309
ART	-4310
DATE	-4311
ilities	-4312
▁этого	-4313
available	-4314
SO	-4315
▁canvas	-4316
dm	-4317
можно	-4318
▁signature	-4319
Names	-4320
fit	-4321
риан	-4322
wh	-4323
...	-4324
utron	-4325
▁props	-4326
derer	-4327
lite	-4328
▁ск	-4329
▁bus	-4330
Update	-4331
ром	-4332
ynamic	-4333
▁xy	-4334
▁CH	-4335
▁Во	-4336
rest	-4337
▁pas	-4338
▁support	-4339
ATUS	-4340
▁18	-4341
▁Ко	-4342
▁х	-4343
backend	-4344
▁integer	-4345
ходит	-4346
▁DI	-4347
▁'201	-4348
weights	-4349
▁expression	-4350
▁review	-4351
▁setdefault	-4352
▁aa	-4353
▁сай	-4354
compute	-4355
рти	-4356
pted	-4357
▁AD	-4358
▁echo	-4359
URE	-4360
urnal	-4361
ited	-4362
▁glob	-4363
sen	-4364
async	-4365
▁disable	-4366
▁KE	-4367
▁уже	-4368
▁iso	-4369
language	-4370
▁вопрос	-4371
▁cla	-4372
jax	-4373
▁ce	-4374
▁placeholder	-4375
▁loader	-4376
"></	-4377
pid	-4378
▁Mo	-4379
MENT	-4380
ntax	-4381
▁assertIsNone	-4382
ression	-4383
PRE	-4384
imator	-4385
grad	-4386
ба	-4387
NET	-4388
trace	-4389
allow	-4390
▁ndim	-4391
▁Dict	-4392
izes	-4393
▁500	-4394
▁override	-4395
▁thumb	-4396
▁пу	-4397
▁sources	-4398
▁serialize	-4399
come	-4400
▁Course	-4401
contents	-4402
▁mount	-4403
em	-4404
▁priority	-4405
found	-4406
mac	-4407
▁Pre	-4408
▁Al	-4409
вание	-4410
hes	-4411
Struct	-4412
▁SO	-4413
.6	-4414
▁queryset	-4415
▁manage	-4416
▁traceback	-4417
▁Could	-4418
▁pg	-4419
▁deg	-4420
▁Gener	-4421
Stream	-4422
":	-4423
▁asset	-4424
▁NAME	-4425
ера	-4426
▁virtual	-4427
▁AND	-4428
author	-4429
Begin	-4430
▁Tra	-4431
Edit	-4432
▁relative	-4433
17	-4434
▁су	-4435
▁hosts	-4436
fake	-4437
▁randint	-4438
▁coords	-4439
sequence	-4440
▁Series	-4441
▁dime	-4442
▁java	-4443
loaded	-4444
random	-4445
oly	-4446
▁revision	-4447
alth	-4448
▁findall	-4449
SET	-4450
ние	-4451
cluster	-4452
):	-4453
ferences	-4454
Hel	-4455
Range	-4456
▁значение	-4457
Warning	-4458
▁рас	-4459
auto	-4460
exist	-4461
мени	-4462
norm	-4463
▁tw	-4464
tests	-4465
▁By	-4466
gent	-4467
▁browse	-4468
Application	-4469
сыл	-4470
ным	-4471
▁angle	-4472
zz	-4473
ifact	-4474
▁He	-4475
▁your	-4476
git	-4477
click	-4478
PER	-4479
alys	-4480
Ac	-4481
multi	-4482
Iter	-4483
ffi	-4484
allclose	-4485
▁cid	-4486
LOG	-4487
▁percent	-4488
▁predict	-4489
▁UN	-4490
▁epoch	-4491
▁New	-4492
CHE	-4493
public	-4494
▁face	-4495
sv	-4496
umeric	-4497
▁провер	-4498
▁DEBUG	-4499
ven	-4500
cols	-4501
▁ord	-4502
activ	-4503
lar	-4504
Width	-4505
period	-4506
just	-4507
images	-4508
44	-4509
19	-4510
gorithm	-4511
▁ци	-4512
alysis	-4513
▁Line	-4514
▁Session	-4515
▁fire	-4516
▁ensure	-4517
feature	-4518
лось	-4519
dn	-4520
▁KEY	-4521
pv	-4522
-2	-4523
▁components	-4524
served	-4525
rectory	-4526
ier	-4527
чу	-4528
▁tables	-4529
Sy	-4530
▁when	-4531
wait	-4532
missing	-4533
▁country	-4534
▁кноп	-4535
▁but	-4536
▁Reg	-4537
▁stock	-4538
gative	-4539
▁setting	-4540
▁2'	-4541
▁slot	-4542
▁candid	-4543
▁Window	-4544
transform	-4545
▁cached	-4546
credentials	-4547
▁ftype	-4548
icon	-4549
▁вр	-4550
ather	-4551
▁mi	-4552
▁changes	-4553
Auth	-4554
▁scheme	-4555
ECT	-4556
▁timezone	-4557
▁ascii	-4558
parts	-4559
▁destroy	-4560
thing	-4561
▁ло	-4562
eded	-4563
Enabled	-4564
▁поня	-4565
lim	-4566
▁22	-4567
▁Project	-4568
▁ctypes	-4569
aterial	-4570
▁related	-4571
▁scal	-4572
▁би	-4573
▁UP	-4574
safe	-4575
FT	-4576
Exist	-4577
▁их	-4578
pop	-4579
execute	-4580
prop	-4581
install	-4582
stract	-4583
resources	-4584
▁80	-4585
ют	-4586
▁UT	-4587
▁latest	-4588
▁17	-4589
undle	-4590
▁Inter	-4591
LAGS	-4592
rag	-4593
instances	-4594
filters	-4595
▁19	-4596
▁sigma	-4597
▁isdir	-4598
зуль	-4599
▁that	-4600
▁один	-4601
▁authentic	-4602
▁Python	-4603
rive	-4604
вается	-4605
▁dc	-4606
DS	-4607
▁pie	-4608
tmp	-4609
Parameter	-4610
PUT	-4611
вания	-4612
▁Foo	-4613
▁correct	-4614
QUEST	-4615
▁сра	-4616
▁следую	-4617
▁Hel	-4618
▁PIPE	-4619
чему	-4620
utdown	-4621
▁channels	-4622
Create	-4623
▁Вот	-4624
wn	-4625
▁переда	-4626
▁samples	-4627
txt	-4628
▁hist	-4629
Su	-4630
лее	-4631
▁OSError	-4632
Column	-4633
рук	-4634
running	-4635
▁zero	-4636
▁episode	-4637
olver	-4638
▁cir	-4639
▁99	-4640
Policy	-4641
ACK	-4642
SP	-4643
▁Sy	-4644
Cache	-4645
ario	-4646
▁ма	-4647
Rule	-4648
mostEqual	-4649
Ut	-4650
Session	-4651
▁cost	-4652
▁steps	-4653
▁IOError	-4654
▁libvirt	-4655
3456	-4656
▁уда	-4657
▁Le	-4658
AlmostEqual	-4659
trl	-4660
▁Table	-4661
precated	-4662
mitive	-4663
▁compare	-4664
▁fore	-4665
▁SER	-4666
▁Ad	-4667
▁ба	-4668
▁expi	-4669
▁obs	-4670
ace	-4671
▁hide	-4672
▁Num	-4673
inte	-4674
▁dete	-4675
▁надо	-4676
comment	-4677
▁theta	-4678
socket	-4679
жите	-4680
urs	-4681
▁let	-4682
▁такой	-4683
▁mime	-4684
▁contrib	-4685
Files	-4686
▁XML	-4687
dify	-4688
зульта	-4689
▁Update	-4690
lookup	-4691
▁Unknown	-4692
▁Met	-4693
arguments	-4694
LETE	-4695
sort	-4696
exit	-4697
▁ag	-4698
▁Variable	-4699
common	-4700
вый	-4701
links	-4702
member	-4703
▁pickle	-4704
▁ipv	-4705
inary	-4706
tasks	-4707
77	-4708
▁cookie	-4709
router	-4710
assign	-4711
▁0.00	-4712
▁radius	-4713
▁recv	-4714
mas	-4715
lier	-4716
PO	-4717
▁Service	-4718
defined	-4719
▁ls	-4720
▁stage	-4721
▁Start	-4722
Params	-4723
alance	-4724
mous	-4725
Port	-4726
▁EN	-4727
вал	-4728
▁помощью	-4729
fc	-4730
▁mys	-4731
steps	-4732
▁Input	-4733
▁sg	-4734
csv	-4735
▁analy	-4736
▁records	-4737
▁Please	-4738
▁случае	-4739
istent	-4740
мя	-4741
▁repository	-4742
▁го	-4743
verify	-4744
Plugin	-4745
lished	-4746
tore	-4747
ription	-4748
seconds	-4749
mbols	-4750
history	-4751
▁want	-4752
▁lineno	-4753
uting	-4754
▁article	-4755
▁Gtk	-4756
ench	-4757
▁trigger	-4758
bad	-4759
▁Integer	-4760
wall	-4761
▁conver	-4762
▁perm	-4763
ices	-4764
▁tk	-4765
center	-4766
▁вариан	-4767
▁rm	-4768
Max	-4769
▁AR	-4770
counter	-4771
tyle	-4772
▁elements	-4773
▁attrib	-4774
▁использу	-4775
▁es	-4776
price	-4777
▁plugins	-4778
IM	-4779
▁dispatch	-4780
▁nick	-4781
Pack	-4782
▁manifest	-4783
Logger	-4784
66	-4785
▁may	-4786
ressed	-4787
sensitive	-4788
▁light	-4789
вл	-4790
erature	-4791
▁написа	-4792
▁family	-4793
▁workflow	-4794
▁ln	-4795
▁tv	-4796
ITY	-4797
▁complete	-4798
▁tempfile	-4799
▁views	-4800
tract	-4801
▁na	-4802
ket	-4803
▁tools	-4804
▁без	-4805
iven	-4806
▁USER	-4807
▁Unable	-4808
▁Element	-4809
Length	-4810
▁bg	-4811
requency	-4812
бу	-4813
tool	-4814
▁SH	-4815
onymous	-4816
▁mis	-4817
▁име	-4818
▁configure	-4819
енно	-4820
▁Read	-4821
Gener	-4822
▁mesh	-4823
▁clip	-4824
обходи	-4825
ount	-4826
custom	-4827
▁remain	-4828
▁>>	-4829
iteral	-4830
vels	-4831
00000000	-4832
ndar	-4833
Args	-4834
▁Point	-4835
Thread	-4836
▁basic	-4837
▁blob	-4838
▁margin	-4839
▁cn	-4840
▁same	-4841
▁массив	-4842
iki	-4843
▁Pri	-4844
▁Default	-4845
crement	-4846
▁pur	-4847
кой	-4848
dt	-4849
endpoint	-4850
oom	-4851
uplicate	-4852
Contains	-4853
php	-4854
▁запис	-4855
generate	-4856
lick	-4857
UTH	-4858
▁organization	-4859
▁asarray	-4860
▁VER	-4861
oriz	-4862
scal	-4863
нее	-4864
▁ports	-4865
))	-4866
▁"1"	-4867
▁nova	-4868
▁10000	-4869
54	-4870
▁Import	-4871
wrapper	-4872
▁Tag	-4873
SQL	-4874
Min	-4875
counts	-4876
▁activity	-4877
38	-4878
▁MAX	-4879
Record	-4880
deserialize	-4881
▁relation	-4882
ater	-4883
▁wb	-4884
NING	-4885
rie	-4886
▁rename	-4887
▁EV	-4888
▁том	-4889
▁runner	-4890
▁сло	-4891
▁Э	-4892
▁QtCore	-4893
чест	-4894
▁more	-4895
▁deepcopy	-4896
▁Под	-4897
summary	-4898
йст	-4899
▁gateway	-4900
▁Graph	-4901
ffect	-4902
▁aggregate	-4903
----	-4904
System	-4905
▁saved	-4906
▁нуж	-4907
▁gc	-4908
▁modified	-4909
devices	-4910
Title	-4911
100	-4912
▁опреде	-4913
security	-4914
elements	-4915
▁эти	-4916
JECT	-4917
PTION	-4918
units	-4919
licit	-4920
▁друго	-4921
▁бло	-4922
▁timer	-4923
▁Так	-4924
fill	-4925
document	-4926
-4	-4927
quire	-4928
▁nt	-4929
▁Network	-4930
▁Assert	-4931
DF	-4932
Settings	-4933
ells	-4934
тому	-4935
▁suite	-4936
cont	-4937
▁JSON	-4938
▁area	-4939
▁cwd	-4940
park	-4941
бе	-4942
▁rp	-4943
Variable	-4944
UI	-4945
▁dig	-4946
▁flatten	-4947
▁big	-4948
depth	-4949
тно	-4950
▁Decimal	-4951
▁указа	-4952
++	-4953
1,	-4954
вто	-4955
▁врем	-4956
tick	-4957
.1'	-4958
amount	-4959
compile	-4960
37	-4961
dep	-4962
ран	-4963
Pri	-4964
▁bias	-4965
eys	-4966
▁Pack	-4967
Cre	-4968
▁bb	-4969
▁Template	-4970
▁Ent	-4971
▁disabled	-4972
']	-4973
▁cf	-4974
quested	-4975
▁Process	-4976
▁oc	-4977
OWN	-4978
download	-4979
▁где	-4980
USER	-4981
expr	-4982
сту	-4983
ulk	-4984
▁coordin	-4985
▁capt	-4986
ado	-4987
Items	-4988
▁IndexError	-4989
▁closed	-4990
vie	-4991
▁baz	-4992
lin	-4993
tended	-4994
initial	-4995
▁Field	-4996
uint	-4997
warn	-4998
▁gf	-4999
servation	-5000
ventory	-5001
▁fh	-5002
▁ссыл	-5003
▁3.0	-5004
dl	-5005
▁Bo	-5006
▁COL	-5007
▁contain	-5008
PS	-5009
nail	-5010
COL	-5011
vec	-5012
jor	-5013
▁пред	-5014
вра	-5015
FIX	-5016
▁AN	-5017
chunk	-5018
▁Web	-5019
oth	-5020
vol	-5021
Vector	-5022
▁pc	-5023
▁Write	-5024
щий	-5025
freq	-5026
rence	-5027
▁Server	-5028
▁pages	-5029
▁ld	-5030
configuration	-5031
рип	-5032
category	-5033
Match	-5034
▁fid	-5035
payload	-5036
▁GL	-5037
▁scene	-5038
unique	-5039
Network	-5040
Var	-5041
▁ту	-5042
▁Connection	-5043
▁Ну	-5044
cel	-5045
raction	-5046
▁дела	-5047
Host	-5048
▁charac	-5049
eries	-5050
uses	-5051
schedule	-5052
parameter	-5053
pendency	-5054
lave	-5055
▁8"	-5056
▁serializer	-5057
sync	-5058
6'	-5059
▁bottom	-5060
ений	-5061
constraint	-5062
Work	-5063
engine	-5064
▁confirm	-5065
cursor	-5066
outputs	-5067
▁pred	-5068
▁stdin	-5069
▁added	-5070
▁Что	-5071
мво	-5072
есь	-5073
▁xx	-5074
▁will	-5075
pred	-5076
press	-5077
ons	-5078
Position	-5079
▁training	-5080
▁Oper	-5081
COM	-5082
▁ri	-5083
▁collections	-5084
▁received	-5085
AA	-5086
covery	-5087
acity	-5088
▁forms	-5089
▁machine	-5090
Const	-5091
processed	-5092
abilities	-5093
▁rng	-5094
▁stubs	-5095
required	-5096
include	-5097
мента	-5098
▁уста	-5099
.8	-5100
▁room	-5101
▁enter	-5102
▁Для	-5103
▁gamma	-5104
trib	-5105
▁функции	-5106
▁deserialized	-5107
▁Lib	-5108
▁variant	-5109
▁Tensor	-5110
▁contains	-5111
рамет	-5112
slice	-5113
вис	-5114
▁AndReturn	-5115
GET	-5116
▁pp	-5117
Values	-5118
ific	-5119
▁ele	-5120
simple	-5121
▁roll	-5122
▁verb	-5123
▁получить	-5124
▁SIG	-5125
▁floating	-5126
▁fo	-5127
CS	-5128
▁docker	-5129
▁dy	-5130
▁updates	-5131
rays	-5132
▁inspect	-5133
FORM	-5134
actor	-5135
▁этом	-5136
▁метод	-5137
metric	-5138
area	-5139
▁decimal	-5140
($	-5141
скажите	-5142
▁когда	-5143
vr	-5144
▁Author	-5145
this	-5146
▁exe	-5147
▁Ab	-5148
▁threshold	-5149
▁packages	-5150
▁plain	-5151
▁speed	-5152
▁rhs	-5153
getitem	-5154
username	-5155
▁mult	-5156
▁enum	-5157
progress	-5158
пе	-5159
▁tp	-5160
▁OR	-5161
▁lb	-5162
колько	-5163
▁resize	-5164
▁atol	-5165
▁yes	-5166
▁Argument	-5167
▁inp	-5168
▁generator	-5169
▁comments	-5170
▁unittest	-5171
ulator	-5172
▁Su	-5173
secret	-5174
unic	-5175
Py	-5176
▁sen	-5177
256	-5178
rowser	-5179
▁logs	-5180
▁experiment	-5181
dp	-5182
▁responses	-5183
▁blocks	-5184
▁интер	-5185
quare	-5186
▁PATH	-5187
▁spa	-5188
▁present	-5189
▁snap	-5190
Call	-5191
ок	-5192
▁alert	-5193
cfg	-5194
mag	-5195
pet	-5196
▁LO	-5197
▁scheduler	-5198
mm	-5199
raise	-5200
▁AS	-5201
▁errno	-5202
чески	-5203
distance	-5204
reference	-5205
▁collect	-5206
REATE	-5207
nan	-5208
ixed	-5209
des	-5210
plan	-5211
nsity	-5212
▁300	-5213
emon	-5214
▁PA	-5215
permission	-5216
URCE	-5217
рес	-5218
TIME	-5219
Driver	-5220
7.0.0	-5221
▁реш	-5222
agg	-5223
semb	-5224
▁ndarray	-5225
Profile	-5226
replace	-5227
oose	-5228
▁projects	-5229
home	-5230
▁Rec	-5231
upload	-5232
▁comb	-5233
▁mkdir	-5234
istered	-5235
▁файла	-5236
xx	-5237
▁failure	-5238
Val	-5239
override	-5240
Exec	-5241
modules	-5242
channels	-5243
▁colors	-5244
▁90	-5245
controller	-5246
▁migration	-5247
-3	-5248
йти	-5249
generator	-5250
▁vs	-5251
VAL	-5252
numpy	-5253
▁cleanup	-5254
▁cov	-5255
▁strict	-5256
▁Label	-5257
▁keyword	-5258
adcast	-5259
▁php	-5260
▁например	-5261
▁rstrip	-5262
▁результа	-5263
ship	-5264
▁today	-5265
atar	-5266
▁roles	-5267
▁er	-5268
oration	-5269
ву	-5270
▁MET	-5271
▁compat	-5272
extension	-5273
esNot	-5274
▁US	-5275
▁Bad	-5276
leg	-5277
ferred	-5278
▁soft	-5279
▁оста	-5280
ral	-5281
▁diffe	-5282
gpu	-5283
▁been	-5284
rift	-5285
terns	-5286
▁recipient	-5287
riend	-5288
▁правильно	-5289
stone	-5290
▁23	-5291
▁diag	-5292
rel	-5293
▁се	-5294
▁'10	-5295
▁phi	-5296
▁album	-5297
▁Act	-5298
serve	-5299
Script	-5300
▁эк	-5301
Dist	-5302
ако	-5303
▁этот	-5304
terable	-5305
hosts	-5306
23	-5307
example	-5308
Ge	-5309
▁assertAllEqual	-5310
▁assertIsNot	-5311
▁Expected	-5312
UNT	-5313
.0'	-5314
▁listdir	-5315
▁Union	-5316
ugh	-5317
оте	-5318
▁writeField	-5319
▁Address	-5320
чита	-5321
зна	-5322
▁geom	-5323
▁ус	-5324
▁pygame	-5325
▁charset	-5326
></	-5327
DATA	-5328
▁Simple	-5329
aries	-5330
▁monitor	-5331
Controller	-5332
align	-5333
parator	-5334
▁poll	-5335
▁Stop	-5336
▁sid	-5337
▁complex	-5338
rollment	-5339
▁panel	-5340
▁avg	-5341
medi	-5342
upported	-5343
▁парамет	-5344
▁proj	-5345
selected	-5346
лы	-5347
tion	-5348
before	-5349
release	-5350
▁боль	-5351
▁getvalue	-5352
▁ди	-5353
▁FILE	-5354
▁execution	-5355
▁permissions	-5356
ORE	-5357
▁bits	-5358
▁which	-5359
database	-5360
▁проек	-5361
▁Thread	-5362
sheet	-5363
subnet	-5364
▁audio	-5365
specs	-5366
pus	-5367
side	-5368
▁readline	-5369
remote	-5370
tokens	-5371
▁threading	-5372
▁Fe	-5373
▁github	-5374
▁значения	-5375
Style	-5376
▁256	-5377
uffle	-5378
gend	-5379
▁categories	-5380
▁NULL	-5381
60	-5382
MODE	-5383
cla	-5384
▁3.	-5385
▁само	-5386
▁black	-5387
chase	-5388
merge	-5389
power	-5390
kt	-5391
rees	-5392
cook	-5393
services	-5394
chor	-5395
▁vocab	-5396
defaults	-5397
ks	-5398
css	-5399
▁Output	-5400
Redirect	-5401
ja	-5402
▁pb	-5403
▁проблема	-5404
esNotExist	-5405
▁ff	-5406
▁dd	-5407
▁gt	-5408
namespace	-5409
Selection	-5410
blocks	-5411
▁filtered	-5412
andas	-5413
dump	-5414
▁nx	-5415
обходимо	-5416
orary	-5417
New	-5418
▁apps	-5419
assword	-5420
▁white	-5421
▁STATE	-5422
LED	-5423
IVE	-5424
Directory	-5425
▁subs	-5426
ariance	-5427
▁Page	-5428
ком	-5429
▁oauth	-5430
Order	-5431
codes	-5432
reset	-5433
lict	-5434
▁нес	-5435
▁Status	-5436
▁peer	-5437
ssible	-5438
rot	-5439
calc	-5440
▁requires	-5441
ыта	-5442
termin	-5443
▁btn	-5444
bits	-5445
▁extensions	-5446
Queue	-5447
▁строки	-5448
▁klass	-5449
▁ips	-5450
▁пользовате	-5451
▁makedirs	-5452
CCESS	-5453
32'	-5454
▁0'	-5455
wise	-5456
multiple	-5457
▁medi	-5458
Font	-5459
two	-5460
Target	-5461
initializer	-5462
['	-5463
layers	-5464
Job	-5465
force	-5466
рова	-5467
9'	-5468
▁rtol	-5469
font	-5470
ws	-5471
▁polling	-5472
▁dirs	-5473
фор	-5474
Ident	-5475
Pool	-5476
members	-5477
bb	-5478
▁cd	-5479
ocus	-5480
стро	-5481
ionError	-5482
▁INFO	-5483
▁имен	-5484
house	-5485
cover	-5486
runner	-5487
pick	-5488
▁кли	-5489
▁watch	-5490
▁take	-5491
▁ve	-5492
internal	-5493
At	-5494
▁journal	-5495
▁permission	-5496
▁Char	-5497
▁gu	-5498
feed	-5499
reader	-5500
7'	-5501
▁like	-5502
▁*=	-5503
allel	-5504
▁restore	-5505
atom	-5506
лить	-5507
88	-5508
вя	-5509
▁Number	-5510
▁payment	-5511
▁keras	-5512
▁precision	-5513
▁mapper	-5514
registry	-5515
Wrapper	-5516
▁xpath	-5517
▁good	-5518
▁assertNotEqual	-5519
▁clf	-5520
components	-5521
luded	-5522
setting	-5523
deleted	-5524
▁appro	-5525
▁prote	-5526
hcp	-5527
hex	-5528
▁TType	-5529
/2	-5530
struction	-5531
alias	-5532
ints	-5533
BO	-5534
Over	-5535
rank	-5536
▁dn	-5537
▁pin	-5538
▁urls	-5539
▁0;	-5540
cture	-5541
▁doctype	-5542
star	-5543
mpl	-5544
branch	-5545
sm	-5546
▁RO	-5547
lica	-5548
0_	-5549
▁retval	-5550
1.	-5551
▁Work	-5552
▁edges	-5553
times	-5554
▁decor	-5555
▁qty	-5556
▁entities	-5557
dot	-5558
▁128	-5559
▁descriptor	-5560
proc	-5561
▁Stub	-5562
▁jobs	-5563
▁quota	-5564
mploy	-5565
4_	-5566
pout	-5567
ssl	-5568
▁translation	-5569
▁ошибка	-5570
▁Popen	-5571
▁neutron	-5572
delay	-5573
▁utcnow	-5574
▁mm	-5575
Store	-5576
strings	-5577
reater	-5578
sig	-5579
cenario	-5580
вляется	-5581
rome	-5582
▁distribution	-5583
MPL	-5584
▁geo	-5585
▁runtime	-5586
pad	-5587
▁CF	-5588
byte	-5589
lusters	-5590
fp	-5591
вно	-5592
▁ку	-5593
▁таки	-5594
ools	-5595
▁соб	-5596
velo	-5597
▁Ed	-5598
▁цик	-5599
▁iface	-5600
▁repeat	-5601
related	-5602
▁special	-5603
▁rgb	-5604
▁validation	-5605
▁Can	-5606
Attributes	-5607
java	-5608
▁Ordered	-5609
Mem	-5610
Init	-5611
▁gs	-5612
▁каждо	-5613
without	-5614
▁SQL	-5615
▁vlan	-5616
ashboard	-5617
▁Cur	-5618
▁Load	-5619
jobs	-5620
VERSION	-5621
ptime	-5622
▁tc	-5623
digest	-5624
strument	-5625
▁structure	-5626
▁Be	-5627
signal	-5628
ceiver	-5629
ERROR	-5630
▁было	-5631
▁geometry	-5632
Shape	-5633
▁httplib	-5634
AC	-5635
NER	-5636
▁specified	-5637
▁shift	-5638
ands	-5639
impl	-5640
selection	-5641
▁скрип	-5642
https	-5643
ories	-5644
▁attemp	-5645
▁DATA	-5646
▁Version	-5647
quote	-5648
sys	-5649
▁1.5	-5650
▁отпра	-5651
дит	-5652
▁bs	-5653
Graph	-5654
ить	-5655
вед	-5656
▁Ro	-5657
▁mag	-5658
▁green	-5659
▁activation	-5660
insert	-5661
▁produ	-5662
▁definition	-5663
PP	-5664
lyph	-5665
Op	-5666
tend	-5667
sim	-5668
MIN	-5669
▁'2'	-5670
help	-5671
▁pending	-5672
▁assertIsNotNone	-5673
MD	-5674
flat	-5675
▁typ	-5676
▁чем	-5677
records	-5678
▁того	-5679
zen	-5680
ит	-5681
transaction	-5682
▁нажа	-5683
region	-5684
▁leg	-5685
вести	-5686
▁измен	-5687
fully	-5688
▁swap	-5689
40	-5690
▁xb	-5691
64'	-5692
ets	-5693
▁catalog	-5694
ways	-5695
▁attachment	-5696
SL	-5697
▁bundle	-5698
цу	-5699
▁versions	-5700
▁finish	-5701
END	-5702
▁Map	-5703
▁123	-5704
pts	-5705
▁bbox	-5706
▁blue	-5707
strap	-5708
▁dense	-5709
жалу	-5710
operator	-5711
▁nor	-5712
▁tail	-5713
▁вто	-5714
Sign	-5715
▁calls	-5716
uation	-5717
бот	-5718
▁calculate	-5719
urls	-5720
▁etc	-5721
▁camera	-5722
▁phase	-5723
▁Multi	-5724
48	-5725
▁than	-5726
▁Parse	-5727
▁0.3	-5728
gon	-5729
▁define	-5730
▁ft	-5731
▁requested	-5732
><	-5733
▁addresses	-5734
▁симво	-5735
uce	-5736
serial	-5737
▁возвра	-5738
▁visible	-5739
redirect	-5740
▁gradient	-5741
One	-5742
▁"0	-5743
▁inline	-5744
▁torch	-5745
pn	-5746
Container	-5747
ggle	-5748
▁bi	-5749
▁measure	-5750
mul	-5751
жалуй	-5752
Interface	-5753
iddle	-5754
▁Int	-5755
visible	-5756
▁defer	-5757
PC	-5758
▁additional	-5759
▁orm	-5760
▁которые	-5761
▁given	-5762
attach	-5763
▁{1	-5764
▁usr	-5765
▁Cal	-5766
▁nested	-5767
yles	-5768
▁SubElement	-5769
▁si	-5770
structure	-5771
alf	-5772
icro	-5773
▁dp	-5774
Exists	-5775
peak	-5776
extract	-5777
▁season	-5778
▁compiler	-5779
▁"201	-5780
▁ок	-5781
player	-5782
▁Delete	-5783
Tool	-5784
▁Main	-5785
sgi	-5786
▁chr	-5787
▁statement	-5788
▁hours	-5789
detail	-5790
▁plan	-5791
▁predictions	-5792
Results	-5793
▁addWidget	-5794
Component	-5795
Build	-5796
▁urlparse	-5797
0-9	-5798
▁consumer	-5799
elem	-5800
жалуйста	-5801
▁Art	-5802
▁класса	-5803
▁subscri	-5804
▁Array	-5805
▁ос	-5806
▁assertAllClose	-5807
▁час	-5808
▁31	-5809
▁week	-5810
Option	-5811
▁dia	-5812
▁ig	-5813
▁0.01	-5814
▁Это	-5815
▁volumes	-5816
▁кода	-5817
6_	-5818
zer	-5819
▁live	-5820
rations	-5821
builder	-5822
permissions	-5823
вой	-5824
hidden	-5825
ять	-5826
reams	-5827
LIC	-5828
Reference	-5829
▁AssertionError	-5830
▁unlink	-5831
ман	-5832
Provider	-5833
▁Button	-5834
Offset	-5835
Cons	-5836
▁maximum	-5837
▁vec	-5838
')	-5839
props	-5840
cpu	-5841
▁pixel	-5842
▁pm	-5843
▁sli	-5844
tention	-5845
97	-5846
share	-5847
pin	-5848
Arg	-5849
operation	-5850
юсь	-5851
hip	-5852
▁uniform	-5853
▁prompt	-5854
Buffer	-5855
ALID	-5856
▁View	-5857
▁scra	-5858
Char	-5859
▁reload	-5860
forward	-5861
▁dictionary	-5862
▁TR	-5863
▁outer	-5864
ose	-5865
sparse	-5866
▁transpose	-5867
▁installed	-5868
authentic	-5869
▁stmt	-5870
▁prog	-5871
atter	-5872
▁То	-5873
Binary	-5874
ARY	-5875
Ass	-5876
platform	-5877
writer	-5878
▁класс	-5879
memory	-5880
cf	-5881
рая	-5882
▁listen	-5883
Proxy	-5884
▁phys	-5885
IGHT	-5886
▁playlist	-5887
▁Query	-5888
▁лю	-5889
lc	-5890
▁SET	-5891
inder	-5892
allet	-5893
note	-5894
ния	-5895
rad	-5896
atic	-5897
▁содер	-5898
Msg	-5899
▁Na	-5900
▁encoded	-5901
shift	-5902
▁car	-5903
Search	-5904
лей	-5905
4"	-5906
orrect	-5907
▁Ва	-5908
▁linear	-5909
Metadata	-5910
Temp	-5911
▁assertNotIn	-5912
updated	-5913
rough	-5914
rev	-5915
route	-5916
▁ве	-5917
ris	-5918
PAR	-5919
▁Hello	-5920
Access	-5921
changes	-5922
▁walk	-5923
▁webs	-5924
xff	-5925
tence	-5926
cut	-5927
▁certificate	-5928
блиоте	-5929
▁пи	-5930
Unless	-5931
▁gui	-5932
▁ET	-5933
sired	-5934
▁0"	-5935
Keys	-5936
tz	-5937
NG	-5938
▁Token	-5939
vance	-5940
▁soup	-5941
-1	-5942
▁возможно	-5943
ln	-5944
▁cells	-5945
compare	-5946
▁Str	-5947
▁pipe	-5948
▁mas	-5949
Matrix	-5950
slug	-5951
irst	-5952
▁всё	-5953
conv	-5954
xtures	-5955
fixture	-5956
enchmark	-5957
ween	-5958
▁Host	-5959
cached	-5960
radi	-5961
▁callable	-5962
▁sudo	-5963
")	-5964
▁lex	-5965
▁cross	-5966
▁average	-5967
rr	-5968
commands	-5969
21	-5970
▁standard	-5971
▁Copy	-5972
creen	-5973
");	-5974
▁bounds	-5975
▁named	-5976
▁removed	-5977
▁ga	-5978
▁optional	-5979
▁absolute	-5980
Project	-5981
rain	-5982
suffix	-5983
bool	-5984
Document	-5985
▁cu	-5986
apt	-5987
▁вам	-5988
▁keywords	-5989
Rect	-5990
IR	-5991
alloc	-5992
▁failUnless	-5993
▁etree	-5994
vailability	-5995
escape	-5996
udit	-5997
▁Build	-5998
▁customer	-5999
▁templates	-6000
MIT	-6001
hy	-6002
▁cent	-6003
▁0.4	-6004
pairs	-6005
▁networks	-6006
▁registration	-6007
miter	-6008
▁спо	-6009
pers	-6010
basic	-6011
▁nc	-6012
ropout	-6013
▁counts	-6014
▁cnt	-6015
▁1234	-6016
▁theme	-6017
Stack	-6018
:00:00	-6019
▁sd	-6020
▁дан	-6021
▁executable	-6022
ratio	-6023
26	-6024
until	-6025
ied	-6026
▁nav	-6027
stub	-6028
▁neighb	-6029
▁em	-6030
▁workspace	-6031
ullable	-6032
mtree	-6033
partition	-6034
▁Action	-6035
▁asyncio	-6036
▁vif	-6037
▁learning	-6038
axes	-6039
relation	-6040
acc	-6041
ender	-6042
private	-6043
signature	-6044
▁kill	-6045
Tensor	-6046
bd	-6047
topic	-6048
Ver	-6049
ANCE	-6050
▁"12	-6051
uess	-6052
pkg	-6053
▁iterator	-6054
▁seen	-6055
▁docs	-6056
versions	-6057
▁optimizer	-6058
▁Person	-6059
hot	-6060
льный	-6061
Fail	-6062
Channel	-6063
uthentic	-6064
Vis	-6065
ium	-6066
apply	-6067
▁21	-6068
Volume	-6069
▁пожалуйста	-6070
AMP	-6071
hi	-6072
media	-6073
manage	-6074
ZER	-6075
▁minutes	-6076
second	-6077
TestCase	-6078
▁ON	-6079
▁sf	-6080
itter	-6081
Location	-6082
Reader	-6083
short	-6084
▁splitlines	-6085
▁подклю	-6086
notification	-6087
▁вас	-6088
5"	-6089
▁Ret	-6090
▁creator	-6091
ural	-6092
identifier	-6093
embed	-6094
▁StubOut	-6095
▁fr	-6096
▁rx	-6097
▁Ne	-6098
rozen	-6099
▁карти	-6100
coords	-6101
vided	-6102
servers	-6103
рек	-6104
▁Module	-6105
rea	-6106
ropy	-6107
▁locals	-6108
луч	-6109
▁DELETE	-6110
sock	-6111
▁Post	-6112
▁VAL	-6113
WithMock	-6114
etween	-6115
serializer	-6116
▁redis	-6117
▁ll	-6118
CODE	-6119
▁rf	-6120
▁retrie	-6121
Root	-6122
OB	-6123
▁StubOutWithMock	-6124
▁Auto	-6125
▁ptr	-6126
▁future	-6127
▁OrderedDict	-6128
▁alloc	-6129
▁загру	-6130
render	-6131
ответ	-6132
▁Search	-6133
AM	-6134
▁did	-6135
IF	-6136
▁prod	-6137
▁threads	-6138
▁библиоте	-6139
▁buff	-6140
▁Device	-6141
345678	-6142
ula	-6143
WORD	-6144
Local	-6145
istant	-6146
▁aff	-6147
▁fixture	-6148
▁mysql	-6149
ategorical	-6150
ges	-6151
▁Ap	-6152
IST	-6153
личест	-6154
cost	-6155
='	-6156
пер	-6157
▁each	-6158
▁Pa	-6159
many	-6160
▁digest	-6161
istic	-6162
idual	-6163
functions	-6164
чень	-6165
encoding	-6166
ROUP	-6167
есто	-6168
video	-6169
sli	-6170
▁selector	-6171
ков	-6172
tension	-6173
draw	-6174
▁chat	-6175
dialog	-6176
▁1.1	-6177
▁working	-6178
▁kwds	-6179
▁finished	-6180
qty	-6181
▁Cre	-6182
▁Skip	-6183
LS	-6184
Feature	-6185
utation	-6186
urity	-6187
cesses	-6188
▁quantity	-6189
IALI	-6190
networks	-6191
Unit	-6192
utions	-6193
▁еще	-6194
CC	-6195
failure	-6196
hat	-6197
owner	-6198
istics	-6199
tf	-6200
LAY	-6201
▁pers	-6202
▁assertContains	-6203
los	-6204
▁Context	-6205
ilon	-6206
inel	-6207
osity	-6208
▁candidate	-6209
olid	-6210
plus	-6211
▁Order	-6212
TY	-6213
▁launch	-6214
Grid	-6215
▁Vector	-6216
▁Max	-6217
▁FLAGS	-6218
▁listener	-6219
currency	-6220
XML	-6221
▁PY	-6222
▁возвраща	-6223
fmt	-6224
▁multiple	-6225
▁filenames	-6226
▁ii	-6227
false	-6228
тобра	-6229
▁понима	-6230
▁Function	-6231
protocol	-6232
▁pretty	-6233
▁chan	-6234
▁Volume	-6235
Height	-6236
▁2"	-6237
▁mb	-6238
▁artist	-6239
▁Подскажите	-6240
▁Со	-6241
live	-6242
▁там	-6243
▁tgt	-6244
mgr	-6245
▁aws	-6246
▁pagin	-6247
▁Ipv	-6248
rase	-6249
ственно	-6250
▁HTML	-6251
lux	-6252
▁Sequence	-6253
-8	-6254
ipher	-6255
▁returncode	-6256
▁phone	-6257
общ	-6258
orizont	-6259
▁Tuple	-6260
▁rmtree	-6261
created	-6262
Nodes	-6263
packages	-6264
UND	-6265
▁Control	-6266
▁functions	-6267
0,	-6268
▁tzinfo	-6269
Icon	-6270
uted	-6271
▁desired	-6272
cwd	-6273
▁ener	-6274
▁ответ	-6275
▁methods	-6276
▁PO	-6277
cr	-6278
▁san	-6279
ables	-6280
▁OF	-6281
ploration	-6282
▁NO	-6283
▁ix	-6284
▁tun	-6285
master	-6286
▁scores	-6287
▁flo	-6288
▁concat	-6289
warnings	-6290
▁Можно	-6291
▁STATUS	-6292
iltin	-6293
▁minimum	-6294
39	-6295
▁ImportError	-6296
pages	-6297
▁откры	-6298
gradient	-6299
▁HttpRequest	-6300
▁virt	-6301
▁добавить	-6302
ialized	-6303
▁fan	-6304
▁текст	-6305
▁cube	-6306
ент	-6307
append	-6308
▁logits	-6309
▁tol	-6310
▁cmp	-6311
inalg	-6312
resp	-6313
00"	-6314
scan	-6315
▁Parameter	-6316
▁Timestamp	-6317
compat	-6318
Helper	-6319
▁Java	-6320
Empty	-6321
cmp	-6322
▁коман	-6323
liance	-6324
seed	-6325
▁Dummy	-6326
ags	-6327
Collection	-6328
менить	-6329
coder	-6330
▁Cons	-6331
EM	-6332
▁cidr	-6333
▁lr	-6334
▁Ver	-6335
▁operations	-6336
▁flash	-6337
icip	-6338
▁Back	-6339
export	-6340
▁defined	-6341
▁cg	-6342
lapsed	-6343
ngine	-6344
▁Block	-6345
orizontal	-6346
ection	-6347
05	-6348
nate	-6349
▁Poly	-6350
▁ask	-6351
modified	-6352
▁thumbnail	-6353
ifiers	-6354
GB	-6355
rou	-6356
▁dependencies	-6357
▁strategy	-6358
▁hyper	-6359
existing	-6360
▁виде	-6361
ursive	-6362
requests	-6363
▁TIME	-6364
ird	-6365
65	-6366
sep	-6367
▁effect	-6368
▁Source	-6369
atype	-6370
▁overwrite	-6371
▁parents	-6372
▁авто	-6373
▁SC	-6374
ba	-6375
licies	-6376
▁pieces	-6377
▁lt	-6378
▁Да	-6379
aris	-6380
▁connector	-6381
epoch	-6382
LIST	-6383
enc	-6384
contains	-6385
final	-6386
▁CONT	-6387
▁air	-6388
skip	-6389
expression	-6390
hn	-6391
▁mol	-6392
▁band	-6393
▁Ga	-6394
▁строку	-6395
казы	-6396
▁Part	-6397
▁CREATE	-6398
Admin	-6399
ATCH	-6400
ajax	-6401
▁upgrade	-6402
▁Class	-6403
▁am	-6404
ением	-6405
Click	-6406
▁список	-6407
▁отобра	-6408
▁sheet	-6409
▁'4	-6410
pipeline	-6411
visor	-6412
PL	-6413
▁remaining	-6414
▁должен	-6415
lists	-6416
▁xbmc	-6417
▁Inte	-6418
▁dimension	-6419
HTML	-6420
roke	-6421
▁Result	-6422
izers	-6423
▁lhs	-6424
▁LE	-6425
▁known	-6426
quant	-6427
▁Float	-6428
▁мы	-6429
Checker	-6430
▁chunks	-6431
bile	-6432
Sum	-6433
▁We	-6434
NAL	-6435
▁priv	-6436
Hash	-6437
dependencies	-6438
qs	-6439
▁tcp	-6440
▁invo	-6441
translate	-6442
▁1,	-6443
▁Meta	-6444
metrics	-6445
▁Missing	-6446
▁shutdown	-6447
28	-6448
LASS	-6449
cha	-6450
▁Some	-6451
super	-6452
▁accounts	-6453
Cell	-6454
▁4.0	-6455
▁migrate	-6456
Sequence	-6457
▁Mat	-6458
▁vertical	-6459
▁All	-6460
▁guest	-6461
▁dm	-6462
▁Ans	-6463
▁quality	-6464
▁Exec	-6465
Storage	-6466
▁сох	-6467
condition	-6468
formed	-6469
Tests	-6470
issue	-6471
▁draft	-6472
Cmd	-6473
▁cale	-6474
Timer	-6475
▁dims	-6476
Next	-6477
PU	-6478
LOW	-6479
tables	-6480
Parameters	-6481
IFI	-6482
▁Desc	-6483
▁linalg	-6484
▁mot	-6485
connected	-6486
Step	-6487
▁notes	-6488
▁figure	-6489
matches	-6490
▁encry	-6491
▁spli	-6492
icles	-6493
clear	-6494
validation	-6495
▁ми	-6496
▁Code	-6497
▁Windows	-6498
▁mc	-6499
▁gz	-6500
Widgets	-6501
ваю	-6502
▁TABLE	-6503
ital	-6504
▁ошибку	-6505
Api	-6506
▁visibility	-6507
▁abort	-6508
met	-6509
LOGGER	-6510
зую	-6511
▁perform	-6512
▁END	-6513
slot	-6514
contact	-6515
▁Operation	-6516
allowed	-6517
▁MO	-6518
CONFIG	-6519
споль	-6520
_404	-6521
▁wrapped	-6522
inner	-6523
Dec	-6524
▁Jo	-6525
▁thrift	-6526
threshold	-6527
-12	-6528
Handle	-6529
▁Dist	-6530
чего	-6531
alpha	-6532
▁|=	-6533
▁chart	-6534
▁acquire	-6535
▁generic	-6536
▁0,	-6537
refs	-6538
▁необходимо	-6539
▁hand	-6540
▁ад	-6541
cred	-6542
Param	-6543
bed	-6544
flavor	-6545
▁gene	-6546
IB	-6547
▁scalar	-6548
▁restart	-6549
Sec	-6550
5_	-6551
absolute	-6552
▁AB	-6553
▁End	-6554
ring	-6555
▁нажати	-6556
mployee	-6557
▁basestring	-6558
▁количест	-6559
шь	-6560
▁Document	-6561
▁city	-6562
timer	-6563
▁каки	-6564
▁массива	-6565
▁strides	-6566
gration	-6567
▁CONFIG	-6568
▁connected	-6569
▁wrong	-6570
▁fileName	-6571
▁pw	-6572
▁what	-6573
▁transfer	-6574
percent	-6575
▁evt	-6576
▁loaded	-6577
Builder	-6578
lied	-6579
mplement	-6580
▁типа	-6581
▁Custom	-6582
бор	-6583
▁pip	-6584
deli	-6585
зом	-6586
▁az	-6587
till	-6588
▁Job	-6589
ria	-6590
▁formatter	-6591
ond	-6592
▁реализовать	-6593
▁connections	-6594
▁Ge	-6595
▁использо	-6596
foo	-6597
entities	-6598
rupt	-6599
▁функцию	-6600
ogram	-6601
ADD	-6602
▁started	-6603
selector	-6604
xtra	-6605
▁Ре	-6606
▁mouse	-6607
versed	-6608
▁bridge	-6609
▁fakes	-6610
MO	-6611
▁checker	-6612
▁PRE	-6613
▁Gaffer	-6614
free	-6615
▁Bytes	-6616
▁mocked	-6617
backup	-6618
▁делать	-6619
▁5.0	-6620
Role	-6621
ii	-6622
AY	-6623
targets	-6624
шу	-6625
▁estimator	-6626
▁qt	-6627
▁Async	-6628
▁dialect	-6629
ili	-6630
Open	-6631
▁turn	-6632
EADER	-6633
▁"0"	-6634
дар	-6635
tax	-6636
▁repos	-6637
▁syn	-6638
STATE	-6639
▁locations	-6640
▁activate	-6641
ga	-6642
stdout	-6643
▁pow	-6644
▁PH	-6645
▁lar	-6646
console	-6647
month	-6648
OF	-6649
из	-6650
▁algorithm	-6651
▁issub	-6652
▁supports	-6653
prepare	-6654
edges	-6655
▁deprecated	-6656
▁IE	-6657
Argument	-6658
▁deps	-6659
▁splitext	-6660
▁Location	-6661
▁нача	-6662
▁jpg	-6663
gers	-6664
orph	-6665
▁bla	-6666
sizes	-6667
ront	-6668
▁Min	-6669
warning	-6670
processor	-6671
▁modifi	-6672
▁Id	-6673
Comple	-6674
▁checksum	-6675
▁Queue	-6676
▁under	-6677
▁orient	-6678
31	-6679
▁returned	-6680
inf	-6681
▁Form	-6682
ника	-6683
Bad	-6684
▁sqlite	-6685
▁nom	-6686
бота	-6687
▁bas	-6688
▁Lay	-6689
symbol	-6690
▁unt	-6691
Parent	-6692
▁salt	-6693
imate	-6694
alan	-6695
▁getLogger	-6696
▁artifact	-6697
▁gp	-6698
▁actor	-6699
▁shuffle	-6700
▁acl	-6701
nts	-6702
▁Account	-6703
▁вариант	-6704
vey	-6705
▁communic	-6706
▁очень	-6707
▁0.8	-6708
external	-6709
▁Stream	-6710
sess	-6711
▁WAR	-6712
poly	-6713
Track	-6714
dime	-6715
▁Const	-6716
кс	-6717
sha	-6718
▁объект	-6719
▁FOR	-6720
seg	-6721
Operation	-6722
▁Replay	-6723
▁ldap	-6724
▁ADD	-6725
▁wsgi	-6726
▁datastore	-6727
illa	-6728
support	-6729
▁checkpoint	-6730
▁tmpl	-6731
Entity	-6732
как	-6733
щест	-6734
▁interfaces	-6735
hostname	-6736
▁annotation	-6737
▁луч	-6738
▁small	-6739
editor	-6740
We	-6741
▁образом	-6742
-10	-6743
92.1	-6744
▁сообщ	-6745
▁число	-6746
▁guid	-6747
▁expires	-6748
дом	-6749
cookie	-6750
▁fl	-6751
▁supp	-6752
ners	-6753
▁renderer	-6754
▁readlines	-6755
ORY	-6756
▁linux	-6757
лови	-6758
imation	-6759
▁svn	-6760
▁10.0	-6761
bob	-6762
CL	-6763
▁grpc	-6764
▁други	-6765
Man	-6766
▁ordered	-6767
▁coef	-6768
▁vn	-6769
▁вну	-6770
▁solve	-6771
().	-6772
▁wave	-6773
Prefix	-6774
▁сервер	-6775
▁beam	-6776
queryset	-6777
CONT	-6778
▁validator	-6779
▁acce	-6780
sources	-6781
стоя	-6782
retri	-6783
▁disc	-6784
▁submission	-6785
.7	-6786
dom	-6787
▁initializer	-6788
cend	-6789
ред	-6790
allen	-6791
▁ticket	-6792
Exit	-6793
logs	-6794
failed	-6795
▁JS	-6796
Func	-6797
auss	-6798
▁Show	-6799
▁ша	-6800
мот	-6801
▁ANY	-6802
▁получи	-6803
27	-6804
▁preview	-6805
▁которо	-6806
▁DoesNotExist	-6807
speed	-6808
Folder	-6809
team	-6810
If	-6811
▁calendar	-6812
▁vt	-6813
arehouse	-6814
обще	-6815
Flags	-6816
▁coeff	-6817
▁trunc	-6818
▁handlers	-6819
Deta	-6820
Configuration	-6821
акти	-6822
000000	-6823
мент	-6824
▁HE	-6825
IND	-6826
▁потом	-6827
Write	-6828
дает	-6829
▁less	-6830
▁Color	-6831
▁testdir	-6832
▁nu	-6833
Mon	-6834
tems	-6835
▁Sign	-6836
▁middle	-6837
▁Accept	-6838
INFO	-6839
duration	-6840
cloud	-6841
рет	-6842
▁gb	-6843
▁время	-6844
▁FAKE	-6845
8"	-6846
▁nullable	-6847
ascript	-6848
▁VERSION	-6849
▁catch	-6850
LOCK	-6851
ced	-6852
▁тут	-6853
curacy	-6854
строй	-6855
ceptions	-6856
rum	-6857
▁функция	-6858
MAP	-6859
days	-6860
▁mt	-6861
▁passed	-6862
▁Local	-6863
quired	-6864
▁hit	-6865
▁Select	-6866
▁groupby	-6867
▁argparse	-6868
нный	-6869
▁ц	-6870
leanup	-6871
▁modify	-6872
should	-6873
MAIL	-6874
Jo	-6875
▁xmlns	-6876
Top	-6877
lower	-6878
SERIALI	-6879
lopen	-6880
cade	-6881
▁Unicode	-6882
▁about	-6883
▁OUT	-6884
ai	-6885
чение	-6886
Socket	-6887
bias	-6888
ragment	-6889
xis	-6890
▁ci	-6891
bus	-6892
▁проис	-6893
".	-6894
drop	-6895
▁отде	-6896
cense	-6897
▁TH	-6898
uman	-6899
ios	-6900
гля	-6901
▁analysis	-6902
hand	-6903
▁movie	-6904
▁multip	-6905
atal	-6906
▁major	-6907
ARD	-6908
▁published	-6909
Fields	-6910
locale	-6911
▁needs	-6912
струк	-6913
▁верси	-6914
▁cmds	-6915
aging	-6916
нить	-6917
▁song	-6918
92.168	-6919
вом	-6920
▁ul	-6921
-5	-6922
▁clock	-6923
scores	-6924
▁STRING	-6925
▁180	-6926
этому	-6927
floating	-6928
▁BU	-6929
tead	-6930
▁запуска	-6931
Credentials	-6932
▁hard	-6933
contrib	-6934
▁symbols	-6935
Description	-6936
▁spi	-6937
Coord	-6938
▁Fore	-6939
ours	-6940
worker	-6941
▁sale	-6942
▁Found	-6943
colors	-6944
lash	-6945
▁bib	-6946
toms	-6947
▁бра	-6948
▁rd	-6949
fire	-6950
▁lab	-6951
azy	-6952
so	-6953
▁vl	-6954
cogn	-6955
▁cpp	-6956
▁widgets	-6957
ов	-6958
▁aux	-6959
Lim	-6960
Lib	-6961
его	-6962
▁IS	-6963
▁solver	-6964
ipy	-6965
sn	-6966
:0	-6967
perm	-6968
▁encoder	-6969
deg	-6970
▁health	-6971
▁0.9	-6972
person	-6973
▁writ	-6974
rash	-6975
Ne	-6976
▁опера	-6977
avascript	-6978
fname	-6979
▁daemon	-6980
push	-6981
▁describe	-6982
▁Ut	-6983
shapes	-6984
▁'3	-6985
▁ReplayAll	-6986
GN	-6987
▁completed	-6988
▁Count	-6989
▁energy	-6990
reduce	-6991
SERIALIZER	-6992
▁subtitle	-6993
ggest	-6994
▁sentinel	-6995
▁staff	-6996
▁соответ	-6997
▁fullname	-6998
форма	-6999
▁dynamic	-7000
predi	-7001
сем	-7002
▁Х	-7003
endor	-7004
migration	-7005
▁party	-7006
cos	-7007
▁logical	-7008
▁UTF	-7009
▁почему	-7010
▁пла	-7011
catenate	-7012
▁svg	-7013
ctl	-7014
NOT	-7015
▁generated	-7016
Exp	-7017
▁форма	-7018
▁inventory	-7019
former	-7020
NotFoundError	-7021
USE	-7022
▁MS	-7023
begin	-7024
▁information	-7025
пы	-7026
▁temperature	-7027
▁native	-7028
OME	-7029
▁formats	-7030
▁constraints	-7031
Series	-7032
descriptor	-7033
frames	-7034
Left	-7035
':	-7036
▁элемент	-7037
▁которая	-7038
supported	-7039
▁could	-7040
▁sl	-7041
▁ks	-7042
▁hi	-7043
▁scroll	-7044
▁пото	-7045
IES	-7046
▁ALL	-7047
▁dlg	-7048
▁dur	-7049
dete	-7050
fast	-7051
▁клю	-7052
rp	-7053
▁defaultdict	-7054
ached	-7055
▁into	-7056
▁пап	-7057
▁webob	-7058
▁CFG	-7059
▁twe	-7060
▁поя	-7061
▁pull	-7062
▁CA	-7063
kit	-7064
▁boolean	-7065
▁ml	-7066
pener	-7067
▁ско	-7068
Post	-7069
▁clicked	-7070
▁досту	-7071
▁28	-7072
▁logout	-7073
iterator	-7074
▁Sec	-7075
ёт	-7076
FS	-7077
Cursor	-7078
баты	-7079
sur	-7080
▁реши	-7081
▁ansible	-7082
▁tid	-7083
wers	-7084
▁Remove	-7085
▁legend	-7086
pings	-7087
mlink	-7088
SSION	-7089
osition	-7090
▁AUTH	-7091
▁создать	-7092
onical	-7093
▁BY	-7094
▁pointer	-7095
Json	-7096
verter	-7097
▁Port	-7098
review	-7099
▁какой	-7100
ence	-7101
cient	-7102
▁terms	-7103
lencode	-7104
Transport	-7105
▁One	-7106
nces	-7107
▁401	-7108
▁ai	-7109
▁Book	-7110
uous	-7111
laces	-7112
istency	-7113
Children	-7114
same	-7115
Loader	-7116
▁Нужно	-7117
45	-7118
▁пос	-7119
chars	-7120
car	-7121
Tab	-7122
ail	-7123
Writer	-7124
lign	-7125
▁HOST	-7126
▁bug	-7127
FileName	-7128
▁bins	-7129
▁вызы	-7130
▁shard	-7131
▁ho	-7132
iler	-7133
▁стол	-7134
HOST	-7135
arison	-7136
гори	-7137
anded	-7138
▁gap	-7139
archive	-7140
▁fw	-7141
жу	-7142
btn	-7143
submit	-7144
_1_	-7145
▁поле	-7146
▁minute	-7147
configure	-7148
uzz	-7149
configs	-7150
pending	-7151
UES	-7152
aller	-7153
▁всех	-7154
▁Ph	-7155
▁UPDATE	-7156
switch	-7157
▁wiki	-7158
▁surface	-7159
▁Len	-7160
▁disconnect	-7161
исте	-7162
▁getS	-7163
▁Net	-7164
ULE	-7165
▁Libvirt	-7166
▁элемента	-7167
▁assignment	-7168
▁cookies	-7169
DEFAULT	-7170
▁45	-7171
▁boto	-7172
▁вво	-7173
▁Dataset	-7174
▁recursive	-7175
when	-7176
▁много	-7177
ipv	-7178
▁foobar	-7179
▁картин	-7180
▁tran	-7181
revision	-7182
▁micro	-7183
Only	-7184
▁xyz	-7185
precation	-7186
▁randn	-7187
cce	-7188
▁aliases	-7189
.9	-7190
locations	-7191
nored	-7192
dicator	-7193
▁itertools	-7194
_2_	-7195
ww	-7196
threads	-7197
▁ship	-7198
Regexp	-7199
▁strings	-7200
');	-7201
▁именно	-7202
double	-7203
паси	-7204
definition	-7205
▁positive	-7206
VM	-7207
▁impl	-7208
▁dry	-7209
stall	-7210
▁БД	-7211
▁Init	-7212
▁increment	-7213
▁fixtures	-7214
▁Application	-7215
емы	-7216
SK	-7217
▁Empty	-7218
▁epsilon	-7219
mult	-7220
▁rendered	-7221
Lock	-7222
kernel	-7223
001	-7224
adow	-7225
pas	-7226
-01-01	-7227
▁работать	-7228
MAX	-7229
▁более	-7230
▁ratio	-7231
▁chdir	-7232
▁ничего	-7233
Main	-7234
▁thing	-7235
▁latitude	-7236
▁verbosity	-7237
reet	-7238
peg	-7239
▁mut	-7240
▁ready	-7241
Parse	-7242
▁Frame	-7243
mq	-7244
▁linspace	-7245
dc	-7246
▁provided	-7247
▁delimiter	-7248
Geometry	-7249
▁они	-7250
▁02	-7251
high	-7252
▁crop	-7253
destroy	-7254
▁chrom	-7255
▁IM	-7256
▁лучше	-7257
▁Mem	-7258
▁oo	-7259
Stop	-7260
▁material	-7261
▁fragment	-7262
пасибо	-7263
73	-7264
чения	-7265
▁frames	-7266
▁deployment	-7267
▁rating	-7268
▁Virtual	-7269
▁Home	-7270
▁slave	-7271
▁friend	-7272
▁setValue	-7273
sage	-7274
certificate	-7275
тей	-7276
▁quit	-7277
▁cx	-7278
▁ро	-7279
▁REQUEST	-7280
▁403	-7281
▁fetchall	-7282
▁hexdigest	-7283
▁cover	-7284
INTER	-7285
Ph	-7286
▁ping	-7287
▁frag	-7288
▁nl	-7289
▁0.25	-7290
Package	-7291
▁сов	-7292
▁character	-7293
REG	-7294
ом	-7295
Filename	-7296
izard	-7297
MI	-7298
2,	-7299
ображ	-7300
utoff	-7301
plugins	-7302
▁фи	-7303
▁sections	-7304
radius	-7305
▁DIS	-7306
LIENT	-7307
RY	-7308
-6	-7309
ffe	-7310
▁adj	-7311
inux	-7312
▁longitude	-7313
▁dic	-7314
Attr	-7315
coming	-7316
expi	-7317
▁Man	-7318
▁несколько	-7319
hd	-7320
вого	-7321
UD	-7322
cleanup	-7323
▁spam	-7324
▁0.6	-7325
▁TE	-7326
▁mobile	-7327
docs	-7328
lette	-7329
PH	-7330
▁executor	-7331
adio	-7332
notify	-7333
inct	-7334
iet	-7335
insensitive	-7336
refresh	-7337
▁Target	-7338
▁frozen	-7339
▁це	-7340
ILD	-7341
ano	-7342
▁--	-7343
▁ME	-7344
▁Database	-7345
Elements	-7346
9999	-7347
digit	-7348
ilar	-7349
▁QU	-7350
▁Tree	-7351
▁Product	-7352
Http	-7353
[0	-7354
▁arc	-7355
ставить	-7356
▁Link	-7357
▁crit	-7358
ixmap	-7359
wt	-7360
ndo	-7361
inity	-7362
Active	-7363
▁AF	-7364
handlers	-7365
▁выполня	-7366
iration	-7367
▁точ	-7368
SOURCE	-7369
▁sca	-7370
▁тре	-7371
тро	-7372
соб	-7373
▁globals	-7374
▁вм	-7375
▁Например	-7376
icros	-7377
bro	-7378
▁VM	-7379
SERT	-7380
DEX	-7381
▁этой	-7382
identity	-7383
indent	-7384
▁vi	-7385
sq	-7386
native	-7387
▁alarm	-7388
Connect	-7389
Timeout	-7390
RC	-7391
▁adapter	-7392
WS	-7393
gres	-7394
▁au	-7395
clone	-7396
▁leaf	-7397
fixed	-7398
iles	-7399
bund	-7400
MPLATE	-7401
уз	-7402
JSON	-7403
▁compress	-7404
Flag	-7405
▁matched	-7406
▁urlopen	-7407
▁concatenate	-7408
Global	-7409
ными	-7410
▁PUT	-7411
▁possible	-7412
кая	-7413
kind	-7414
▁44	-7415
▁2000	-7416
▁toggle	-7417
regular	-7418
▁receive	-7419
▁quot	-7420
environment	-7421
▁BytesIO	-7422
Mask	-7423
▁masked	-7424
▁Access	-7425
▁lc	-7426
segment	-7427
bounds	-7428
mis	-7429
▁another	-7430
correct	-7431
▁anchor	-7432
зации	-7433
ym	-7434
▁Plugin	-7435
witch	-7436
library	-7437
Enum	-7438
▁mav	-7439
ник	-7440
initions	-7441
resize	-7442
browser	-7443
";	-7444
Rel	-7445
dispatch	-7446
▁addCallback	-7447
dag	-7448
▁throw	-7449
],	-7450
yaml	-7451
▁Mon	-7452
▁urlencode	-7453
UCCESS	-7454
▁cut	-7455
screen	-7456
8_	-7457
▁Property	-7458
processing	-7459
SULT	-7460
▁26	-7461
▁aggreg	-7462
▁hw	-7463
▁limits	-7464
▁ctrl	-7465
resolve	-7466
ational	-7467
▁DO	-7468
▁yang	-7469
▁frequency	-7470
AV	-7471
▁union	-7472
ka	-7473
Select	-7474
Properties	-7475
▁broadcast	-7476
lify	-7477
▁vertices	-7478
jected	-7479
▁Проблем	-7480
watch	-7481
▁tok	-7482
ству	-7483
oring	-7484
▁свя	-7485
unity	-7486
▁два	-7487
▁завис	-7488
▁либо	-7489
quent	-7490
ascii	-7491
monitor	-7492
▁nest	-7493
▁decoder	-7494
▁Format	-7495
десь	-7496
▁Att	-7497
cov	-7498
▁infile	-7499
имо	-7500
linear	-7501
▁hd	-7502
incip	-7503
family	-7504
▁reversed	-7505
▁bc	-7506
lusive	-7507
rypto	-7508
Space	-7509
vc	-7510
▁понимаю	-7511
UUID	-7512
▁xp	-7513
CTIVE	-7514
▁услови	-7515
▁ру	-7516
▁Article	-7517
Ids	-7518
▁transl	-7519
▁Storage	-7520
▁sb	-7521
чис	-7522
UST	-7523
▁helpers	-7524
associ	-7525
jquery	-7526
▁processed	-7527
▁Down	-7528
▁кор	-7529
200	-7530
NO	-7531
▁него	-7532
quences	-7533
▁embedding	-7534
▁Inc	-7535
transport	-7536
▁поля	-7537
NU	-7538
тори	-7539
sym	-7540
mediate	-7541
SD	-7542
IAL	-7543
scalar	-7544
▁zoom	-7545
panel	-7546
лась	-7547
chron	-7548
▁exact	-7549
▁Ansible	-7550
▁spark	-7551
shared	-7552
stit	-7553
▁setEnabled	-7554
▁PL	-7555
▁вообще	-7556
voke	-7557
▁nr	-7558
79	-7559
XXXX	-7560
Failed	-7561
CRE	-7562
ления	-7563
achine	-7564
▁curve	-7565
Actions	-7566
нуть	-7567
▁bulk	-7568
▁retrieve	-7569
▁она	-7570
▁capture	-7571
▁rho	-7572
strategy	-7573
▁bill	-7574
herit	-7575
Body	-7576
▁uom	-7577
IE	-7578
asset	-7579
▁SERVICE	-7580
maps	-7581
▁приложение	-7582
▁систе	-7583
acl	-7584
choices	-7585
▁Ф	-7586
FORMAT	-7587
olds	-7588
▁TO	-7589
▁выводи	-7590
Integer	-7591
ippet	-7592
▁COLOR	-7593
▁exchange	-7594
Serializer	-7595
▁due	-7596
CATION	-7597
mpy	-7598
ROP	-7599
писать	-7600
Bound	-7601
▁всего	-7602
▁amo	-7603
▁implemented	-7604
ense	-7605
math	-7606
ighted	-7607
бло	-7608
ге	-7609
Scale	-7610
▁noise	-7611
GE	-7612
▁che	-7613
agraph	-7614
▁reactor	-7615
▁gid	-7616
packet	-7617
OKEN	-7618
торы	-7619
▁Random	-7620
▁Pub	-7621
бовал	-7622
▁Json	-7623
="#	-7624
▁фо	-7625
▁here	-7626
tle	-7627
дно	-7628
▁mocker	-7629
break	-7630
Transform	-7631
▁flask	-7632
program	-7633
rigin	-7634
diag	-7635
.0"	-7636
▁lp	-7637
allenge	-7638
▁Agent	-7639
▁Save	-7640
▁изображ	-7641
ye	-7642
▁robot	-7643
▁leave	-7644
▁Length	-7645
▁associ	-7646
formats	-7647
▁bytearray	-7648
▁always	-7649
Listener	-7650
Utils	-7651
▁SUP	-7652
usic	-7653
▁ha	-7654
▁instead	-7655
▁again	-7656
▁iterable	-7657
Pat	-7658
▁square	-7659
ень	-7660
legate	-7661
STATUS	-7662
▁initi	-7663
▁minor	-7664
▁levels	-7665
рую	-7666
Constraint	-7667
▁});	-7668
▁sentence	-7669
▁invoke	-7670
▁rotate	-7671
▁separator	-7672
▁найти	-7673
variant	-7674
▁purchase	-7675
▁.5	-7676
Rate	-7677
▁lu	-7678
PREFIX	-7679
ней	-7680
ixin	-7681
staff	-7682
▁fits	-7683
▁wd	-7684
▁Change	-7685
spa	-7686
REQUEST	-7687
ractive	-7688
ignore	-7689
tensors	-7690
Doc	-7691
▁regular	-7692
▁negative	-7693
▁monkey	-7694
xe	-7695
▁/>	-7696
xc	-7697
hort	-7698
Bytes	-7699
ATOR	-7700
tener	-7701
▁From	-7702
▁backward	-7703
▁tbl	-7704
▁interpol	-7705
▁Use	-7706
▁iteri	-7707
▁If	-7708
▁vertex	-7709
gateway	-7710
▁/=	-7711
deps	-7712
▁ар	-7713
▁0-9	-7714
getattr	-7715
diffe	-7716
01'	-7717
▁getcwd	-7718
▁matching	-7719
getter	-7720
▁numbers	-7721
▁bp	-7722
▁ignored	-7723
afe	-7724
▁iteritems	-7725
rols	-7726
closed	-7727
require	-7728
suite	-7729
tip	-7730
▁ba	-7731
updates	-7732
added	-7733
▁guess	-7734
▁feat	-7735
▁warehouse	-7736
▁indexer	-7737
Show	-7738
▁доку	-7739
cancel	-7740
activity	-7741
FIEL	-7742
ление	-7743
▁dates	-7744
anguage	-7745
Panel	-7746
itation	-7747
png	-7748
▁story	-7749
ongo	-7750
answer	-7751
roles	-7752
inator	-7753
▁происходит	-7754
reens	-7755
▁too	-7756
itespace	-7757
▁formatted	-7758
libs	-7759
▁objs	-7760
▁получается	-7761
▁checked	-7762
▁Wait	-7763
notes	-7764
▁Configuration	-7765
▁lv	-7766
вая	-7767
▁windows	-7768
▁pairs	-7769
Runner	-7770
▁many	-7771
integer	-7772
▁binding	-7773
Flow	-7774
training	-7775
▁Entry	-7776
▁rotation	-7777
matic	-7778
▁extended	-7779
havi	-7780
setitem	-7781
▁transition	-7782
▁fg	-7783
limits	-7784
Multi	-7785
▁wallet	-7786
mtime	-7787
▁WARNING	-7788
▁registered	-7789
sca	-7790
▁clo	-7791
bins	-7792
▁тоже	-7793
▁dead	-7794
locity	-7795
lerance	-7796
pdf	-7797
prev	-7798
ulated	-7799
▁merged	-7800
▁nm	-7801
▁бу	-7802
▁Top	-7803
▁33	-7804
▁hashlib	-7805
▁strptime	-7806
usted	-7807
▁balance	-7808
08	-7809
▁firewall	-7810
▁chapter	-7811
▁SY	-7812
▁Anonymous	-7813
▁таблицы	-7814
▁ле	-7815
Iteration	-7816
▁processor	-7817
▁facts	-7818
RED	-7819
▁neg	-7820
indexes	-7821
dns	-7822
▁glyph	-7823
▁floor	-7824
▁rr	-7825
tic	-7826
city	-7827
deploy	-7828
▁NS	-7829
▁station	-7830
▁результат	-7831
▁quiet	-7832
▁Почему	-7833
PACE	-7834
pectrum	-7835
ributed	-7836
▁Spec	-7837
▁combo	-7838
▁QtWidgets	-7839
Cond	-7840
multip	-7841
PEN	-7842
lare	-7843
exceptions	-7844
Meta	-7845
▁другой	-7846
activate	-7847
publish	-7848
Word	-7849
ски	-7850
▁focus	-7851
mooth	-7852
ём	-7853
▁Email	-7854
▁mg	-7855
▁unused	-7856
вые	-7857
▁содержи	-7858
06	-7859
29	-7860
▁recipe	-7861
▁dashboard	-7862
EP	-7863
гите	-7864
primary	-7865
clip	-7866
▁mass	-7867
▁fq	-7868
TYPES	-7869
▁vendor	-7870
▁scenario	-7871
TEST	-7872
▁информа	-7873
▁пользователя	-7874
iddleware	-7875
▁three	-7876
▁blog	-7877
▁слова	-7878
▁conditions	-7879
Mark	-7880
complex	-7881
comments	-7882
58	-7883
▁stroke	-7884
▁FO	-7885
▁packed	-7886
дра	-7887
mtp	-7888
▁spe	-7889
positive	-7890
Generator	-7891
quee	-7892
Ind	-7893
retry	-7894
accept	-7895
▁logfile	-7896
▁serialized	-7897
▁issubclass	-7898
▁cart	-7899
▁ang	-7900
ITH	-7901
▁fileobj	-7902
▁amp	-7903
▁sat	-7904
shell	-7905
▁metavar	-7906
sorted	-7907
▁coverage	-7908
blob	-7909
▁PASS	-7910
ARCH	-7911
▁funct	-7912
▁annotations	-7913
▁codes	-7914
▁routing	-7915
▁Rest	-7916
numbers	-7917
7.0.0.1	-7918
disc	-7919
▁tracker	-7920
▁Header	-7921
fun	-7922
MT	-7923
▁specs	-7924
Load	-7925
ertificate	-7926
▁tl	-7927
ыти	-7928
Schema	-7929
▁press	-7930
vig	-7931
eds	-7932
machine	-7933
Gra	-7934
▁pv	-7935
▁ваш	-7936
▁credit	-7937
Selected	-7938
▁caller	-7939
▁пол	-7940
Cleanup	-7941
▁receiver	-7942
ний	-7943
tenv	-7944
inja	-7945
▁ram	-7946
▁contract	-7947
▁dhcp	-7948
ssh	-7949
zy	-7950
▁consume	-7951
сов	-7952
Expression	-7953
▁Over	-7954
▁cycle	-7955
▁peak	-7956
▁Sup	-7957
stage	-7958
POST	-7959
брать	-7960
▁брауз	-7961
Domain	-7962
▁Record	-7963
irth	-7964
ери	-7965
lon	-7966
▁Matrix	-7967
RENT	-7968
▁элементов	-7969
▁пис	-7970
logging	-7971
▁photo	-7972
pure	-7973
2.	-7974
Mapping	-7975
▁добавля	-7976
▁torrent	-7977
▁qos	-7978
▁сдела	-7979
▁eth	-7980
LY	-7981
defs	-7982
▁пыта	-7983
▁resolution	-7984
Web	-7985
▁BO	-7986
▁creation	-7987
▁wf	-7988
▁Temp	-7989
▁Channel	-7990
▁Проблема	-7991
cid	-7992
ali	-7993
curs	-7994
pan	-7995
щем	-7996
▁dirty	-7997
▁availability	-7998
crete	-7999
▁NotFound	-8000
▁iris	-8001
▁логи	-8002
ji	-8003
▁trig	-8004
Area	-8005
Agent	-8006
BASE	-8007
ierarch	-8008
▁atoms	-8009
enable	-8010
▁страницы	-8011
▁cinder	-8012
CAL	-8013
Mod	-8014
▁CC	-8015
▁Settings	-8016
▁PRI	-8017
▁dimensions	-8018
BinaryProtocol	-8019
Interval	-8020
Checked	-8021
▁spawn	-8022
Points	-8023
▁Sample	-8024
▁TBinaryProtocol	-8025
▁how	-8026
▁dependency	-8027
▁picking	-8028
Ip	-8029
Operator	-8030
▁INSERT	-8031
▁fac	-8032
Password	-8033
Play	-8034
▁rdf	-8035
ходя	-8036
мально	-8037
alive	-8038
Sc	-8039
▁svc	-8040
▁—	-8041
▁хочу	-8042
▁27	-8043
▁Пример	-8044
mes	-8045
▁physical	-8046
iling	-8047
Extension	-8048
OFF	-8049
room	-8050
▁vim	-8051
SA	-8052
riv	-8053
alancer	-8054
▁containers	-8055
addresses	-8056
▁des	-8057
▁OP	-8058
▁numeric	-8059
==	-8060
csi	-8061
▁Make	-8062
gu	-8063
▁hint	-8064
atches	-8065
gl	-8066
▁приложения	-8067
▁JO	-8068
▁alg	-8069
▁проц	-8070
▁abstract	-8071
mix	-8072
▁trim	-8073
trip	-8074
▁35	-8075
▁302	-8076
▁должно	-8077
▁species	-8078
dings	-8079
▁swift	-8080
мет	-8081
vite	-8082
imizer	-8083
].	-8084
Stat	-8085
▁Ра	-8086
▁неко	-8087
Fi	-8088
▁строка	-8089
ена	-8090
▁написать	-8091
UCT	-8092
▁Uns	-8093
▁fft	-8094
▁поис	-8095
▁OFP	-8096
IZ	-8097
▁Find	-8098
Activity	-8099
▁послед	-8100
VALID	-8101
▁QApplication	-8102
▁TEXT	-8103
SCRI	-8104
▁lun	-8105
лись	-8106
▁bpy	-8107
▁4.	-8108
READ	-8109
▁3'	-8110
▁Pi	-8111
ilent	-8112
cir	-8113
lastic	-8114
тя	-8115
templates	-8116
RESS	-8117
presentation	-8118
▁provision	-8119
▁communicate	-8120
▁количество	-8121
▁MODE	-8122
▁адрес	-8123
▁ид	-8124
▁terminate	-8125
LOAD	-8126
bre	-8127
▁консо	-8128
gui	-8129
▁see	-8130
riteria	-8131
▁памя	-8132
▁BASE	-8133
ignKey	-8134
▁chars	-8135
COUNT	-8136
▁выполн	-8137
93	-8138
preter	-8139
▁protected	-8140
Failure	-8141
▁discovery	-8142
ards	-8143
▁100.0	-8144
▁fieldname	-8145
▁compression	-8146
▁Sc	-8147
Conf	-8148
▁Hash	-8149
▁trust	-8150
▁'3'	-8151
▁Г	-8152
тора	-8153
▁ros	-8154
▁benchmark	-8155
▁indexes	-8156
▁эту	-8157
pendent	-8158
▁Воз	-8159
▁свойст	-8160
▁числа	-8161
Float	-8162
subject	-8163
йстви	-8164
bi	-8165
▁.2	-8166
▁Symbol	-8167
▁pod	-8168
▁parallel	-8169
▁fastbinary	-8170
вод	-8171
вую	-8172
osite	-8173
ince	-8174
▁without	-8175
▁pf	-8176
▁getCurrent	-8177
omial	-8178
▁Unexpected	-8179
EAM	-8180
▁внутри	-8181
▁capacity	-8182
509	-8183
tenant	-8184
bidden	-8185
▁oid	-8186
▁digits	-8187
дите	-8188
servations	-8189
▁tempdir	-8190
▁знаю	-8191
balance	-8192
▁solution	-8193
вил	-8194
Sample	-8195
▁epochs	-8196
catalog	-8197
aggregate	-8198
зя	-8199
▁bold	-8200
Stats	-8201
terms	-8202
▁CS	-8203
FN	-8204
trigger	-8205
▁0.05	-8206
▁Call	-8207
▁tolist	-8208
▁avatar	-8209
dence	-8210
▁Enter	-8211
pixel	-8212
▁Permission	-8213
▁До	-8214
▁predicate	-8215
Formatter	-8216
▁functools	-8217
DED	-8218
▁cuda	-8219
choice	-8220
NK	-8221
▁решение	-8222
▁событи	-8223
Groups	-8224
▁authors	-8225
▁Info	-8226
.1.1	-8227
▁boundary	-8228
▁1.2	-8229
aign	-8230
▁DAT	-8231
▁Sum	-8232
бира	-8233
▁At	-8234
ToString	-8235
BU	-8236
▁fileno	-8237
[]	-8238
▁nargs	-8239
▁shapes	-8240
▁credential	-8241
▁Struct	-8242
ookup	-8243
▁website	-8244
phone	-8245
▁Named	-8246
sensor	-8247
▁refs	-8248
ople	-8249
▁Мне	-8250
binding	-8251
direction	-8252
listener	-8253
BR	-8254
appro	-8255
▁least	-8256
▁pkt	-8257
▁ее	-8258
▁Iter	-8259
▁Current	-8260
▁since	-8261
posal	-8262
filepath	-8263
igned	-8264
▁whe	-8265
exact	-8266
▁wc	-8267
▁segments	-8268
ech	-8269
▁hs	-8270
▁Package	-8271
▁Container	-8272
▁Method	-8273
▁больше	-8274
▁Print	-8275
invoice	-8276
▁120	-8277
▁camp	-8278
▁mq	-8279
▁secondary	-8280
enum	-8281
equals	-8282
▁both	-8283
▁configs	-8284
▁способ	-8285
lobs	-8286
▁domains	-8287
▁bootstrap	-8288
нако	-8289
itize	-8290
xFF	-8291
named	-8292
▁tan	-8293
incipal	-8294
Python	-8295
atial	-8296
▁players	-8297
▁bt	-8298
clause	-8299
Account	-8300
▁Category	-8301
▁SUB	-8302
▁cipher	-8303
Pub	-8304
▁lstrip	-8305
anization	-8306
▁Static	-8307
▁don	-8308
▁goal	-8309
▁instrument	-8310
UME	-8311
▁Filter	-8312
▁конструк	-8313
rouped	-8314
MBER	-8315
hist	-8316
▁Has	-8317
ardown	-8318
ITION	-8319
▁дву	-8320
▁clients	-8321
▁такое	-8322
▁meme	-8323
▁cum	-8324
Player	-8325
▁любо	-8326
ROOT	-8327
рукту	-8328
Backend	-8329
negative	-8330
TON	-8331
dst	-8332
arrays	-8333
шел	-8334
▁cmap	-8335
▁ham	-8336
▁tell	-8337
ляр	-8338
▁namespaces	-8339
▁gd	-8340
disabled	-8341
Report	-8342
▁gpu	-8343
▁dropout	-8344
▁mimetype	-8345
Right	-8346
▁Api	-8347
Impl	-8348
▁gzip	-8349
▁tablename	-8350
йд	-8351
asy	-8352
student	-8353
▁examples	-8354
▁license	-8355
▁RUN	-8356
hing	-8357
▁PHP	-8358
▁subset	-8359
▁readonly	-8360
▁just	-8361
comm	-8362
▁Title	-8363
щё	-8364
▁сам	-8365
▁pandas	-8366
];	-8367
Delete	-8368
▁something	-8369
жду	-8370
▁checks	-8371
olo	-8372
▁authentication	-8373
▁можете	-8374
lev	-8375
mplementation	-8376
▁relu	-8377
origin	-8378
▁demo	-8379
SSAGE	-8380
▁Close	-8381
▁вывести	-8382
lems	-8383
▁starting	-8384
▁ArgumentParser	-8385
▁maybe	-8386
exe	-8387
Lines	-8388
читать	-8389
▁pci	-8390
▁обработ	-8391
nested	-8392
Sizer	-8393
TypeId	-8394
▁allclose	-8395
▁extent	-8396
мера	-8397
▁компи	-8398
▁vbox	-8399
Ap	-8400
щие	-8401
capt	-8402
Last	-8403
▁объя	-8404
Invalid	-8405
▁checkout	-8406
▁Description	-8407
quential	-8408
▁passwd	-8409
▁bd	-8410
Gen	-8411
SERVER	-8412
▁Edit	-8413
ither	-8414
туа	-8415
stderr	-8416
▁мес	-8417
▁Basic	-8418
WORK	-8419
201	-8420
править	-8421
▁general	-8422
▁Bar	-8423
чина	-8424
xs	-8425
Bind	-8426
sect	-8427
▁normalized	-8428
posed	-8429
Rest	-8430
▁creds	-8431
▁IsA	-8432
Db	-8433
▁feedback	-8434
Objects	-8435
▁UTC	-8436
▁INTO	-8437
measure	-8438
▁inplace	-8439
▁rollback	-8440
▁populate	-8441
expect	-8442
▁pause	-8443
XY	-8444
32"	-8445
▁скрипт	-8446
MessageBox	-8447
▁MIN	-8448
mg	-8449
AUTH	-8450
objs	-8451
▁tau	-8452
▁SERVER	-8453
lec	-8454
BadRequest	-8455
▁plug	-8456
▁following	-8457
reply	-8458
▁literal	-8459
returns	-8460
▁Menu	-8461
Symbol	-8462
sktop	-8463
▁topology	-8464
▁Ass	-8465
▁altern	-8466
www	-8467
▁StopIteration	-8468
▁Sparse	-8469
▁queries	-8470
▁Success	-8471
67	-8472
Fin	-8473
mpath	-8474
▁fetchone	-8475
пусти	-8476
▁mirror	-8477
льные	-8478
ключа	-8479
▁trainable	-8480
▁язы	-8481
▁наз	-8482
connections	-8483
▁Linear	-8484
▁ht	-8485
.10	-8486
▁Исполь	-8487
Authentic	-8488
▁requirements	-8489
erm	-8490
war	-8491
▁работы	-8492
placeholder	-8493
finished	-8494
▁subdir	-8495
▁lazy	-8496
--------	-8497
outube	-8498
compress	-8499
cpus	-8500
▁NUM	-8501
scriptions	-8502
сты	-8503
▁coordinates	-8504
raps	-8505
▁tex	-8506
▁etag	-8507
confirm	-8508
▁positions	-8509
▁lead	-8510
▁prediction	-8511
nav	-8512
ставля	-8513
▁tot	-8514
▁styles	-8515
that	-8516
riptor	-8517
▁TypeId	-8518
keep	-8519
pends	-8520
EC	-8521
▁arm	-8522
POINT	-8523
chan	-8524
▁выра	-8525
▁От	-8526
▁EXP	-8527
▁55	-8528
▁ome	-8529
unce	-8530
▁150	-8531
▁letter	-8532
hood	-8533
Move	-8534
anned	-8535
extensions	-8536
▁scripts	-8537
89	-8538
фика	-8539
RECT	-8540
tential	-8541
▁orientation	-8542
dates	-8543
вое	-8544
▁converter	-8545
▁выгля	-8546
▁nums	-8547
icrosoft	-8548
▁Callable	-8549
▁метода	-8550
▁classifier	-8551
▁half	-8552
▁broker	-8553
ims	-8554
Net	-8555
where	-8556
Bit	-8557
ique	-8558
ues	-8559
MAND	-8560
▁flex	-8561
▁advance	-8562
windows	-8563
▁bank	-8564
▁bases	-8565
новить	-8566
▁объекта	-8567
rator	-8568
▁SSL	-8569
queeze	-8570
Save	-8571
-02	-8572
▁JOIN	-8573
00_	-8574
▁alph	-8575
▁monkeypatch	-8576
▁provide	-8577
ball	-8578
Limit	-8579
vors	-8580
▁Warning	-8581
▁нем	-8582
upper	-8583
ено	-8584
нные	-8585
reverse	-8586
▁одно	-8587
▁elapsed	-8588
цио	-8589
нача	-8590
cuit	-8591
ulip	-8592
▁ду	-8593
▁CharField	-8594
neighb	-8595
Engine	-8596
▁VALUES	-8597
ocial	-8598
▁degree	-8599
▁pts	-8600
▁сразу	-8601
▁successfully	-8602
999	-8603
ANT	-8604
▁reserved	-8605
▁replica	-8606
apis	-8607
▁вместо	-8608
▁legacy	-8609
original	-8610
▁then	-8611
▁decorator	-8612
foc	-8613
▁Schema	-8614
DO	-8615
▁ban	-8616
ffic	-8617
CLASS	-8618
▁Exp	-8619
▁Serialize	-8620
▁different	-8621
Inte	-8622
Loc	-8623
▁subplot	-8624
ERT	-8625
лек	-8626
▁ravel	-8627
UTTON	-8628
▁нор	-8629
android	-8630
Definition	-8631
rgb	-8632
мотре	-8633
▁unexpected	-8634
▁отобража	-8635
▁3600	-8636
▁trial	-8637
▁depart	-8638
▁свой	-8639
▁512	-8640
▁стан	-8641
HE	-8642
rected	-8643
▁Unit	-8644
ntaxError	-8645
oid	-8646
marker	-8647
));	-8648
▁irc	-8649
bra	-8650
42	-8651
▁REG	-8652
▁'5	-8653
▁Note	-8654
▁assets	-8655
background	-8656
week	-8657
▁det	-8658
Identifier	-8659
пон	-8660
▁ttl	-8661
Suite	-8662
▁DIR	-8663
▁memeber	-8664
%;	-8665
роде	-8666
authenticated	-8667
kg	-8668
▁Environment	-8669
isation	-8670
PASS	-8671
semble	-8672
isted	-8673
nr	-8674
AMPLE	-8675
application	-8676
▁ring	-8677
leaf	-8678
erge	-8679
▁между	-8680
dtemp	-8681
▁duplicate	-8682
Hook	-8683
(),	-8684
▁tre	-8685
hooks	-8686
▁Timeout	-8687
влен	-8688
▁Size	-8689
▁fallback	-8690
▁dup	-8691
boxes	-8692
▁кнопку	-8693
hint	-8694
▁subscribe	-8695
▁IPv	-8696
levels	-8697
▁operand	-8698
▁jar	-8699
▁tester	-8700
ению	-8701
Axis	-8702
manifest	-8703
parsed	-8704
Idx	-8705
lst	-8706
▁rsp	-8707
repe	-8708
rolled	-8709
▁elev	-8710
▁publisher	-8711
▁pen	-8712
checker	-8713
ellow	-8714
▁"2"	-8715
▁серве	-8716
neg	-8717
тем	-8718
collections	-8719
PIO	-8720
stock	-8721
раня	-8722
Display	-8723
▁workers	-8724
▁5.	-8725
secure	-8726
statement	-8727
EB	-8728
hemer	-8729
ora	-8730
ana	-8731
▁notebook	-8732
cells	-8733
▁определен	-8734
checks	-8735
marks	-8736
▁ot	-8737
▁кол	-8738
authorized	-8739
▁храни	-8740
KN	-8741
▁touch	-8742
▁pul	-8743
▁fault	-8744
▁look	-8745
▁retries	-8746
▁signed	-8747
Category	-8748
▁jsonify	-8749
▁2.5	-8750
▁particip	-8751
▁процес	-8752
ycle	-8753
62	-8754
▁flt	-8755
▁установ	-8756
patterns	-8757
▁отве	-8758
буд	-8759
pipe	-8760
▁MAV	-8761
bundle	-8762
▁construct	-8763
▁iq	-8764
▁UUID	-8765
▁difference	-8766
▁scipy	-8767
▁median	-8768
bg	-8769
ций	-8770
cross	-8771
coeff	-8772
▁IECore	-8773
82	-8774
partial	-8775
ента	-8776
▁Feature	-8777
1111	-8778
URI	-8779
▁products	-8780
▁smart	-8781
quis	-8782
boolean	-8783
6"	-8784
▁nodeName	-8785
produ	-8786
▁Admin	-8787
▁calib	-8788
NA	-8789
ordered	-8790
▁misc	-8791
▁annotate	-8792
DL	-8793
▁использую	-8794
▁Ref	-8795
otion	-8796
▁isnan	-8797
ining	-8798
zilla	-8799
▁был	-8800
▁METH	-8801
atory	-8802
Setting	-8803
▁Console	-8804
TA	-8805
Poly	-8806
▁Packet	-8807
▁0.7	-8808
chemy	-8809
ookie	-8810
Xml	-8811
▁Match	-8812
▁datatype	-8813
swig	-8814
83	-8815
рси	-8816
▁mkdtemp	-8817
NC	-8818
▁nic	-8819
ках	-8820
vered	-8821
▁RequestContext	-8822
▁Site	-8823
ricted	-8824
▁Protocol	-8825
▁кажды	-8826
▁addCleanup	-8827
тера	-8828
band	-8829
▁manual	-8830
▁HEAD	-8831
▁моде	-8832
fox	-8833
перь	-8834
repository	-8835
workflow	-8836
вых	-8837
Section	-8838
▁Vis	-8839
▁thresh	-8840
anding	-8841
Raw	-8842
eager	-8843
CKET	-8844
▁Box	-8845
workers	-8846
64_	-8847
HTTP	-8848
▁Authorization	-8849
execution	-8850
▁bw	-8851
dicts	-8852
reason	-8853
▁recent	-8854
_5	-8855
ATTR	-8856
▁вызо	-8857
ATURE	-8858
▁204	-8859
stor	-8860
▁kv	-8861
86_	-8862
▁drive	-8863
3456789	-8864
▁doesn	-8865
isco	-8866
Async	-8867
▁sound	-8868
▁patterns	-8869
Iterator	-8870
▁specify	-8871
▁ForeignKey	-8872
▁nw	-8873
ierarchy	-8874
/1	-8875
oted	-8876
тически	-8877
рования	-8878
mesh	-8879
ками	-8880
▁Gra	-8881
▁Running	-8882
▁будут	-8883
▁mv	-8884
▁built	-8885
into	-8886
Database	-8887
▁понять	-8888
▁samp	-8889
▁ROOT	-8890
checkpoint	-8891
▁candidates	-8892
dig	-8893
▁grade	-8894
▁Л	-8895
Adapter	-8896
categories	-8897
▁обы	-8898
PY	-8899
▁bob	-8900
▁distinct	-8901
sections	-8902
DOMAIN	-8903
▁routes	-8904
▁af	-8905
ffff	-8906
arest	-8907
▁Global	-8908
▁mix	-8909
▁доступ	-8910
▁Stack	-8911
Rows	-8912
▁met	-8913
▁сторо	-8914
▁Comment	-8915
▁wraps	-8916
▁Вопрос	-8917
attemp	-8918
▁codecs	-8919
TEXT	-8920
aussian	-8921
▁news	-8922
positions	-8923
▁idle	-8924
▁Код	-8925
phrase	-8926
Email	-8927
▁Может	-8928
addon	-8929
rics	-8930
quota	-8931
setattr	-8932
Ab	-8933
migrate	-8934
87	-8935
GS	-8936
▁коде	-8937
▁После	-8938
▁PORT	-8939
FE	-8940
▁xt	-8941
CUR	-8942
▁suggest	-8943
Visible	-8944
▁gather	-8945
**	-8946
▁структу	-8947
▁600	-8948
▁пока	-8949
Features	-8950
▁decoded	-8951
▁survey	-8952
▁setUpClass	-8953
▁ck	-8954
▁unset	-8955
Tuple	-8956
▁LOGGER	-8957
compatible	-8958
verity	-8959
google	-8960
unknown	-8961
Override	-8962
▁vote	-8963
▁mapped	-8964
▁Download	-8965
▁Policy	-8966
▁dbname	-8967
rmed	-8968
Combo	-8969
▁Rel	-8970
▁Buffer	-8971
▁Mac	-8972
▁sites	-8973
){	-8974
Cal	-8975
ABLED	-8976
Loop	-8977
▁smtp	-8978
▁pdb	-8979
future	-8980
59	-8981
▁px	-8982
▁переменной	-8983
rd	-8984
HEADER	-8985
FOR	-8986
▁accum	-8987
▁ee	-8988
beat	-8989
acter	-8990
▁сайта	-8991
gh	-8992
chemas	-8993
▁Fla	-8994
3.	-8995
▁between	-8996
▁элементы	-8997
▁котором	-8998
calar	-8999
').	-9000
▁SM	-9001
▁METHOD	-9002
First	-9003
кон	-9004
precationWarning	-9005
clicked	-9006
xf	-9007
▁Bind	-9008
Ctrl	-9009
будь	-9010
▁gw	-9011
▁There	-9012
ARGET	-9013
ficient	-9014
▁Ident	-9015
▁DateTime	-9016
volumes	-9017
Remove	-9018
BACK	-9019
Opt	-9020
▁wp	-9021
BE	-9022
forms	-9023
▁relpath	-9024
joint	-9025
▁audit	-9026
▁Total	-9027
тив	-9028
▁adjust	-9029
ograph	-9030
ERS	-9031
▁combine	-9032
▁EVENT	-9033
Scope	-9034
▁READ	-9035
SUB	-9036
mapper	-9037
▁ш	-9038
▁SI	-9039
▁clusters	-9040
▁printer	-9041
нию	-9042
нии	-9043
▁appliance	-9044
Descriptor	-9045
▁pix	-9046
▁Mode	-9047
GR	-9048
▁ly	-9049
onal	-9050
ность	-9051
OLUME	-9052
anti	-9053
Cap	-9054
untu	-9055
▁posts	-9056
dense	-9057
012	-9058
▁также	-9059
▁simulation	-9060
beta	-9061
личи	-9062
▁waiting	-9063
ulary	-9064
▁tup	-9065
▁тогда	-9066
404	-9067
▁datasets	-9068
cussion	-9069
Editor	-9070
ilation	-9071
Dataset	-9072
▁сайт	-9073
▁detect	-9074
▁encrypt	-9075
OTE	-9076
Selector	-9077
constant	-9078
▁scopes	-9079
▁шабло	-9080
vlan	-9081
▁hdr	-9082
▁файлы	-9083
GI	-9084
tracker	-9085
href	-9086
▁sick	-9087
contain	-9088
▁setLevel	-9089
▁находи	-9090
Machine	-9091
щее	-9092
▁iv	-9093
▁GPIO	-9094
pot	-9095
▁bn	-9096
▁eta	-9097
padding	-9098
previous	-9099
▁spin	-9100
▁Program	-9101
▁critical	-9102
▁vouch	-9103
cnt	-9104
▁Google	-9105
▁xi	-9106
numeric	-9107
utf	-9108
▁такая	-9109
▁ini	-9110
▁прис	-9111
▁employee	-9112
▁времени	-9113
▁eng	-9114
▁NE	-9115
▁70	-9116
apps	-9117
views	-9118
▁disp	-9119
relative	-9120
ua	-9121
registration	-9122
focus	-9123
TIMEOUT	-9124
ILED	-9125
щего	-9126
▁corpus	-9127
ById	-9128
Simple	-9129
Single	-9130
visions	-9131
▁dct	-9132
▁providers	-9133
VEL	-9134
▁PROJECT	-9135
▁Git	-9136
-03	-9137
SPON	-9138
seen	-9139
GROUP	-9140
▁34	-9141
sence	-9142
nost	-9143
▁Android	-9144
proj	-9145
Validator	-9146
';	-9147
▁Bit	-9148
▁intersection	-9149
▁пользователь	-9150
:\	-9151
▁normpath	-9152
phase	-9153
Ren	-9154
▁large	-9155
▁interp	-9156
secs	-9157
▁fromstring	-9158
ANS	-9159
▁Mark	-9160
▁fld	-9161
candid	-9162
▁canonical	-9163
▁highlight	-9164
void	-9165
▁Rule	-9166
decor	-9167
SPACE	-9168
inate	-9169
Fixture	-9170
tor	-9171
CD	-9172
flatten	-9173
▁HTTPError	-9174
▁mgr	-9175
▁здесь	-9176
▁subnets	-9177
▁todo	-9178
▁say	-9179
Setup	-9180
ranches	-9181
▁ub	-9182
▁isoformat	-9183
▁trip	-9184
installed	-9185
poll	-9186
▁buttons	-9187
ваем	-9188
▁migrations	-9189
Cluster	-9190
▁toolbar	-9191
▁действи	-9192
▁ol	-9193
grams	-9194
ranges	-9195
▁ray	-9196
▁horizontal	-9197
Auto	-9198
PTIONS	-9199
▁secure	-9200
▁forum	-9201
facts	-9202
▁Debug	-9203
▁sizes	-9204
▁Comple	-9205
▁документа	-9206
▁Options	-9207
▁Password	-9208
iso	-9209
▁даже	-9210
udy	-9211
▁кра	-9212
Normal	-9213
▁START	-9214
___	-9215
ned	-9216
▁assertQuery	-9217
▁authenticate	-9218
▁postgres	-9219
quet	-9220
вление	-9221
▁Помо	-9222
▁fee	-9223
VAR	-9224
▁vpc	-9225
▁Conv	-9226
▁eye	-9227
▁descr	-9228
▁размер	-9229
91	-9230
construct	-9231
▁grp	-9232
▁capabilities	-9233
▁separ	-9234
▁компон	-9235
▁most	-9236
▁dedent	-9237
▁netloc	-9238
▁ceil	-9239
Disk	-9240
▁jsonutils	-9241
▁переменную	-9242
▁UserFactory	-9243
ByName	-9244
▁инде	-9245
▁QMessageBox	-9246
tester	-9247
lv	-9248
arp	-9249
▁human	-9250
Scene	-9251
▁.1	-9252
▁scr	-9253
▁кнопки	-9254
▁formula	-9255
▁поэтому	-9256
pointer	-9257
00000	-9258
ders	-9259
▁Last	-9260
чей	-9261
cases	-9262
▁nat	-9263
▁48	-9264
▁ORDER	-9265
▁expire	-9266
soft	-9267
▁basedir	-9268
▁sz	-9269
▁accepted	-9270
ряд	-9271
▁nv	-9272
runs	-9273
7"	-9274
▁10.	-9275
▁MySQL	-9276
▁openconfig	-9277
Zone	-9278
▁сти	-9279
izing	-9280
wrapped	-9281
▁flip	-9282
▁'127.0.0	-9283
▁orders	-9284
chat	-9285
imize	-9286
▁Range	-9287
▁writeFieldBegin	-9288
Product	-9289
▁writeFieldEnd	-9290
bottom	-9291
VC	-9292
▁CR	-9293
Debug	-9294
dimension	-9295
▁hits	-9296
obs	-9297
▁моду	-9298
STRING	-9299
▁CT	-9300
moving	-9301
▁cas	-9302
▁attempt	-9303
▁bdm	-9304
▁opener	-9305
▁skipped	-9306
.0/	-9307
WR	-9308
▁management	-9309
чет	-9310
erce	-9311
deprecated	-9312
LOB	-9313
margin	-9314
▁expanduser	-9315
▁accuracy	-9316
▁META	-9317
bc	-9318
▁LEFT	-9319
GRA	-9320
DOWN	-9321
▁},	-9322
▁xm	-9323
▁pn	-9324
час	-9325
▁строке	-9326
▁arrays	-9327
▁regions	-9328
▁mqtt	-9329
iodic	-9330
Err	-9331
ales	-9332
urations	-9333
▁кто	-9334
▁Ignore	-9335
▁market	-9336
unded	-9337
ae	-9338
шо	-9339
Wh	-9340
Prop	-9341
▁AC	-9342
realm	-9343
dat	-9344
▁getValue	-9345
bian	-9346
▁pq	-9347
лав	-9348
▁ys	-9349
▁Enable	-9350
▁inverse	-9351
▁magic	-9352
helpers	-9353
▁Free	-9354
vigation	-9355
lengths	-9356
LET	-9357
ONG	-9358
bas	-9359
rightness	-9360
Details	-9361
▁выраж	-9362
▁choose	-9363
projects	-9364
KNOWN	-9365
▁ал	-9366
▁TRA	-9367
▁Grid	-9368
Plot	-9369
urchase	-9370
▁topics	-9371
▁lif	-9372
▁simp	-9373
ause	-9374
▁chrome	-9375
▁wind	-9376
SPONSE	-9377
Mixin	-9378
▁сущест	-9379
▁ска	-9380
raries	-9381
▁exploration	-9382
▁гру	-9383
VALUE	-9384
▁Cluster	-9385
questions	-9386
▁javascript	-9387
ARE	-9388
▁failures	-9389
▁yy	-9390
EV	-9391
▁linked	-9392
gw	-9393
fails	-9394
▁ful	-9395
▁Row	-9396
▁jid	-9397
▁voucher	-9398
▁возвращает	-9399
Schedule	-9400
termine	-9401
▁opa	-9402
listen	-9403
▁ши	-9404
Literal	-9405
cue	-9406
▁du	-9407
▁resume	-9408
▁Entity	-9409
distribution	-9410
нг	-9411
▁ajax	-9412
▁USE	-9413
▁fip	-9414
bf	-9415
▁popup	-9416
normalize	-9417
operations	-9418
▁ftp	-9419
▁nonce	-9420
▁Op	-9421
▁списка	-9422
▁iloc	-9423
setEqual	-9424
vocab	-9425
▁Security	-9426
нкрет	-9427
▁имеет	-9428
46	-9429
▁PAR	-9430
▁coll	-9431
ита	-9432
tun	-9433
3,	-9434
▁occur	-9435
▁signals	-9436
codeError	-9437
▁streams	-9438
▁converted	-9439
lope	-9440
▁framework	-9441
▁egg	-9442
Equals	-9443
/>	-9444
oll	-9445
▁Все	-9446
▁realpath	-9447
▁equ	-9448
Pattern	-9449
ERY	-9450
ev	-9451
▁jnp	-9452
▁mul	-9453
▁какие	-9454
styles	-9455
▁Layer	-9456
▁Imp	-9457
▁moment	-9458
▁callbacks	-9459
▁caption	-9460
▁fk	-9461
тите	-9462
analy	-9463
чный	-9464
▁строк	-9465
▁смо	-9466
received	-9467
Copy	-9468
-05	-9469
Users	-9470
▁newaxis	-9471
▁notifications	-9472
▁Zero	-9473
structions	-9474
writ	-9475
▁SUCCESS	-9476
▁please	-9477
aming	-9478
dictionary	-9479
hemeral	-9480
вании	-9481
symbols	-9482
▁SOURCE	-9483
▁tpl	-9484
▁processing	-9485
▁APP	-9486
▁0.001	-9487
▁until	-9488
▁eg	-9489
mitted	-9490
▁enrollment	-9491
▁detach	-9492
more	-9493
▁indicator	-9494
tot	-9495
▁pwd	-9496
▁записи	-9497
▁filesystem	-9498
under	-9499
Memory	-9500
▁Callback	-9501
07	-9502
▁Got	-9503
ctxt	-9504
contin	-9505
▁cases	-9506
▁locator	-9507
curve	-9508
dynamic	-9509
ATED	-9510
ейчас	-9511
follow	-9512
▁Send	-9513
▁iterations	-9514
latform	-9515
mn	-9516
▁Game	-9517
Indent	-9518
▁expiration	-9519
▁писа	-9520
▁запроса	-9521
▁стандар	-9522
gettext	-9523
▁CG	-9524
Greater	-9525
ACT	-9526
09	-9527
▁ED	-9528
фей	-9529
▁Install	-9530
cpp	-9531
▁First	-9532
▁byref	-9533
▁GetValue	-9534
▁tele	-9535
Byte	-9536
▁"10	-9537
▁ei	-9538
dfs	-9539
planation	-9540
Rep	-9541
▁periods	-9542
phi	-9543
▁Interface	-9544
rontend	-9545
▁assertList	-9546
▁ctype	-9547
▁CUR	-9548
Print	-9549
ildcard	-9550
льше	-9551
52	-9552
▁Cloud	-9553
beard	-9554
▁контро	-9555
▁INST	-9556
нно	-9557
▁Domain	-9558
Screen	-9559
▁pitch	-9560
▁получаю	-9561
INET	-9562
▁profiles	-9563
▁tabs	-9564
CI	-9565
svg	-9566
▁memo	-9567
▁prior	-9568
▁ещё	-9569
▁INTER	-9570
щей	-9571
▁Return	-9572
Game	-9573
scheme	-9574
Push	-9575
▁stored	-9576
thumb	-9577
oney	-9578
▁meth	-9579
▁radio	-9580
Contents	-9581
▁Unsupported	-9582
havior	-9583
Used	-9584
▁occ	-9585
▁Abstract	-9586
dirty	-9587
ensure	-9588
kb	-9589
Progress	-9590
clusters	-9591
▁Созда	-9592
drive	-9593
▁bz	-9594
versal	-9595
▁Помогите	-9596
white	-9597
transfer	-9598
rier	-9599
callable	-9600
celer	-9601
▁integr	-9602
▁subscriptions	-9603
"><	-9604
фо	-9605
▁neighbor	-9606
▁collector	-9607
▁rh	-9608
riction	-9609
▁flux	-9610
▁fb	-9611
▁reward	-9612
ually	-9613
гра	-9614
▁ance	-9615
ky	-9616
▁fontsize	-9617
▁terminal	-9618
BB	-9619
▁Try	-9620
▁Или	-9621
▁production	-9622
infos	-9623
finish	-9624
▁projection	-9625
▁hp	-9626
▁теку	-9627
▁hr	-9628
▁стоит	-9629
does	-9630
constraints	-9631
leave	-9632
uestion	-9633
▁places	-9634
turn	-9635
▁Profile	-9636
▁29	-9637
bridge	-9638
rac	-9639
Mar	-9640
artifact	-9641
▁rad	-9642
▁понял	-9643
SITE	-9644
ores	-9645
▁extras	-9646
nb	-9647
wave	-9648
ike	-9649
вления	-9650
▁чего	-9651
▁syntax	-9652
ASK	-9653
START	-9654
za	-9655
▁rval	-9656
▁них	-9657
▁assertDict	-9658
▁программы	-9659
▁undo	-9660
Tags	-9661
▁Fixed	-9662
scroll	-9663
SSL	-9664
▁hg	-9665
▁emails	-9666
▁linenum	-9667
aring	-9668
▁Fail	-9669
▁sdk	-9670
xa	-9671
▁zulip	-9672
▁endpoints	-9673
▁никак	-9674
▁второй	-9675
▁third	-9676
▁finalize	-9677
▁sickbeard	-9678
special	-9679
57	-9680
pline	-9681
чем	-9682
▁Interval	-9683
▁Go	-9684
▁infer	-9685
Events	-9686
▁reboot	-9687
oraryFile	-9688
▁ACTIVE	-9689
▁Keyboard	-9690
ANGE	-9691
lue	-9692
▁replication	-9693
▁ic	-9694
▁ear	-9695
laration	-9696
Can	-9697
▁locked	-9698
▁getName	-9699
sessment	-9700
▁rpm	-9701
▁theano	-9702
▁Iterator	-9703
▁newline	-9704
▁Raw	-9705
▁bash	-9706
lr	-9707
▁Boolean	-9708
▁мак	-9709
keywords	-9710
▁коне	-9711
alert	-9712
▁Example	-9713
▁twitter	-9714
licas	-9715
▁лока	-9716
VIE	-9717
▁файлов	-9718
▁conflict	-9719
▁optimize	-9720
▁GE	-9721
кую	-9722
лом	-9723
▁assigned	-9724
▁arrow	-9725
▁доста	-9726
▁mf	-9727
доб	-9728
▁SN	-9729
▁bra	-9730
▁equals	-9731
шибка	-9732
constants	-9733
ства	-9734
▁delivery	-9735
Split	-9736
▁hooks	-9737
Login	-9738
URN	-9739
History	-9740
▁logged	-9741
горит	-9742
Pair	-9743
▁libs	-9744
AI	-9745
pm	-9746
ROL	-9747
riterion	-9748
▁squ	-9749
▁37	-9750
comb	-9751
saved	-9752
▁Media	-9753
▁stri	-9754
Non	-9755
▁подоб	-9756
▁cho	-9757
tions	-9758
▁компиля	-9759
▁таким	-9760
▁sal	-9761
vn	-9762
▁Script	-9763
▁сервера	-9764
рование	-9765
▁initiator	-9766
▁vg	-9767
▁нажатии	-9768
▁combined	-9769
▁itemlist	-9770
health	-9771
▁datum	-9772
▁attachments	-9773
itecture	-9774
тра	-9775
▁Dialog	-9776
voice	-9777
uters	-9778
▁Real	-9779
▁тип	-9780
бя	-9781
▁alignment	-9782
ствую	-9783
rick	-9784
▁Report	-9785
ecause	-9786
andbox	-9787
locked	-9788
Plan	-9789
bulk	-9790
жд	-9791
domains	-9792
▁portal	-9793
▁dbus	-9794
▁её	-9795
stmt	-9796
▁произ	-9797
-04	-9798
▁Batch	-9799
▁density	-9800
▁решить	-9801
▁rnn	-9802
▁загруз	-9803
▁characters	-9804
81	-9805
▁sprite	-9806
64"	-9807
▁incorrect	-9808
""	-9809
▁shop	-9810
▁является	-9811
losure	-9812
utc	-9813
▁denom	-9814
Information	-9815
води	-9816
▁iteration	-9817
▁fpath	-9818
▁ske	-9819
Labels	-9820
ngle	-9821
▁ball	-9822
▁66	-9823
Batch	-9824
▁replacement	-9825
▁configured	-9826
ранее	-9827
rove	-9828
▁файле	-9829
▁chmod	-9830
▁каждый	-9831
frequency	-9832
best	-9833
▁padd	-9834
▁grant	-9835
superuser	-9836
iguous	-9837
▁AttributeValue	-9838
Paths	-9839
▁ENT	-9840
▁зависимо	-9841
▁cam	-9842
increment	-9843
▁AA	-9844
при	-9845
otes	-9846
▁Lock	-9847
▁jump	-9848
energy	-9849
After	-9850
Proto	-9851
mys	-9852
▁succe	-9853
Art	-9854
tet	-9855
▁markup	-9856
EMAIL	-9857
sr	-9858
▁respon	-9859
▁Red	-9860
▁solid	-9861
▁ofproto	-9862
unters	-9863
▁mtime	-9864
▁WOR	-9865
POS	-9866
щих	-9867
▁срав	-9868
▁разде	-9869
▁Dest	-9870
▁Cache	-9871
▁вывод	-9872
▁меню	-9873
0001	-9874
▁'127.0.0.1'	-9875
▁meter	-9876
cles	-9877
▁challenge	-9878
gered	-9879
▁encryption	-9880
Bot	-9881
jar	-9882
-11	-9883
▁rospy	-9884
▁grads	-9885
xies	-9886
ilestone	-9887
latest	-9888
NEL	-9889
ivot	-9890
arrow	-9891
ality	-9892
▁IF	-9893
Sli	-9894
128	-9895
▁страницу	-9896
uc	-9897
prompt	-9898
tour	-9899
bon	-9900
dating	-9901
лад	-9902
uplicates	-9903
▁ошибки	-9904
Trace	-9905
▁sizeof	-9906
▁акти	-9907
▁yet	-9908
▁flavors	-9909
spaces	-9910
tee	-9911
going	-9912
▁dirpath	-9913
ired	-9914
started	-9915
▁typing	-9916
snap	-9917
▁policies	-9918
ICAL	-9919
Member	-9920
alchemy	-9921
▁urn	-9922
▁которой	-9923
▁integration	-9924
creation	-9925
▁Linux	-9926
полн	-9927
ASH	-9928
guest	-9929
▁[0-9	-9930
▁попро	-9931
letion	-9932
▁colour	-9933
Less	-9934
payment	-9935
bank	-9936
▁joined	-9937
123	-9938
▁блок	-9939
inates	-9940
▁vault	-9941
▁sympy	-9942
▁El	-9943
itness	-9944
▁footer	-9945
clo	-9946
Summary	-9947
▁Component	-9948
зация	-9949
▁filt	-9950
▁Dense	-9951
32_	-9952
▁EVT	-9953
ibling	-9954
▁GROUP	-9955
▁piece	-9956
▁ack	-9957
▁конкрет	-9958
▁tweet	-9959
▁weak	-9960
▁обо	-9961
artbeat	-9962
▁teardown	-9963
The	-9964
▁relay	-9965
▁subclass	-9966
▁csr	-9967
▁allocation	-9968
GroupName	-9969
▁assertListEqual	-9970
ginx	-9971
filtered	-9972
▁strong	-9973
▁primitive	-9974
IDTH	-9975
NN	-9976
tas	-9977
Modified	-9978
▁SP	-9979
▁painter	-9980
▁xmin	-9981
shutdown	-9982
tuples	-9983
▁txn	-9984
▁закры	-9985
▁дли	-9986
priority	-9987
логи	-9988
▁Role	-9989
ложи	-9990
▁'192.168	-9991
▁macro	-9992
Des	-9993
▁formset	-9994
▁tg	-9995
So	-9996
▁pref	-9997
atched	-9998
▁reject	-9999
dummy	-10000
53	-10001
FER	-10002
▁всегда	-10003
▁Из	-10004
▁blah	-10005
leting	-10006
vg	-10007
▁sink	-10008
▁това	-10009
CB	-10010
Renderer	-10011
published	-10012
▁perf	-10013
modes	-10014
cm	-10015
▁"3	-10016
▁squeeze	-10017
▁FORM	-10018
▁symlink	-10019
rand	-10020
attery	-10021
▁wire	-10022
▁Org	-10023
IV	-10024
assignment	-10025
▁tls	-10026
esh	-10027
▁relationship	-10028
▁Creating	-10029
▁supplier	-10030
▁sam	-10031
ORMAL	-10032
▁ng	-10033
▁Sim	-10034
▁имя	-10035
нта	-10036
лага	-10037
▁snapshots	-10038
utors	-10039
точно	-10040
▁Word	-10041
коль	-10042
▁front	-10043
▁userid	-10044
▁vtk	-10045
▁Logger	-10046
FIELD	-10047
▁INPUT	-10048
▁alter	-10049
▁Fire	-10050
▁одной	-10051
ANGU	-10052
▁snippet	-10053
▁initialized	-10054
▁stick	-10055
finite	-10056
plotlib	-10057
AGES	-10058
▁аргу	-10059
▁ARM	-10060
udf	-10061
pread	-10062
им	-10063
▁kb	-10064
▁workdir	-10065
цией	-10066
ov	-10067
Comment	-10068
▁Schedule	-10069
cv	-10070
▁вроде	-10071
▁subtype	-10072
▁гра	-10073
▁fm	-10074
▁anno	-10075
registered	-10076
▁отс	-10077
▁Normal	-10078
exclude	-10079
atoms	-10080
▁проект	-10081
matched	-10082
▁Parser	-10083
▁LIST	-10084
дова	-10085
coef	-10086
recurs	-10087
▁Primitive	-10088
▁conversion	-10089
▁tunnel	-10090
▁holid	-10091
Full	-10092
Pi	-10093
▁должна	-10094
checked	-10095
TAG	-10096
▁km	-10097
▁magn	-10098
▁Cancel	-10099
▁msgs	-10100
жать	-10101
▁spatial	-10102
annotations	-10103
good	-10104
▁greater	-10105
blank	-10106
IDs	-10107
tw	-10108
24'	-10109
duplicate	-10110
())	-10111
▁txid	-10112
▁SIGNAL	-10113
emu	-10114
▁должны	-10115
ised	-10116
▁ny	-10117
▁multiply	-10118
▁BB	-10119
▁"4	-10120
▁gender	-10121
▁Parent	-10122
scripts	-10123
▁nickname	-10124
▁visual	-10125
▁inject	-10126
▁lists	-10127
UTE	-10128
tage	-10129
▁circle	-10130
Errors	-10131
▁specific	-10132
▁исправить	-10133
зе	-10134
Transaction	-10135
▁интерфей	-10136
geom	-10137
▁heading	-10138
▁keystone	-10139
▁assertGreater	-10140
Sup	-10141
iness	-10142
NODE	-10143
▁isdigit	-10144
▁rw	-10145
wner	-10146
▁Non	-10147
▁SA	-10148
Import	-10149
▁Your	-10150
▁los	-10151
fb	-10152
▁Gen	-10153
using	-10154
▁corr	-10155
▁atomic	-10156
▁Flow	-10157
parsers	-10158
▁Append	-10159
▁rss	-10160
▁vc	-10161
▁Compute	-10162
▁distro	-10163
urname	-10164
pw	-10165
initialized	-10166
▁resolved	-10167
▁basis	-10168
▁выда	-10169
LD	-10170
▁deferred	-10171
cart	-10172
▁explicit	-10173
Press	-10174
▁wall	-10175
▁делаю	-10176
нд	-10177
ально	-10178
▁LA	-10179
dited	-10180
liter	-10181
▁hub	-10182
▁conj	-10183
▁sched	-10184
▁startup	-10185
quot	-10186
COLOR	-10187
blem	-10188
canvas	-10189
▁roi	-10190
prime	-10191
rack	-10192
problem	-10193
initialize	-10194
▁Fin	-10195
▁modes	-10196
ODULE	-10197
peer	-10198
▁htt	-10199
gre	-10200
▁through	-10201
▁offsets	-10202
▁keepdims	-10203
wik	-10204
▁cmdline	-10205
▁поз	-10206
validator	-10207
▁OB	-10208
kl	-10209
expand	-10210
циали	-10211
▁tracks	-10212
▁aaa	-10213
▁Connect	-10214
▁dv	-10215
▁visited	-10216
▁reporter	-10217
environ	-10218
streams	-10219
▁explanation	-10220
▁prep	-10221
primitive	-10222
▁Collection	-10223
LES	-10224
FromString	-10225
rott	-10226
kes	-10227
▁2,	-10228
pools	-10229
▁discard	-10230
uate	-10231
▁histogram	-10232
▁BUILD	-10233
▁ann	-10234
меня	-10235
▁ranges	-10236
▁blk	-10237
letter	-10238
Pixmap	-10239
▁scatter	-10240
restore	-10241
callbacks	-10242
lecule	-10243
▁LD	-10244
▁оно	-10245
notation	-10246
▁Setting	-10247
compiler	-10248
▁UI	-10249
Diff	-10250
luid	-10251
▁странице	-10252
Distance	-10253
▁'200	-10254
ini	-10255
traceback	-10256
▁silent	-10257
▁исклю	-10258
▁coordinator	-10259
▁CPU	-10260
fw	-10261
▁199	-10262
predict	-10263
reenshot	-10264
▁описа	-10265
VS	-10266
border	-10267
▁overlap	-10268
▁pys	-10269
CF	-10270
▁resolver	-10271
NED	-10272
▁вид	-10273
▁apache	-10274
▁reservation	-10275
swap	-10276
щим	-10277
▁encrypted	-10278
▁languages	-10279
▁Пере	-10280
Score	-10281
▁there	-10282
мотреть	-10283
▁Generic	-10284
▁truncate	-10285
anted	-10286
▁attempts	-10287
aving	-10288
ino	-10289
▁algo	-10290
▁хоро	-10291
▁cutoff	-10292
ванием	-10293
▁because	-10294
▁rg	-10295
completed	-10296
LENG	-10297
▁unsigned	-10298
▁SOCK	-10299
NETWORK	-10300
iming	-10301
▁gy	-10302
▁bom	-10303
Cloud	-10304
тек	-10305
▁fnmatch	-10306
Ext	-10307
▁csrf	-10308
▁such	-10309
▁drvr	-10310
Segment	-10311
[1	-10312
interfaces	-10313
их	-10314
▁ant	-10315
▁heap	-10316
▁grouped	-10317
peaker	-10318
стра	-10319
hicle	-10320
▁каждого	-10321
▁attention	-10322
▁CSS	-10323
▁dw	-10324
маю	-10325
читы	-10326
▁absent	-10327
ade	-10328
backward	-10329
▁compiled	-10330
TING	-10331
pickle	-10332
▁Де	-10333
ORIZ	-10334
▁2015	-10335
▁glance	-10336
▁VALID	-10337
cube	-10338
▁ваше	-10339
▁Remote	-10340
Weight	-10341
▁attack	-10342
▁SystemExit	-10343
adapter	-10344
43	-10345
▁sch	-10346
Success	-10347
емо	-10348
▁posix	-10349
▁409	-10350
lies	-10351
▁vpn	-10352
assistant	-10353
▁250	-10354
▁xen	-10355
▁testcase	-10356
▁World	-10357
urface	-10358
▁одного	-10359
▁01	-10360
41	-10361
▁fut	-10362
Pick	-10363
combo	-10364
▁Required	-10365
▁Pe	-10366
▁vdi	-10367
▁Play	-10368
▁0.75	-10369
писы	-10370
▁"202	-10371
▁urljoin	-10372
▁resid	-10373
builtin	-10374
▁иде	-10375
ism	-10376
▁baseline	-10377
perms	-10378
▁answers	-10379
moid	-10380
Classifier	-10381
▁bm	-10382
▁perms	-10383
▁develo	-10384
priv	-10385
▁gre	-10386
pag	-10387
▁srv	-10388
outine	-10389
Packet	-10390
▁Rect	-10391
▁discussion	-10392
▁fatal	-10393
▁eb	-10394
▁saver	-10395
nx	-10396
▁yellow	-10397
щая	-10398
Counter	-10399
▁MessageBox	-10400
BY	-10401
"""	-10402
Interrupt	-10403
льных	-10404
TEMPLATE	-10405
▁imag	-10406
ading	-10407
precision	-10408
▁blocking	-10409
▁нормально	-10410
▁enqueue	-10411
▁lexer	-10412
XT	-10413
Cor	-10414
▁bid	-10415
▁столб	-10416
▁sda	-10417
▁excluded	-10418
mappings	-10419
digits	-10420
▁6.0	-10421
tb	-10422
▁recon	-10423
▁combin	-10424
▁Ошибка	-10425
▁момент	-10426
MSG	-10427
енный	-10428
Extra	-10429
▁STOP	-10430
▁IMAGE	-10431
▁Subject	-10432
▁validated	-10433
▁используется	-10434
▁CL	-10435
▁cname	-10436
▁передать	-10437
prote	-10438
▁completion	-10439
▁quad	-10440
queries	-10441
▁youtube	-10442
▁Integr	-10443
▁logo	-10444
annotation	-10445
Help	-10446
▁Doc	-10447
▁Metadata	-10448
▁getenv	-10449
▁RESULT	-10450
рее	-10451
▁outdir	-10452
izations	-10453
▁STD	-10454
▁invite	-10455
▁frozenset	-10456
▁routers	-10457
▁imdb	-10458
▁sessions	-10459
sid	-10460
▁Display	-10461
tile	-10462
51	-10463
retries	-10464
▁statistics	-10465
▁incoming	-10466
lazy	-10467
дь	-10468
needed	-10469
Background	-10470
▁Sm	-10471
Conn	-10472
Qt	-10473
THON	-10474
▁courses	-10475
Random	-10476
▁processes	-10477
Note	-10478
aliases	-10479
upgrade	-10480
▁xmax	-10481
▁программа	-10482
conditions	-10483
grp	-10484
Dest	-10485
onic	-10486
▁Multiple	-10487
▁campaign	-10488
▁tolerance	-10489
▁2012	-10490
▁Tool	-10491
▁IgnoreArg	-10492
▁stand	-10493
▁curses	-10494
mk	-10495
avg	-10496
bindings	-10497
▁TESTFN	-10498
Center	-10499
topology	-10500
atalog	-10501
▁cms	-10502
voked	-10503
pix	-10504
mbda	-10505
generic	-10506
gene	-10507
olation	-10508
remain	-10509
vatar	-10510
▁nodelist	-10511
ewidth	-10512
▁настрой	-10513
uer	-10514
▁COMP	-10515
legal	-10516
▁recur	-10517
▁substit	-10518
▁Player	-10519
comparison	-10520
some	-10521
▁Proxy	-10522
signed	-10523
▁instruction	-10524
translation	-10525
runtime	-10526
▁detected	-10527
▁Pay	-10528
routes	-10529
▁offer	-10530
Align	-10531
Has	-10532
▁UserProfile	-10533
fl	-10534
▁dll	-10535
vies	-10536
рует	-10537
▁issues	-10538
▁бук	-10539
abet	-10540
regularizer	-10541
average	-10542
▁хотя	-10543
subscription	-10544
▁texture	-10545
Notification	-10546
Focus	-10547
▁scraped	-10548
pens	-10549
▁wizard	-10550
▁2013	-10551
роб	-10552
▁addons	-10553
▁Login	-10554
▁rem	-10555
lapse	-10556
repos	-10557
sptr	-10558
тить	-10559
▁OUTPUT	-10560
▁cron	-10561
BUTTON	-10562
AAAA	-10563
▁Чтобы	-10564
▁curl	-10565
нами	-10566
▁запусти	-10567
▁первый	-10568
▁iscsi	-10569
▁drv	-10570
▁observation	-10571
ьте	-10572
tics	-10573
▁эта	-10574
VIEW	-10575
chunks	-10576
▁Вам	-10577
▁EC	-10578
vest	-10579
▁Pool	-10580
▁указы	-10581
▁Child	-10582
GL	-10583
▁rsplit	-10584
cdf	-10585
xpath	-10586
Ui	-10587
▁начина	-10588
▁таблица	-10589
ones	-10590
▁undefined	-10591
▁zipfile	-10592
▁instr	-10593
▁percentage	-10594
sleep	-10595
ьше	-10596
▁вне	-10597
matching	-10598
My	-10599
lun	-10600
▁им	-10601
ваться	-10602
brid	-10603
CCEPT	-10604
lb	-10605
▁Utils	-10606
▁AP	-10607
mass	-10608
ATTER	-10609
▁moves	-10610
Book	-10611
▁ko	-10612
Signal	-10613
versation	-10614
▁outbox	-10615
funcs	-10616
SPE	-10617
▁STRUCT	-10618
▁hbox	-10619
ypes	-10620
▁lbl	-10621
▁Activity	-10622
нных	-10623
▁Starting	-10624
▁xblock	-10625
▁outcome	-10626
nse	-10627
▁pools	-10628
▁потому	-10629
▁authorization	-10630
▁Expect	-10631
rypted	-10632
▁Django	-10633
▁cards	-10634
allocate	-10635
ermin	-10636
▁примеру	-10637
vote	-10638
▁quick	-10639
▁stuff	-10640
▁variance	-10641
▁Only	-10642
▁Active	-10643
▁Возможно	-10644
▁алгорит	-10645
▁MAVLink	-10646
:1	-10647
▁sqlalchemy	-10648
▁datapath	-10649
▁Notification	-10650
mouse	-10651
udo	-10652
▁aio	-10653
uring	-10654
▁помощи	-10655
▁тем	-10656
▁stopped	-10657
ABEL	-10658
allery	-10659
quantity	-10660
Assistant	-10661
полни	-10662
ductor	-10663
▁vel	-10664
▁пак	-10665
▁гово	-10666
71	-10667
▁crypto	-10668
Execution	-10669
бок	-10670
▁ylabel	-10671
CTED	-10672
▁subfield	-10673
▁writeStruct	-10674
▁FAIL	-10675
ел	-10676
▁hot	-10677
▁ней	-10678
▁памяти	-10679
▁matmul	-10680
Dictionary	-10681
▁Trace	-10682
9"	-10683
▁отправля	-10684
temperature	-10685
▁TAG	-10686
ceipt	-10687
Total	-10688
▁inet	-10689
removed	-10690
▁charge	-10691
▁изменить	-10692
Guest	-10693
LENGTH	-10694
Pay	-10695
examples	-10696
ryption	-10697
EE	-10698
▁Quant	-10699
▁Об	-10700
▁Verify	-10701
▁ae	-10702
▁mr	-10703
noise	-10704
cycle	-10705
extend	-10706
istence	-10707
collect	-10708
▁Transaction	-10709
logged	-10710
▁HOME	-10711
ko	-10712
▁severity	-10713
▁была	-10714
mid	-10715
ftp	-10716
точ	-10717
работ	-10718
▁текста	-10719
вли	-10720
▁часть	-10721
34'	-10722
ARK	-10723
▁преобра	-10724
▁approx	-10725
▁AUT	-10726
INDOW	-10727
▁raised	-10728
▁ste	-10729
▁проблему	-10730
▁drag	-10731
▁references	-10732
globals	-10733
▁Authentic	-10734
STREAM	-10735
MPTY	-10736
▁gradients	-10737
xb	-10738
▁могут	-10739
▁needed	-10740
▁RGB	-10741
▁равно	-10742
▁weighted	-10743
▁PER	-10744
▁war	-10745
▁vide	-10746
▁копи	-10747
▁Clear	-10748
ming	-10749
RT	-10750
▁four	-10751
▁compressed	-10752
▁birth	-10753
рого	-10754
crets	-10755
▁URI	-10756
▁HTTPBadRequest	-10757
ura	-10758
.12	-10759
▁xxx	-10760
▁SSH	-10761
locator	-10762
tar	-10763
▁fuzz	-10764
ticket	-10765
aaaa	-10766
ferer	-10767
FLAGS	-10768
▁vid	-10769
▁202	-10770
▁BE	-10771
ENCE	-10772
▁мой	-10773
▁music	-10774
▁argmax	-10775
льное	-10776
guid	-10777
▁Cell	-10778
chart	-10779
▁выдает	-10780
▁ide	-10781
кну	-10782
▁mn	-10783
▁pytz	-10784
TemporaryFile	-10785
▁temporary	-10786
ях	-10787
▁циф	-10788
elta	-10789
▁2014	-10790
Red	-10791
titles	-10792
executor	-10793
fft	-10794
▁elt	-10795
▁Contact	-10796
replica	-10797
▁MD	-10798
▁HTTPRequest	-10799
ptables	-10800
▁opcode	-10801
▁son	-10802
lime	-10803
alo	-10804
cognized	-10805
▁ether	-10806
CRET	-10807
adi	-10808
▁Period	-10809
▁crc	-10810
▁исход	-10811
▁Iterable	-10812
Expr	-10813
Fn	-10814
▁isValid	-10815
Redirects	-10816
Html	-10817
льзя	-10818
adjust	-10819
ao	-10820
▁формы	-10821
▁Expr	-10822
Use	-10823
ElementsBy	-10824
▁мно	-10825
▁matplotlib	-10826
▁HomeAssistant	-10827
pared	-10828
bn	-10829
CACHE	-10830
Browser	-10831
abc	-10832
▁pose	-10833
▁gn	-10834
pie	-10835
Shell	-10836
▁GO	-10837
▁Common	-10838
▁sens	-10839
▁Са	-10840
squ	-10841
imension	-10842
▁reuse	-10843
ives	-10844
дов	-10845
▁таблицу	-10846
.2'	-10847
▁Standard	-10848
▁NONE	-10849
audio	-10850
kill	-10851
▁decl	-10852
▁xlabel	-10853
▁стандарт	-10854
capacity	-10855
ilo	-10856
big	-10857
Tip	-10858
нибудь	-10859
accounts	-10860
▁managed	-10861
▁Пер	-10862
63	-10863
▁maps	-10864
tences	-10865
▁autom	-10866
▁lot	-10867
ban	-10868
▁выде	-10869
▁joint	-10870
▁skill	-10871
▁};	-10872
article	-10873
parents	-10874
▁STAT	-10875
DEVICE	-10876
keyword	-10877
▁psi	-10878
ufact	-10879
▁parsing	-10880
ствуйте	-10881
▁tostring	-10882
Remote	-10883
jpg	-10884
▁чита	-10885
pretty	-10886
segments	-10887
COR	-10888
FC	-10889
▁проекта	-10890
respon	-10891
▁applic	-10892
Usage	-10893
Render	-10894
▁писать	-10895
maker	-10896
▁такого	-10897
Matches	-10898
▁interpreter	-10899
▁losses	-10900
▁people	-10901
▁foreign	-10902
▁setCurrent	-10903
unted	-10904
IX	-10905
erry	-10906
Div	-10907
▁apt	-10908
▁hints	-10909
JS	-10910
47	-10911
requested	-10912
▁75	-10913
▁verified	-10914
Env	-10915
ляет	-10916
▁INDEX	-10917
▁authorize	-10918
analysis	-10919
▁решения	-10920
xp	-10921
гис	-10922
izable	-10923
▁Draw	-10924
кра	-10925
▁fis	-10926
episode	-10927
нет	-10928
▁cirq	-10929
Registry	-10930
▁serv	-10931
wiki	-10932
нного	-10933
Workspace	-10934
ntl	-10935
sembly	-10936
▁TCP	-10937
▁Exit	-10938
▁rst	-10939
Console	-10940
eps	-10941
▁past	-10942
▁heat	-10943
▁stem	-10944
руется	-10945
▁ген	-10946
TOCOL	-10947
hub	-10948
DIS	-10949
▁population	-10950
▁mongo	-10951
Custom	-10952
logits	-10953
outer	-10954
modifi	-10955
Addr	-10956
▁теле	-10957
geo	-10958
▁spot	-10959
▁markdown	-10960
pandas	-10961
▁documents	-10962
MOTE	-10963
чать	-10964
▁101	-10965
sd	-10966
▁compose	-10967
▁EXT	-10968
▁who	-10969
sat	-10970
0\	-10971
Release	-10972
LL	-10973
ticks	-10974
▁getAttribute	-10975
▁imported	-10976
ены	-10977
hr	-10978
▁ред	-10979
▁reads	-10980
ObjectName	-10981
OLD	-10982
ctrl	-10983
Make	-10984
▁interactive	-10985
▁way	-10986
▁crash	-10987
▁categorical	-10988
imated	-10989
▁которое	-10990
▁Next	-10991
gp	-10992
▁кар	-10993
▁either	-10994
▁were	-10995
air	-10996
▁viewer	-10997
преде	-10998
gis	-10999
▁SD	-11000
MC	-11001
▁prefs	-11002
▁Arch	-11003
destination	-11004
▁возможность	-11005
▁ment	-11006
Pop	-11007
QUI	-11008
slave	-11009
▁автома	-11010
гуляр	-11011
нициали	-11012
▁testapp	-11013
iterable	-11014
UTF	-11015
conflict	-11016
▁errmsg	-11017
activation	-11018
▁sus	-11019
▁LibvirtConfig	-11020
▁determine	-11021
лай	-11022
▁rebuild	-11023
▁chk	-11024
▁reading	-11025
AIL	-11026
61	-11027
▁via	-11028
▁DNS	-11029
▁reports	-11030
TT	-11031
gain	-11032
major	-11033
▁Must	-11034
CHEMA	-11035
▁smooth	-11036
Sheet	-11037
▁online	-11038
▁3"	-11039
▁ито	-11040
▁данном	-11041
vigate	-11042
▁qr	-11043
▁partitions	-11044
▁нужен	-11045
receive	-11046
▁successful	-11047
▁zA	-11048
▁Certificate	-11049
PACK	-11050
decimal	-11051
▁expanded	-11052
▁delegate	-11053
49	-11054
▁fraction	-11055
▁tap	-11056
retch	-11057
▁pixels	-11058
69	-11059
▁synchron	-11060
moji	-11061
▁replay	-11062
▁openstack	-11063
▁central	-11064
▁It	-11065
Wait	-11066
тр	-11067
▁путь	-11068
inger	-11069
▁5000	-11070
▁основ	-11071
▁которых	-11072
Null	-11073
strs	-11074
san	-11075
▁gain	-11076
▁tvm	-11077
▁форму	-11078
ности	-11079
▁disks	-11080
▁сайте	-11081
▁DEVICE	-11082
▁Спасибо	-11083
▁desktop	-11084
CLIENT	-11085
▁discount	-11086
▁Здра	-11087
Mac	-11088
vectors	-11089
▁plotly	-11090
dead	-11091
▁excinfo	-11092
least	-11093
▁selen	-11094
]:	-11095
dhcp	-11096
зить	-11097
▁caps	-11098
may	-11099
▁QLabel	-11100
▁paginator	-11101
16'	-11102
Double	-11103
ased	-11104
▁IGN	-11105
▁новый	-11106
vlc	-11107
rx	-11108
small	-11109
ая	-11110
ним	-11111
creds	-11112
чик	-11113
▁palette	-11114
▁Video	-11115
SELECT	-11116
▁va	-11117
retrie	-11118
▁данный	-11119
meter	-11120
▁день	-11121
▁Win	-11122
▁выше	-11123
▁запус	-11124
information	-11125
rived	-11126
ool	-11127
ITS	-11128
▁Доб	-11129
▁999	-11130
Long	-11131
▁Всем	-11132
▁boxes	-11133
▁качест	-11134
specific	-11135
▁sun	-11136
▁popen	-11137
balancer	-11138
▁selenium	-11139
▁spider	-11140
DEF	-11141
tenance	-11142
▁проблемы	-11143
▁il	-11144
checksum	-11145
▁stamp	-11146
▁kargs	-11147
▁loading	-11148
legacy	-11149
ships	-11150
uuids	-11151
launch	-11152
-06	-11153
▁DATE	-11154
uradio	-11155
▁диа	-11156
▁цикл	-11157
attice	-11158
Done	-11159
igration	-11160
▁Language	-11161
different	-11162
attachment	-11163
ago	-11164
▁capital	-11165
▁пиш	-11166
▁Internal	-11167
▁preferred	-11168
usion	-11169
iline	-11170
▁Null	-11171
▁некоторы	-11172
formatter	-11173
uniform	-11174
▁vx	-11175
▁FE	-11176
▁SHA	-11177
▁repl	-11178
▁scraper	-11179
▁Те	-11180
▁ог	-11181
Den	-11182
TOKEN	-11183
than	-11184
transl	-11185
Author	-11186
▁cen	-11187
TagName	-11188
ilarity	-11189
роме	-11190
Security	-11191
▁выводит	-11192
▁3.1	-11193
leter	-11194
lihood	-11195
▁сохраня	-11196
▁59	-11197
чанию	-11198
oller	-11199
▁состоя	-11200
Headers	-11201
fx	-11202
Gate	-11203
▁разобра	-11204
▁CONTENT	-11205
▁polygon	-11206
▁COUNT	-11207
slots	-11208
erred	-11209
▁assertRedirects	-11210
wrong	-11211
▁upstream	-11212
lent	-11213
certs	-11214
])	-11215
мол	-11216
▁QV	-11217
дина	-11218
▁этих	-11219
markup	-11220
adoop	-11221
▁uuids	-11222
▁SCons	-11223
▁SV	-11224
▁sanitize	-11225
ooser	-11226
▁decrypt	-11227
Region	-11228
▁перед	-11229
033	-11230
about	-11231
▁intent	-11232
▁asnumpy	-11233
▁builtin	-11234
▁translations	-11235
dependency	-11236
DU	-11237
▁MULT	-11238
▁ovs	-11239
olling	-11240
вствуйте	-11241
Speed	-11242
patcher	-11243
adj	-11244
Pe	-11245
кси	-11246
▁NaN	-11247
pring	-11248
hold	-11249
▁тексто	-11250
▁bindings	-11251
hours	-11252
anonymous	-11253
▁DT	-11254
mongo	-11255
gnuradio	-11256
▁тот	-11257
▁har	-11258
Short	-11259
draft	-11260
rating	-11261
▁mismatch	-11262
▁neighbors	-11263
odb	-11264
▁одинако	-11265
▁jinja	-11266
prep	-11267
▁Хо	-11268
▁экра	-11269
material	-11270
ток	-11271
iny	-11272
▁поддер	-11273
Day	-11274
▁pic	-11275
▁связа	-11276
AX	-11277
▁360	-11278
EVENT	-11279
▁CLIENT	-11280
щую	-11281
ExistsError	-11282
▁para	-11283
aker	-11284
▁перес	-11285
Video	-11286
▁preprocess	-11287
company	-11288
льной	-11289
Sim	-11290
▁design	-11291
▁mand	-11292
▁unregister	-11293
cending	-11294
Many	-11295
▁invert	-11296
▁figs	-11297
▁$('	-11298
TABLE	-11299
▁regexp	-11300
estimator	-11301
▁Counter	-11302
Site	-11303
▁exportLiteral	-11304
filenames	-11305
рый	-11306
▁genome	-11307
▁matcher	-11308
▁yml	-11309
▁preserve	-11310
▁Microsoft	-11311
plug	-11312
▁mixed	-11313
fice	-11314
▁velocity	-11315
▁{2	-11316
▁MainWindow	-11317
},	-11318
Fore	-11319
Off	-11320
▁hap	-11321
▁unix	-11322
▁иг	-11323
▁Testing	-11324
▁runs	-11325
▁задача	-11326
▁mgmt	-11327
▁pan	-11328
▁hypervisor	-11329
нной	-11330
DIRECT	-11331
▁anonymous	-11332
▁classname	-11333
▁included	-11334
▁узна	-11335
▁tokenizer	-11336
buff	-11337
world	-11338
LOAT	-11339
▁SK	-11340
▁uv	-11341
▁hparams	-11342
Received	-11343
▁folders	-11344
Environment	-11345
mut	-11346
▁ссылку	-11347
▁бла	-11348
▁Manage	-11349
▁hamlet	-11350
comme	-11351
pd	-11352
▁modname	-11353
Cont	-11354
bdm	-11355
▁GR	-11356
dee	-11357
overlap	-11358
▁sets	-11359
▁sizer	-11360
▁bond	-11361
▁Име	-11362
ICE	-11363
widgets	-11364
ABASE	-11365
Bool	-11366
▁lam	-11367
▁intercept	-11368
▁criteria	-11369
навли	-11370
▁gettext	-11371
▁фра	-11372
▁заго	-11373
▁homeassistant	-11374
II	-11375
▁men	-11376
coin	-11377
());	-11378
▁RUNNING	-11379
inline	-11380
mysql	-11381
▁Пыта	-11382
iful	-11383
scheduler	-11384
ickness	-11385
Origin	-11386
PRI	-11387
▁rsrc	-11388
▁Future	-11389
1)	-11390
▁fcntl	-11391
clients	-11392
▁показы	-11393
BoxLayout	-11394
▁importer	-11395
молчанию	-11396
▁выз	-11397
▁pubkey	-11398
▁recipients	-11399
▁tokenize	-11400
▁Zip	-11401
EGER	-11402
▁Core	-11403
transition	-11404
ментари	-11405
▁Align	-11406
profiles	-11407
▁IMP	-11408
груз	-11409
dividual	-11410
▁Directory	-11411
Available	-11412
батывает	-11413
transactions	-11414
▁billing	-11415
▁атри	-11416
Agg	-11417
upt	-11418
▁Hy	-11419
slices	-11420
autiful	-11421
▁during	-11422
Acceler	-11423
▁assertDictEqual	-11424
attle	-11425
▁Using	-11426
▁Sw	-11427
▁позво	-11428
Windows	-11429
Encoding	-11430
▁TC	-11431
▁translated	-11432
▁subscriptionId	-11433
hide	-11434
▁mountpoint	-11435
tabs	-11436
▁failUnlessEqual	-11437
Namespace	-11438
▁груп	-11439
LIMIT	-11440
▁inherit	-11441
▁Extra	-11442
▁спасибо	-11443
▁proposal	-11444
buttons	-11445
▁ordering	-11446
▁кла	-11447
intercept	-11448
zones	-11449
▁serve	-11450
▁ACTION	-11451
rename	-11452
▁Wh	-11453
▁SUPPORT	-11454
Price	-11455
Sensor	-11456
▁ndi	-11457
▁spacing	-11458
▁Manager	-11459
хи	-11460
bootstrap	-11461
▁XX	-11462
▁Single	-11463
▁latex	-11464
").	-11465
▁56	-11466
Soup	-11467
eploy	-11468
▁нельзя	-11469
Finished	-11470
consume	-11471
пыт	-11472
▁includes	-11473
icks	-11474
angles	-11475
▁«	-11476
ectors	-11477
Pen	-11478
▁уве	-11479
Pr	-11480
ходе	-11481
standard	-11482
▁fx	-11483
▁INIT	-11484
CENT	-11485
▁learn	-11486
чер	-11487
▁Soft	-11488
Arch	-11489
have	-11490
cdn	-11491
▁хоте	-11492
erc	-11493
▁разных	-11494
▁'1.2	-11495
Go	-11496
Feed	-11497
▁Undefined	-11498
Vertex	-11499
posure	-11500
DoesNotExist	-11501
▁655	-11502
creator	-11503
▁inside	-11504
▁рав	-11505
▁od	-11506
probs	-11507
tv	-11508
▁prefetch	-11509
▁Done	-11510
▁всем	-11511
Seq	-11512
LOSE	-11513
atable	-11514
▁FAILED	-11515
▁'4'	-11516
covered	-11517
STEM	-11518
▁libvlc	-11519
partner	-11520
▁Byte	-11521
▁creating	-11522
▁gray	-11523
topics	-11524
▁пробе	-11525
▁blit	-11526
▁prun	-11527
optional	-11528
responses	-11529
gc	-11530
▁plane	-11531
▁zones	-11532
agers	-11533
▁окно	-11534
nat	-11535
рт	-11536
▁Когда	-11537
▁titles	-11538
▁Wrong	-11539
▁ffi	-11540
▁коррек	-11541
▁sx	-11542
lips	-11543
.1"	-11544
▁probe	-11545
epochs	-11546
quiva	-11547
▁recid	-11548
-08	-11549
▁двух	-11550
▁degrees	-11551
books	-11552
▁frac	-11553
▁fork	-11554
▁65	-11555
▁TF	-11556
▁aspect	-11557
▁зависимости	-11558
▁Ext	-11559
▁высо	-11560
DateTime	-11561
▁closest	-11562
SU	-11563
quality	-11564
Library	-11565
country	-11566
▁sampling	-11567
DP	-11568
folders	-11569
мое	-11570
▁ran	-11571
entropy	-11572
▁editable	-11573
Program	-11574
▁каждой	-11575
▁ja	-11576
metry	-11577
seudo	-11578
elf	-11579
-07	-11580
▁genre	-11581
amage	-11582
▁Root	-11583
UDE	-11584
что	-11585
morph	-11586
чит	-11587
▁этим	-11588
▁shadow	-11589
▁moving	-11590
elcome	-11591
pause	-11592
▁Memory	-11593
emails	-11594
ваются	-11595
▁MI	-11596
orn	-11597
су	-11598
gid	-11599
▁returns	-11600
hdr	-11601
▁tip	-11602
ufacture	-11603
ctime	-11604
▁ground	-11605
onom	-11606
▁mess	-11607
MARY	-11608
▁таблице	-11609
▁GetTypeId	-11610
▁wcs	-11611
unary	-11612
IGH	-11613
▁CMD	-11614
▁2011	-11615
Draw	-11616
▁TT	-11617
FACE	-11618
▁contacts	-11619
Assign	-11620
▁social	-11621
▁alice	-11622
fraction	-11623
Repository	-11624
pied	-11625
▁bon	-11626
Sta	-11627
▁fluid	-11628
рей	-11629
Edge	-11630
ough	-11631
▁faces	-11632
Gradient	-11633
▁decay	-11634
▁Раз	-11635
itches	-11636
▁како	-11637
▁sentry	-11638
Norm	-11639
вере	-11640
▁Здравствуйте	-11641
▁modifiers	-11642
IA	-11643
encoder	-11644
▁ephemeral	-11645
samp	-11646
▁debit	-11647
▁sequences	-11648
▁находится	-11649
▁prov	-11650
Pass	-11651
perly	-11652
regions	-11653
▁ана	-11654
довательно	-11655
▁books	-11656
Place	-11657
▁dispatcher	-11658
▁checkbox	-11659
▁wa	-11660
thresh	-11661
▁cores	-11662
▁lengths	-11663
▁software	-11664
Factor	-11665
▁vip	-11666
▁изменения	-11667
Ob	-11668
COPE	-11669
▁instructor	-11670
▁vir	-11671
theme	-11672
PASSWORD	-11673
contributor	-11674
▁fasta	-11675
Identity	-11676
ti	-11677
▁participant	-11678
scaling	-11679
fragment	-11680
начала	-11681
▁Release	-11682
▁Allow	-11683
▁retcode	-11684
▁linewidth	-11685
weep	-11686
completion	-11687
▁teams	-11688
LIB	-11689
orders	-11690
maries	-11691
▁caplog	-11692
▁membership	-11693
tod	-11694
apon	-11695
Register	-11696
▁рес	-11697
▁сообщение	-11698
▁External	-11699
consumer	-11700
Columns	-11701
▁версии	-11702
▁ссылки	-11703
▁allocate	-11704
alignment	-11705
▁расши	-11706
▁keyboard	-11707
▁Validation	-11708
stubs	-11709
redirects	-11710
▁udp	-11711
CHAR	-11712
▁ndims	-11713
▁plural	-11714
bsp	-11715
imators	-11716
ACTION	-11717
▁softmax	-11718
▁Enum	-11719
▁Mapping	-11720
OLDER	-11721
▁принима	-11722
gamma	-11723
▁отно	-11724
associate	-11725
ур	-11726
crease	-11727
:00'	-11728
uality	-11729
▁pem	-11730
пустим	-11731
▁measurement	-11732
shake	-11733
ught	-11734
▁<?	-11735
01"	-11736
▁alternative	-11737
▁rid	-11738
▁gram	-11739
▁lit	-11740
▁пря	-11741
Send	-11742
▁principal	-11743
▁remo	-11744
▁voice	-11745
ills	-11746
▁pkgs	-11747
▁шири	-11748
▁используя	-11749
qt	-11750
Grad	-11751
▁getElementsBy	-11752
▁EOF	-11753
disable	-11754
ered	-11755
alty	-11756
▁getter	-11757
▁ea	-11758
▁Constant	-11759
▁ABC	-11760
▁backing	-11761
rices	-11762
▁cohort	-11763
Route	-11764
▁codec	-11765
INST	-11766
listed	-11767
▁our	-11768
▁сервис	-11769
Condition	-11770
ibot	-11771
▁настро	-11772
▁assertLess	-11773
▁rewrite	-11774
playlist	-11775
лл	-11776
▁guild	-11777
Fragment	-11778
alax	-11779
▁CHE	-11780
rpcapi	-11781
ess	-11782
▁Addon	-11783
▁задачи	-11784
прави	-11785
capabilities	-11786
visit	-11787
▁vcpus	-11788
nowled	-11789
▁Доба	-11790
▁запись	-11791
Converter	-11792
▁once	-11793
xd	-11794
▁consistency	-11795
▁azure	-11796
nth	-11797
MESSAGE	-11798
sink	-11799
mic	-11800
xyz	-11801
between	-11802
cher	-11803
▁websocket	-11804
fee	-11805
walk	-11806
▁AWS	-11807
▁Sto	-11808
velope	-11809
▁surf	-11810
▁cmake	-11811
checkbox	-11812
▁vout	-11813
▁PR	-11814
▁maxsize	-11815
ство	-11816
▁medium	-11817
footer	-11818
▁библиотеки	-11819
policies	-11820
++)	-11821
▁listing	-11822
▁coerce	-11823
pector	-11824
▁deriv	-11825
Inst	-11826
MM	-11827
fr	-11828
decoder	-11829
▁FORMS	-11830
GG	-11831
hour	-11832
▁effective	-11833
uv	-11834
зоваться	-11835
sol	-11836
neighbors	-11837
▁backends	-11838
etched	-11839
▁patches	-11840
surface	-11841
▁.3	-11842
enrollment	-11843
IGN	-11844
toggle	-11845
vac	-11846
▁constructor	-11847
Eval	-11848
.00	-11849
▁showIndent	-11850
▁Yes	-11851
▁reduction	-11852
▁outline	-11853
Manage	-11854
▁CLI	-11855
det	-11856
since	-11857
Processor	-11858
inventory	-11859
UBLIC	-11860
▁autos	-11861
▁1)	-11862
▁icmp	-11863
▁bld	-11864
▁gapic	-11865
Choice	-11866
album	-11867
▁asc	-11868
▁удалить	-11869
▁closing	-11870
hyper	-11871
▁записы	-11872
▁pot	-11873
middleware	-11874
859	-11875
полня	-11876
▁Font	-11877
▁purge	-11878
prior	-11879
lays	-11880
ares	-11881
atings	-11882
▁ymin	-11883
Rot	-11884
ysical	-11885
▁ib	-11886
тифика	-11887
01_	-11888
▁icons	-11889
Util	-11890
▁building	-11891
UNCTION	-11892
nonzero	-11893
мере	-11894
▁Binary	-11895
dimensions	-11896
▁extends	-11897
▁potential	-11898
▁mappings	-11899
▁currently	-11900
▁vocabulary	-11901
Slot	-11902
submission	-11903
▁unquote	-11904
▁classification	-11905
▁stable	-11906
▁Section	-11907
▁own	-11908
ordering	-11909
large	-11910
Monitor	-11911
stimator	-11912
▁Cor	-11913
кого	-11914
preview	-11915
чь	-11916
DAT	-11917
▁pres	-11918
▁infos	-11919
partitions	-11920
rength	-11921
ети	-11922
▁127	-11923
▁msgid	-11924
aver	-11925
▁дис	-11926
▁episodes	-11927
▁символов	-11928
recursive	-11929
▁);	-11930
ANGUAGE	-11931
▁бай	-11932
decorator	-11933
▁craw	-11934
clude	-11935
▁одну	-11936
itories	-11937
буйте	-11938
▁sms	-11939
▁validators	-11940
wikibot	-11941
▁setWindow	-11942
Allow	-11943
hop	-11944
▁MSG	-11945
recv	-11946
pear	-11947
▁paragraph	-11948
CASE	-11949
▁fout	-11950
calculate	-11951
▁которого	-11952
▁definitions	-11953
▁bet	-11954
LOBAL	-11955
чере	-11956
▁tracking	-11957
▁asm	-11958
uom	-11959
verted	-11960
▁SR	-11961
Endpoint	-11962
asm	-11963
-09	-11964
▁TARGET	-11965
▁FORMAT	-11966
gap	-11967
workspace	-11968
▁textwrap	-11969
▁совсем	-11970
▁statuses	-11971
iterations	-11972
▁xls	-11973
▁'10.0.0	-11974
Power	-11975
uquet	-11976
▁Register	-11977
мый	-11978
Upload	-11979
▁сум	-11980
▁Зада	-11981
▁hashes	-11982
▁нашел	-11983
▁FF	-11984
▁ES	-11985
▁vari	-11986
unpack	-11987
▁toString	-11988
▁wt	-11989
lambda	-11990
▁Beautiful	-11991
▁затем	-11992
▁Origin	-11993
FR	-11994
XXXXXXXX	-11995
LEVEL	-11996
"]	-11997
prise	-11998
▁ymax	-11999
▁radians	-12000
ara	-12001
3333	-12002
▁Track	-12003
▁проверя	-12004
phan	-12005
Enrollment	-12006
▁zmq	-12007
▁Encoding	-12008
▁gcp	-12009
IFICATION	-12010
Vec	-12011
▁LOCAL	-12012
kv	-12013
▁Mar	-12014
literal	-12015
orth	-12016
pull	-12017
▁lan	-12018
▁datasource	-12019
▁чисел	-12020
▁Serial	-12021
▁hardware	-12022
▁глав	-12023
PG	-12024
▁slots	-12025
arted	-12026
gence	-12027
▁переза	-12028
▁gdb	-12029
▁нас	-12030
▁строч	-12031
scr	-12032
▁nume	-12033
▁43	-12034
DICT	-12035
▁tmpfile	-12036
▁rnd	-12037
pars	-12038
aggreg	-12039
▁pywikibot	-12040
▁readStruct	-12041
▁scanner	-12042
ras	-12043
▁generation	-12044
▁shel	-12045
▁attached	-12046
▁testdata	-12047
▁выбра	-12048
▁readField	-12049
tailed	-12050
▁примерно	-12051
▁represent	-12052
grate	-12053
▁markers	-12054
repeat	-12055
unct	-12056
▁Shape	-12057
▁OFF	-12058
▁весь	-12059
reload	-12060
dg	-12061
▁Datetime	-12062
ssue	-12063
▁house	-12064
Like	-12065
▁JsonResponse	-12066
ups	-12067
▁paddle	-12068
CREATE	-12069
hashes	-12070
firm	-12071
buckets	-12072
ордина	-12073
▁Expression	-12074
bolic	-12075
▁Layout	-12076
ancy	-12077
modify	-12078
Card	-12079
▁IGNORE	-12080
CHECK	-12081
▁plus	-12082
▁отли	-12083
▁ConfigParser	-12084
Find	-12085
▁wheel	-12086
▁skin	-12087
▁Files	-12088
▁roots	-12089
Chain	-12090
anning	-12091
▁DROP	-12092
▁opacity	-12093
atel	-12094
signals	-12095
jectory	-12096
processes	-12097
▁Bucket	-12098
AIT	-12099
Angle	-12100
spi	-12101
▁комп	-12102
▁hl	-12103
▁2016	-12104
converter	-12105
▁pathname	-12106
Virt	-12107
WIDTH	-12108
▁vmax	-12109
▁Deserialize	-12110
DecodeError	-12111
roots	-12112
▁регуляр	-12113
▁depends	-12114
firewall	-12115
▁mes	-12116
▁omega	-12117
Scan	-12118
UPDATE	-12119
geometry	-12120
Pixel	-12121
hints	-12122
rink	-12123
▁dut	-12124
QUE	-12125
▁molecule	-12126
sites	-12127
attempts	-12128
▁Reference	-12129
IFY	-12130
▁gdal	-12131
▁written	-12132
Services	-12133
▁webpage	-12134
subset	-12135
▁years	-12136
▁хотите	-12137
INDEX	-12138
▁Move	-12139
▁три	-12140
▁timeutils	-12141
METH	-12142
parallel	-12143
-01"	-12144
▁сделал	-12145
▁умолчанию	-12146
Sp	-12147
▁VALUE	-12148
▁suppress	-12149
▁требу	-12150
▁UNKNOWN	-12151
▁nginx	-12152
▁executing	-12153
▁implementation	-12154
▁avail	-12155
▁секу	-12156
mirror	-12157
▁exponent	-12158
LAN	-12159
DA	-12160
experiment	-12161
une	-12162
coll	-12163
▁Studio	-12164
▁другие	-12165
▁factories	-12166
▁hold	-12167
executable	-12168
▁nz	-12169
▁разработ	-12170
▁Tk	-12171
▁interpolation	-12172
▁значений	-12173
▁OPEN	-12174
▁readable	-12175
▁качестве	-12176
Month	-12177
▁выглядит	-12178
RB	-12179
мести	-12180
general	-12181
▁emb	-12182
▁вычис	-12183
▁сорти	-12184
chool	-12185
▁keyspace	-12186
via	-12187
▁ogr	-12188
▁secs	-12189
Uri	-12190
▁бе	-12191
▁tarfile	-12192
▁toc	-12193
Spa	-12194
cookies	-12195
▁spaces	-12196
CONTENT	-12197
▁poke	-12198
▁cherry	-12199
▁Plot	-12200
▁amb	-12201
▁quotas	-12202
finder	-12203
▁community	-12204
uron	-12205
occ	-12206
Internal	-12207
▁'8	-12208
▁east	-12209
▁привет	-12210
▁Repository	-12211
▁rl	-12212
▁комментари	-12213
▁спе	-12214
▁друг	-12215
FilePath	-12216
▁submitted	-12217
spe	-12218
▁expired	-12219
subscri	-12220
▁127.0.0.1	-12221
recipient	-12222
▁criterion	-12223
hard	-12224
▁ALI	-12225
▁libraries	-12226
Sort	-12227
rottle	-12228
▁сервере	-12229
Accelerated	-12230
▁Timer	-12231
▁ble	-12232
▁ю	-12233
indexer	-12234
conversion	-12235
NONE	-12236
▁serializers	-12237
став	-12238
▁testGet	-12239
▁worksheet	-12240
flush	-12241
subscribe	-12242
▁residual	-12243
▁CHECK	-12244
containers	-12245
hit	-12246
▁buy	-12247
▁patched	-12248
▁ZZ	-12249
alformed	-12250
alaxy	-12251
▁NU	-12252
▁hive	-12253
▁Air	-12254
▁gif	-12255
▁traj	-12256
▁Failure	-12257
▁plist	-12258
mu	-12259
▁dol	-12260
▁2.2	-12261
▁Called	-12262
▁зап	-12263
▁trade	-12264
▁filled	-12265
▁transformer	-12266
▁Inf	-12267
Multiple	-12268
▁xl	-12269
lision	-12270
Cancel	-12271
сом	-12272
sender	-12273
▁DOT	-12274
variance	-12275
▁probs	-12276
▁elastic	-12277
-15	-12278
▁AV	-12279
▁&&	-12280
▁preset	-12281
ternet	-12282
▁objective	-12283
pisode	-12284
▁Usage	-12285
Ok	-12286
▁ссылка	-12287
▁попыт	-12288
▁Sp	-12289
▁автори	-12290
▁Попро	-12291
▁iam	-12292
Messages	-12293
▁childNodes	-12294
batches	-12295
нови	-12296
▁Cond	-12297
locs	-12298
▁Merge	-12299
exploration	-12300
yc	-12301
artist	-12302
▁mute	-12303
стви	-12304
▁Calc	-12305
▁EMAIL	-12306
▁Pipeline	-12307
Binding	-12308
▁nearest	-12309
pense	-12310
▁setObjectName	-12311
▁vmin	-12312
▁subtitles	-12313
▁filelist	-12314
▁методы	-12315
▁producer	-12316
▁uploaded	-12317
Scroll	-12318
▁проверить	-12319
black	-12320
splits	-12321
upon	-12322
▁wag	-12323
▁picture	-12324
▁MED	-12325
scene	-12326
▁инициали	-12327
aunch	-12328
▁alive	-12329
radio	-12330
fac	-12331
▁overrides	-12332
▁Convert	-12333
▁ниже	-12334
▁ADMIN	-12335
▁every	-12336
GIN	-12337
▁TI	-12338
blue	-12339
boundary	-12340
▁vv	-12341
hass	-12342
Basic	-12343
▁discord	-12344
github	-12345
▁latin	-12346
iro	-12347
placement	-12348
AMS	-12349
▁spect	-12350
▁conductor	-12351
▁grab	-12352
▁паро	-12353
cidr	-12354
▁localtime	-12355
▁BeautifulSoup	-12356
lineno	-12357
▁блока	-12358
PLAY	-12359
dtypes	-12360
▁scaled	-12361
ётся	-12362
▁UNI	-12363
▁sales	-12364
него	-12365
▁RET	-12366
▁figsize	-12367
unked	-12368
▁modulestore	-12369
▁3.5	-12370
▁fanart	-12371
▁LIB	-12372
▁Skipping	-12373
▁shp	-12374
cao	-12375
▁SW	-12376
rivers	-12377
един	-12378
products	-12379
LEN	-12380
▁John	-12381
rem	-12382
servable	-12383
▁RT	-12384
LINK	-12385
▁remainder	-12386
▁triggered	-12387
zeros	-12388
▁reservations	-12389
▁evaluation	-12390
▁Question	-12391
▁-1	-12392
Denied	-12393
camera	-12394
▁Power	-12395
кру	-12396
TINGS	-12397
▁nonzero	-12398
ina	-12399
▁49	-12400
▁addAction	-12401
Running	-12402
▁unable	-12403
DD	-12404
▁wr	-12405
UGIN	-12406
/3	-12407
restart	-12408
▁patient	-12409
Before	-12410
descr	-12411
eagerly	-12412
▁отправ	-12413
Chunk	-12414
▁qemu	-12415
тировать	-12416
▁выполнения	-12417
▁Received	-12418
мыс	-12419
Kind	-12420
▁Long	-12421
mapped	-12422
ешь	-12423
▁SyntaxError	-12424
деть	-12425
емп	-12426
rb	-12427
▁$(	-12428
already	-12429
▁fab	-12430
emplate	-12431
PushButton	-12432
lint	-12433
ometri	-12434
▁общем	-12435
retrieve	-12436
▁spl	-12437
lias	-12438
prod	-12439
ea	-12440
_8	-12441
▁agents	-12442
▁Literal	-12443
assets	-12444
хро	-12445
CR	-12446
requirements	-12447
▁experimental	-12448
льную	-12449
▁divide	-12450
ni	-12451
answers	-12452
MAN	-12453
работа	-12454
▁recording	-12455
sequences	-12456
▁TEMPLATE	-12457
zed	-12458
▁adapt	-12459
▁observed	-12460
▁41	-12461
True	-12462
Deleter	-12463
vl	-12464
▁slow	-12465
▁SparseTensor	-12466
truth	-12467
xistent	-12468
▁TOKEN	-12469
▁"5	-12470
Mouse	-12471
fq	-12472
Sql	-12473
2\	-12474
▁kwarg	-12475
▁led	-12476
notifier	-12477
▁54	-12478
▁zf	-12479
или	-12480
decay	-12481
Algorithm	-12482
ремен	-12483
▁fold	-12484
"/>	-12485
▁particle	-12486
MAC	-12487
▁фраг	-12488
ads	-12489
sth	-12490
maybe	-12491
125	-12492
нхро	-12493
▁mw	-12494
▁разные	-12495
FFFF	-12496
▁1000000	-12497
▁buckets	-12498
▁concept	-12499
CONNE	-12500
▁параметр	-12501
Lookup	-12502
▁datadir	-12503
-7	-12504
▁объектов	-12505
▁wanted	-12506
▁declare	-12507
▁zlib	-12508
GUI	-12509
grads	-12510
▁уров	-12511
recent	-12512
▁свойства	-12513
actual	-12514
resolver	-12515
▁invalidate	-12516
Win	-12517
льная	-12518
▁middleware	-12519
▁streaming	-12520
▁следующий	-12521
▁['	-12522
acle	-12523
▁frontend	-12524
▁votes	-12525
пада	-12526
stype	-12527
▁subjects	-12528
▁Tw	-12529
▁bf	-12530
▁wav	-12531
▁Library	-12532
land	-12533
▁"3"	-12534
connector	-12535
="#">	-12536
▁notice	-12537
▁интерес	-12538
▁its	-12539
rections	-12540
▁контей	-12541
▁Export	-12542
▁Cap	-12543
▁simplify	-12544
Year	-12545
▁filetype	-12546
▁sublime	-12547
▁координа	-12548
FD	-12549
Snapshot	-12550
▁Student	-12551
predictions	-12552
rences	-12553
▁CommandError	-12554
▁topo	-12555
▁'00	-12556
▁обнов	-12557
Bin	-12558
overrides	-12559
Resources	-12560
▁QSize	-12561
PRESS	-12562
▁predicted	-12563
▁lf	-12564
▁daily	-12565
▁abcdef	-12566
LICY	-12567
SERVICE	-12568
slider	-12569
capture	-12570
▁instructions	-12571
▁две	-12572
CESS	-12573
кий	-12574
▁study	-12575
Lists	-12576
▁rfind	-12577
▁Geo	-12578
▁дирек	-12579
▁NODE	-12580
▁bare	-12581
▁backwards	-12582
olated	-12583
▁INVALID	-12584
RESULT	-12585
extent	-12586
▁узнать	-12587
▁elems	-12588
▁monit	-12589
▁PASSWORD	-12590
▁dash	-12591
▁eu	-12592
afka	-12593
▁lm	-12594
▁circuit	-12595
timezone	-12596
▁Var	-12597
▁Li	-12598
METHOD	-12599
▁макси	-12600
▁cdf	-12601
msgs	-12602
▁картинки	-12603
земп	-12604
▁39	-12605
▁MP	-12606
pic	-12607
Bucket	-12608
.255	-12609
coverage	-12610
▁maxlen	-12611
▁BR	-12612
▁within	-12613
▁достаточно	-12614
▁Rep	-12615
▁pyc	-12616
mime	-12617
Std	-12618
DN	-12619
▁распо	-12620
▁TestCase	-12621
MY	-12622
ances	-12623
▁установить	-12624
▁дальше	-12625
▁branches	-12626
▁exog	-12627
▁устрой	-12628
▁dem	-12629
allocation	-12630
aux	-12631
mx	-12632
▁typename	-12633
▁edx	-12634
▁horiz	-12635
nw	-12636
CMD	-12637
▁suit	-12638
arwin	-12639
▁clause	-12640
Processing	-12641
qos	-12642
MessageEnd	-12643
LineEdit	-12644
▁hdu	-12645
▁cgi	-12646
▁contributor	-12647
чает	-12648
ITLE	-12649
▁клави	-12650
▁Signal	-12651
▁observer	-12652
▁kube	-12653
▁Region	-12654
▁webhook	-12655
▁других	-12656
▁sure	-12657
fallback	-12658
▁sticky	-12659
▁lw	-12660
management	-12661
▁Insert	-12662
reads	-12663
▁указать	-12664
▁Company	-12665
FOUND	-12666
▁startt	-12667
Worker	-12668
▁pil	-12669
▁slices	-12670
▁Controller	-12671
▁reindex	-12672
rich	-12673
TRY	-12674
▁motion	-12675
▁BAD	-12676
ience	-12677
чную	-12678
Depth	-12679
▁dpi	-12680
▁BACK	-12681
▁Ob	-12682
▁видео	-12683
▁RA	-12684
▁Engine	-12685
square	-12686
▁динами	-12687
▁Case	-12688
ComboBox	-12689
▁startTime	-12690
▁Execute	-12691
▁finder	-12692
▁NT	-12693
▁пытаюсь	-12694
ada	-12695
▁even	-12696
▁logic	-12697
▁chosen	-12698
▁соответствую	-12699
▁propag	-12700
FILES	-12701
▁emp	-12702
Colour	-12703
▁удаля	-12704
nos	-12705
▁banner	-12706
тегори	-12707
Tools	-12708
▁REMOTE	-12709
subclass	-12710
umid	-12711
works	-12712
просе	-12713
▁oct	-12714
▁Lookup	-12715
ope	-12716
tol	-12717
▁Visual	-12718
▁окна	-12719
▁decision	-12720
▁Tags	-12721
▁'6	-12722
▁deque	-12723
lared	-12724
orrow	-12725
▁pivot	-12726
▁ClientAuthentic	-12727
▁anim	-12728
▁milestone	-12729
▁подска	-12730
▁вз	-12731
STAMP	-12732
▁итоге	-12733
▁800	-12734
Stub	-12735
ATTERN	-12736
▁claim	-12737
▁Def	-12738
▁regist	-12739
▁Position	-12740
monic	-12741
▁VOLUME	-12742
▁questions	-12743
SOR	-12744
▁STDOUT	-12745
▁примере	-12746
▁varname	-12747
▁VAR	-12748
▁mil	-12749
▁Created	-12750
▁такую	-12751
▁shortcut	-12752
▁snmp	-12753
Metric	-12754
▁программу	-12755
▁Assign	-12756
▁филь	-12757
PLA	-12758
▁конфи	-12759
▁запустить	-12760
Strings	-12761
▁Rational	-12762
▁MOCK	-12763
▁verification	-12764
salt	-12765
herited	-12766
Curve	-12767
▁Problem	-12768
DEN	-12769
VED	-12770
▁street	-12771
offsets	-12772
cg	-12773
pow	-12774
Direct	-12775
▁favor	-12776
▁ampl	-12777
▁jpeg	-12778
▁такие	-12779
▁savefig	-12780
Language	-12781
APP	-12782
▁xc	-12783
▁PYTHON	-12784
subs	-12785
ющий	-12786
▁meet	-12787
▁coordinate	-12788
▁identifiers	-12789
▁сред	-12790
тами	-12791
▁notifier	-12792
argo	-12793
▁NA	-12794
urement	-12795
▁bookmark	-12796
Zero	-12797
▁pulse	-12798
statistics	-12799
▁поряд	-12800
▁Place	-12801
CONF	-12802
▁hue	-12803
▁Cookie	-12804
▁architecture	-12805
▁bul	-12806
NAMES	-12807
Fil	-12808
define	-12809
▁nrows	-12810
vt	-12811
TEMP	-12812
▁Categorical	-12813
CALE	-12814
▁Также	-12815
learn	-12816
▁inactive	-12817
Two	-12818
▁intf	-12819
▁captured	-12820
spawn	-12821
▁LINE	-12822
optimizer	-12823
▁INTEGER	-12824
▁instanti	-12825
▁directories	-12826
▁прин	-12827
▁63	-12828
calendar	-12829
▁Customer	-12830
▁ресур	-12831
tensions	-12832
▁detector	-12833
▁базе	-12834
▁paste	-12835
Detail	-12836
SM	-12837
ложение	-12838
NUM	-12839
uris	-12840
▁vstack	-12841
кнулся	-12842
▁foreach	-12843
locals	-12844
▁starts	-12845
▁slider	-12846
▁shipping	-12847
▁пусто	-12848
ernel	-12849
▁holidays	-12850
▁самом	-12851
Download	-12852
▁filePath	-12853
compose	-12854
broadcast	-12855
dget	-12856
▁revert	-12857
▁коди	-12858
BC	-12859
▁tn	-12860
arded	-12861
▁mini	-12862
▁getC	-12863
▁RESOURCE	-12864
▁ограни	-12865
▁timeline	-12866
Imp	-12867
ecycle	-12868
▁случай	-12869
separator	-12870
agents	-12871
Strategy	-12872
▁retVal	-12873
mited	-12874
▁IMPL	-12875
жест	-12876
▁dh	-12877
▁WR	-12878
▁экземп	-12879
▁phrase	-12880
▁distances	-12881
▁edu	-12882
▁Setup	-12883
▁убрать	-12884
▁chi	-12885
▁WORK	-12886
dependent	-12887
solution	-12888
вым	-12889
fk	-12890
perform	-12891
▁пози	-12892
▁Agg	-12893
Bro	-12894
▁composite	-12895
ск	-12896
▁dock	-12897
▁Generate	-12898
({	-12899
▁вида	-12900
Head	-12901
cas	-12902
▁COMMAND	-12903
coordinates	-12904
▁coin	-12905
▁confidence	-12906
WAR	-12907
REEN	-12908
▁assoc	-12909
oser	-12910
верх	-12911
▁'123'	-12912
▁picks	-12913
▁fwd	-12914
Matcher	-12915
▁6.	-12916
▁ua	-12917
▁fam	-12918
Middleware	-12919
concat	-12920
▁visitor	-12921
▁cw	-12922
▁плаги	-12923
▁цикла	-12924
▁bam	-12925
▁Заранее	-12926
▁sandbox	-12927
isnull	-12928
▁111	-12929
▁leader	-12930
rical	-12931
▁expiry	-12932
GT	-12933
собо	-12934
▁grep	-12935
▁CLASS	-12936
▁ключ	-12937
▁interaction	-12938
▁<!	-12939
serted	-12940
▁analyze	-12941
▁intersect	-12942
isters	-12943
RGB	-12944
вует	-12945
▁($	-12946
▁тех	-12947
сер	-12948
01\	-12949
▁Store	-12950
prog	-12951
▁forwards	-12952
▁4'	-12953
tached	-12954
▁WS	-12955
photo	-12956
▁анима	-12957
▁airflow	-12958
▁unsub	-12959
ANCEL	-12960
ранить	-12961
Assert	-12962
shard	-12963
▁dbg	-12964
customer	-12965
Hand	-12966
▁organisation	-12967
▁cherrypy	-12968
▁easy	-12969
менять	-12970
verbose	-12971
▁FakeVirt	-12972
BAD	-12973
▁asdf	-12974
▁sigmoid	-12975
▁unsupported	-12976
▁brightness	-12977
SN	-12978
▁содержа	-12979
too	-12980
тало	-12981
ENTITY	-12982
▁ячей	-12983
▁peek	-12984
▁100%;	-12985
вался	-12986
commend	-12987
▁страница	-12988
▁appendChild	-12989
crash	-12990
▁tooltip	-12991
шение	-12992
▁uname	-12993
▁entropy	-12994
▁rsa	-12995
▁mpi	-12996
▁videos	-12997
▁изв	-12998
based	-12999
ulus	-13000
▁pane	-13001
▁сообщения	-13002
▁toon	-13003
bove	-13004
["	-13005
▁paper	-13006
▁DATABASE	-13007
▁extracted	-13008
▁очере	-13009
eled	-13010
▁land	-13011
reat	-13012
Canvas	-13013
Changes	-13014
▁304	-13015
▁возника	-13016
▁Pos	-13017
tran	-13018
▁phot	-13019
▁Необходимо	-13020
▁FOO	-13021
ENSION	-13022
▁Од	-13023
Queries	-13024
gether	-13025
RST	-13026
[0]	-13027
factors	-13028
igma	-13029
CATE	-13030
rated	-13031
station	-13032
▁prof	-13033
receiver	-13034
▁Disk	-13035
▁Des	-13036
▁Processing	-13037
ANNEL	-13038
▁pname	-13039
▁docstring	-13040
▁tech	-13041
▁prefixes	-13042
▁Parameters	-13043
▁coeffs	-13044
▁wkt	-13045
TRA	-13046
▁slope	-13047
▁overlay	-13048
▁StaticText	-13049
clock	-13050
▁incident	-13051
▁подскажите	-13052
▁nome	-13053
▁uses	-13054
ufacturer	-13055
aws	-13056
Person	-13057
▁reaction	-13058
▁qc	-13059
▁коло	-13060
▁scheduled	-13061
▁numer	-13062
▁addHandler	-13063
▁opened	-13064
▁sphere	-13065
▁operands	-13066
▁stacklevel	-13067
▁months	-13068
▁tries	-13069
▁scaling	-13070
Margin	-13071
ERR	-13072
COMP	-13073
terior	-13074
▁теперь	-13075
▁freeze	-13076
mf	-13077
▁Screen	-13078
chr	-13079
shal	-13080
▁reduced	-13081
▁rn	-13082
▁mandatory	-13083
algorithm	-13084
Pointer	-13085
▁mtype	-13086
▁Scan	-13087
UMN	-13088
docker	-13089
ubmit	-13090
▁ni	-13091
▁funcs	-13092
▁students	-13093
ography	-13094
iff	-13095
▁exam	-13096
▁использования	-13097
▁Help	-13098
▁Поэтому	-13099
▁iptables	-13100
dispatcher	-13101
▁advanced	-13102
dof	-13103
▁spectrum	-13104
PAGE	-13105
▁gens	-13106
▁удоб	-13107
▁persistent	-13108
ONLY	-13109
▁syslog	-13110
csr	-13111
▁DC	-13112
▁subscriber	-13113
▁Upload	-13114
measurement	-13115
ProcessError	-13116
▁servicelist	-13117
▁Widget	-13118
thumbnail	-13119
▁intervals	-13120
▁mpl	-13121
▁crs	-13122
scaled	-13123
Produ	-13124
Compat	-13125
▁ContentType	-13126
Delay	-13127
density	-13128
journal	-13129
▁addItem	-13130
PEND	-13131
definitions	-13132
▁FIEL	-13133
▁выбор	-13134
▁controls	-13135
▁ie	-13136
Join	-13137
▁ча	-13138
plain	-13139
▁EMPTY	-13140
enk	-13141
Switch	-13142
▁assertTemplate	-13143
nergy	-13144
▁articles	-13145
▁repeated	-13146
▁Big	-13147
charge	-13148
▁vehicle	-13149
▁capitalize	-13150
▁mer	-13151
adius	-13152
contacts	-13153
Same	-13154
▁lag	-13155
circle	-13156
notifications	-13157
циона	-13158
▁distrib	-13159
▁deadline	-13160
statuses	-13161
Bits	-13162
▁'5'	-13163
rant	-13164
heads	-13165
Media	-13166
▁plate	-13167
Commands	-13168
▁transactions	-13169
▁себя	-13170
▁завер	-13171
▁give	-13172
▁fiscal	-13173
ROPoller	-13174
scenario	-13175
_0_	-13176
▁TS	-13177
▁веб	-13178
embedding	-13179
▁Пробовал	-13180
percentage	-13181
▁gcc	-13182
means	-13183
hw	-13184
▁nim	-13185
tained	-13186
▁grand	-13187
▁sector	-13188
▁одном	-13189
▁Other	-13190
leton	-13191
▁Ни	-13192
льного	-13193
▁благо	-13194
CHED	-13195
▁subplots	-13196
▁VIR	-13197
lusion	-13198
10'	-13199
▁38	-13200
▁rms	-13201
▁vrf	-13202
explicit	-13203
▁Cir	-13204
▁Should	-13205
▁momentum	-13206
▁mks	-13207
degree	-13208
Images	-13209
nick	-13210
▁graphics	-13211
тный	-13212
every	-13213
▁AG	-13214
Patch	-13215
hello	-13216
▁2010	-13217
PED	-13218
▁isChecked	-13219
decl	-13220
▁ASC	-13221
","	-13222
Required	-13223
▁toolchain	-13224
whitespace	-13225
xo	-13226
5,	-13227
▁die	-13228
doctype	-13229
:3	-13230
▁firefox	-13231
needs	-13232
Supported	-13233
▁MultiIndex	-13234
▁информацию	-13235
hem	-13236
▁FIL	-13237
▁bed	-13238
▁hop	-13239
▁переменная	-13240
offer	-13241
▁copied	-13242
▁дело	-13243
urst	-13244
▁broken	-13245
inds	-13246
▁vcs	-13247
▁overflow	-13248
▁Pop	-13249
лё	-13250
)?	-13251
ynomial	-13252
▁abcd	-13253
Permission	-13254
▁eig	-13255
▁statements	-13256
▁сейчас	-13257
CAD	-13258
SCRIPTION	-13259
мина	-13260
▁Feed	-13261
trig	-13262
еся	-13263
story	-13264
▁3,	-13265
Ratio	-13266
▁программ	-13267
▁ud	-13268
зать	-13269
▁bounding	-13270
пуска	-13271
deep	-13272
▁Ind	-13273
▁General	-13274
▁multipart	-13275
той	-13276
Delta	-13277
фф	-13278
▁tur	-13279
posts	-13280
Sets	-13281
▁compatible	-13282
▁Invoice	-13283
stors	-13284
▁дополни	-13285
▁preferences	-13286
IMAGE	-13287
▁LibvirtDriver	-13288
▁resample	-13289
Br	-13290
▁lattice	-13291
▁superuser	-13292
syn	-13293
ErrorFormat	-13294
▁Checking	-13295
LEMENT	-13296
pytest	-13297
Modal	-13298
ха	-13299
HOME	-13300
▁whitespace	-13301
TS	-13302
▁crypt	-13303
▁вашем	-13304
▁deck	-13305
▁консоль	-13306
foreign	-13307
=>	-13308
ROW	-13309
stride	-13310
dit	-13311
▁yum	-13312
sessions	-13313
▁Organization	-13314
▁ARMErrorFormat	-13315
▁Ok	-13316
Holder	-13317
Mgr	-13318
▁ldb	-13319
▁lista	-13320
▁Team	-13321
Period	-13322
gradients	-13323
▁изображения	-13324
▁NoS	-13325
lerts	-13326
overflow	-13327
dies	-13328
▁explo	-13329
▁preload	-13330
▁pressure	-13331
▁Deta	-13332
Uuid	-13333
lery	-13334
apters	-13335
▁Extension	-13336
▁confirmed	-13337
cedure	-13338
▁Render	-13339
▁verts	-13340
.4'	-13341
appa	-13342
тает	-13343
жида	-13344
ung	-13345
icast	-13346
CV	-13347
ouse	-13348
lax	-13349
▁fqdn	-13350
RF	-13351
▁1;	-13352
oot	-13353
disks	-13354
▁mach	-13355
▁conditional	-13356
▁PS	-13357
▁fobj	-13358
▁─	-13359
▁SITE	-13360
▁grammar	-13361
uli	-13362
Plug	-13363
▁базы	-13364
▁предста	-13365
▁shader	-13366
ij	-13367
half	-13368
hest	-13369
Bus	-13370
▁aid	-13371
▁animation	-13372
пози	-13373
▁Publish	-13374
▁timed	-13375
ASS	-13376
quisition	-13377
▁problems	-13378
Vars	-13379
▁Tab	-13380
▁спра	-13381
▁arn	-13382
Drop	-13383
▁implicit	-13384
Java	-13385
▁100000	-13386
1\	-13387
handles	-13388
indicator	-13389
written	-13390
▁Migration	-13391
▁compound	-13392
recognized	-13393
Na	-13394
LETED	-13395
nostics	-13396
disconnect	-13397
Sync	-13398
references	-13399
▁регис	-13400
Complete	-13401
▁Left	-13402
lg	-13403
remaining	-13404
BOX	-13405
▁sph	-13406
▁tty	-13407
▁ticks	-13408
▁getConfig	-13409
PM	-13410
▁Topic	-13411
дить	-13412
101	-13413
▁бес	-13414
▁badge	-13415
▁replic	-13416
▁переменные	-13417
▁nf	-13418
uel	-13419
audit	-13420
apture	-13421
OWER	-13422
masked	-13423
▁PK	-13424
expired	-13425
▁xid	-13426
Dev	-13427
▁Pat	-13428
▁weekday	-13429
failures	-13430
gnoring	-13431
ких	-13432
▁точно	-13433
▁Identity	-13434
minus	-13435
▁были	-13436
pod	-13437
▁trait	-13438
▁tensors	-13439
mate	-13440
configured	-13441
sigma	-13442
▁документации	-13443
bases	-13444
▁forecast	-13445
detect	-13446
TV	-13447
▁aggregation	-13448
atern	-13449
▁pagination	-13450
COD	-13451
▁lear	-13452
▁CONNE	-13453
nowledge	-13454
▁blacklist	-13455
ching	-13456
▁разобраться	-13457
Partition	-13458
got	-13459
Certificate	-13460
uction	-13461
▁Param	-13462
▁Backend	-13463
▁periodic	-13464
000'	-13465
▁psutil	-13466
▁конечно	-13467
жен	-13468
Marker	-13469
WITH	-13470
Encoder	-13471
▁2017	-13472
12'	-13473
▁slide	-13474
through	-13475
viewer	-13476
▁Duplicate	-13477
▁trunk	-13478
iteration	-13479
▁variants	-13480
дела	-13481
▁ERR	-13482
▁Snapshot	-13483
▁facebook	-13484
▁Pass	-13485
consistency	-13486
party	-13487
▁чтоб	-13488
▁atten	-13489
viation	-13490
▁hstack	-13491
▁tagged	-13492
elems	-13493
LER	-13494
▁Card	-13495
▁maxval	-13496
▁wk	-13497
terminal	-13498
achable	-13499
iving	-13500
▁mom	-13501
▁asn	-13502
moves	-13503
▁getsize	-13504
▁authorized	-13505
subplot	-13506
theta	-13507
reboot	-13508
▁sending	-13509
Serial	-13510
organization	-13511
▁Stat	-13512
stable	-13513
Master	-13514
:2	-13515
▁calling	-13516
▁TEMP	-13517
▁Did	-13518
▁srid	-13519
▁prepend	-13520
▁tanh	-13521
OTAL	-13522
▁bdms	-13523
scriptors	-13524
Inf	-13525
ADDR	-13526
cepted	-13527
▁distributed	-13528
▁47	-13529
▁LC	-13530
quit	-13531
rn	-13532
▁ты	-13533
рован	-13534
RAY	-13535
▁POS	-13536
":"	-13537
▁john	-13538
▁sensors	-13539
mutable	-13540
▁multiprocessing	-13541
▁непо	-13542
▁свойство	-13543
▁hadoop	-13544
▁Func	-13545
▁MAN	-13546
▁cass	-13547
▁schemas	-13548
▁outs	-13549
syntax	-13550
▁extmethods	-13551
▁Private	-13552
popup	-13553
▁задачу	-13554
▁Second	-13555
▁downloaded	-13556
▁copyfile	-13557
▁lease	-13558
▁tipo	-13559
▁clang	-13560
ValueError	-13561
Req	-13562
trunc	-13563
encoded	-13564
quotas	-13565
Unary	-13566
▁rescue	-13567
ider	-13568
▁4096	-13569
ENTRY	-13570
▁Full	-13571
enkins	-13572
ваете	-13573
▁proxies	-13574
uby	-13575
▁tvdb	-13576
▁mods	-13577
▁mobileTemplate	-13578
▁Super	-13579
▁stripped	-13580
Common	-13581
▁className	-13582
fic	-13583
▁transforms	-13584
▁currentIndex	-13585
Any	-13586
▁locate	-13587
Attach	-13588
▁operators	-13589
▁LIMIT	-13590
▁Socket	-13591
▁enums	-13592
втор	-13593
▁Namespace	-13594
anchor	-13595
Vert	-13596
symlink	-13597
▁against	-13598
flattened	-13599
1234	-13600
▁modifier	-13601
▁cause	-13602
illing	-13603
▁water	-13604
OTH	-13605
000"	-13606
▁randrange	-13607
dog	-13608
cmds	-13609
▁любой	-13610
▁ситуа	-13611
dx	-13612
STAT	-13613
idle	-13614
▁стать	-13615
▁MT	-13616
▁заменить	-13617
емый	-13618
candidate	-13619
▁embedded	-13620
ato	-13621
ots	-13622
dy	-13623
▁skipping	-13624
▁changelist	-13625
trail	-13626
rv	-13627
▁Body	-13628
corr	-13629
▁heads	-13630
▁понятно	-13631
WH	-13632
▁изу	-13633
alarm	-13634
Ptr	-13635
▁splits	-13636
ulty	-13637
Generic	-13638
populate	-13639
▁запуске	-13640
▁цикле	-13641
▁параметра	-13642
nado	-13643
▁requirement	-13644
BLOCK	-13645
▁taxes	-13646
BD	-13647
FFER	-13648
▁factors	-13649
▁diffs	-13650
▁разре	-13651
Ans	-13652
▁fullpath	-13653
▁decompress	-13654
▁cnf	-13655
▁googleapis	-13656
fh	-13657
▁пунк	-13658
▁Bro	-13659
▁части	-13660
handled	-13661
USERNAME	-13662
▁transformed	-13663
COMMAND	-13664
Rules	-13665
enroll	-13666
friend	-13667
▁facility	-13668
ronic	-13669
kin	-13670
▁SIZE	-13671
Sm	-13672
lso	-13673
Modifi	-13674
Spin	-13675
glob	-13676
▁tiles	-13677
▁provisioning	-13678
▁аб	-13679
▁dark	-13680
▁YANG	-13681
difference	-13682
▁NetDevice	-13683
discovery	-13684
slash	-13685
▁условие	-13686
Scheduler	-13687
▁появляется	-13688
▁Uni	-13689
4,	-13690
▁$_	-13691
▁basket	-13692
matcher	-13693
ил	-13694
vmod	-13695
Locator	-13696
▁enroll	-13697
vertex	-13698
▁задать	-13699
weet	-13700
▁далее	-13701
again	-13702
▁releases	-13703
ностью	-13704
▁кнопка	-13705
Statement	-13706
grpc	-13707
▁EXIST	-13708
▁assertThat	-13709
ki	-13710
renderer	-13711
▁confirmation	-13712
▁marked	-13713
▁ND	-13714
editable	-13715
202	-13716
pret	-13717
shards	-13718
compressed	-13719
▁ACCEPT	-13720
▁Platform	-13721
▁TIMEOUT	-13722
periods	-13723
▁QUERY	-13724
жения	-13725
motion	-13726
▁Хочу	-13727
union	-13728
vecs	-13729
plane	-13730
▁netmask	-13731
▁Activ	-13732
▁параметры	-13733
▁символ	-13734
▁Далее	-13735
▁estimate	-13736
▁Mod	-13737
▁motor	-13738
▁persist	-13739
Abs	-13740
▁FIFF	-13741
integration	-13742
▁prime	-13743
uber	-13744
Board	-13745
diction	-13746
▁Users	-13747
▁Workflow	-13748
▁patron	-13749
reement	-13750
delitem	-13751
Timestamp	-13752
abo	-13753
▁Db	-13754
RESH	-13755
scode	-13756
Variables	-13757
ariate	-13758
▁tarinfo	-13759
▁usb	-13760
▁SkipTest	-13761
По	-13762
detach	-13763
▁wildcard	-13764
▁positional	-13765
▁suggestion	-13766
▁CALL	-13767
Branch	-13768
resolution	-13769
▁ZipFile	-13770
Validation	-13771
▁тер	-13772
▁dow	-13773
arer	-13774
▁Step	-13775
яза	-13776
.3'	-13777
Effect	-13778
▁PREFIX	-13779
▁automation	-13780
▁Car	-13781
Install	-13782
▁которую	-13783
svc	-13784
комен	-13785
Arguments	-13786
working	-13787
▁indi	-13788
ибо	-13789
▁ElementTree	-13790
0%	-13791
▁nbsp	-13792
built	-13793
REF	-13794
▁Пи	-13795
▁percentile	-13796
▁mkstemp	-13797
acion	-13798
levant	-13799
▁Имеется	-13800
▁writerow	-13801
▁comparison	-13802
▁види	-13803
sl	-13804
▁первого	-13805
▁segmentation	-13806
▁cle	-13807
(){	-13808
▁friendly	-13809
▁таком	-13810
уть	-13811
▁fps	-13812
▁CERT	-13813
▁bio	-13814
unset	-13815
utter	-13816
spacing	-13817
Executor	-13818
Enable	-13819
▁vconfig	-13820
▁transitions	-13821
▁Ins	-13822
RPC	-13823
Closed	-13824
▁DOTALL	-13825
▁Eval	-13826
▁типо	-13827
dropout	-13828
▁04	-13829
▁ответа	-13830
▁Bot	-13831
requencies	-13832
xffff	-13833
▁her	-13834
▁буду	-13835
cam	-13836
Fill	-13837
▁CHAR	-13838
▁куда	-13839
ficients	-13840
▁Loading	-13841
inverse	-13842
PIC	-13843
▁trying	-13844
▁occurred	-13845
▁succeeded	-13846
▁проблемой	-13847
ните	-13848
orient	-13849
lio	-13850
ADDRESS	-13851
((	-13852
▁unlock	-13853
▁mne	-13854
▁passphrase	-13855
cn	-13856
▁means	-13857
▁fromtimestamp	-13858
▁qry	-13859
cutoff	-13860
alendar	-13861
▁transcript	-13862
Virtual	-13863
green	-13864
▁Opt	-13865
illed	-13866
▁paint	-13867
▁imports	-13868
Mesh	-13869
Home	-13870
ulse	-13871
argv	-13872
▁HEADER	-13873
стей	-13874
▁FC	-13875
▁battery	-13876
▁2008	-13877
learning	-13878
▁найд	-13879
▁осно	-13880
▁FreeCAD	-13881
0000000000000000	-13882
oauth	-13883
▁дви	-13884
morphic	-13885
▁edited	-13886
▁оши	-13887
ORAGE	-13888
multipart	-13889
▁MIME	-13890
риф	-13891
▁UPD	-13892
▁MM	-13893
Calc	-13894
▁stddev	-13895
▁enforce	-13896
acters	-13897
tp	-13898
▁subTest	-13899
▁RESPONSE	-13900
rend	-13901
proba	-13902
▁sing	-13903
▁Пытаюсь	-13904
▁discover	-13905
▁procurement	-13906
▁Reset	-13907
▁QDialog	-13908
USTOM	-13909
icket	-13910
▁texts	-13911
▁12345	-13912
▁strand	-13913
VarInt	-13914
▁directive	-13915
CTYPE	-13916
▁Chrome	-13917
▁reserve	-13918
heel	-13919
▁Are	-13920
▁EXPE	-13921
▁последовательно	-13922
Side	-13923
▁hmac	-13924
▁насле	-13925
▁ru	-13926
▁lvm	-13927
activated	-13928
DC	-13929
laps	-13930
▁vstruct	-13931
▁npt	-13932
agger	-13933
rowse	-13934
▁показа	-13935
▁1.3	-13936
utorial	-13937
▁pants	-13938
implemented	-13939
▁vcf	-13940
Trigger	-13941
ffered	-13942
▁ek	-13943
▁MESSAGE	-13944
▁individual	-13945
vif	-13946
Free	-13947
inherit	-13948
▁QColor	-13949
▁влож	-13950
▁contour	-13951
Bundle	-13952
▁automatic	-13953
лле	-13954
logo	-13955
▁aug	-13956
▁команды	-13957
▁восполь	-13958
▁wm	-13959
ущест	-13960
▁decorated	-13961
▁delim	-13962
▁elevated	-13963
▁vms	-13964
▁yaw	-13965
▁'2013	-13966
мена	-13967
▁rol	-13968
льным	-13969
▁privile	-13970
▁xf	-13971
▁точки	-13972
▁rgba	-13973
▁jquery	-13974
▁счита	-13975
ствует	-13976
▁отдельно	-13977
lide	-13978
▁Ten	-13979
datastore	-13980
bag	-13981
▁never	-13982
уг	-13983
▁lng	-13984
NULL	-13985
▁опти	-13986
▁setter	-13987
▁FakeVirtAPI	-13988
▁memcache	-13989
▁Registration	-13990
▁Теперь	-13991
▁модели	-13992
▁alphabet	-13993
fold	-13994
rates	-13995
▁77	-13996
suggest	-13997
▁shares	-13998
▁изображение	-13999
▁возник	-14000
▁ticker	-14001
▁принци	-14002
воз	-14003
▁52	-14004
▁0.02	-14005
rust	-14006
▁tenants	-14007
imen	-14008
▁jQuery	-14009
▁название	-14010
▁bandwidth	-14011
reqs	-14012
▁создания	-14013
▁election	-14014
RefCount	-14015
xes	-14016
bbox	-14017
них	-14018
rebuild	-14019
▁сбор	-14020
webs	-14021
▁sit	-14022
▁weather	-14023
▁маши	-14024
▁dbapi	-14025
фай	-14026
providers	-14027
чные	-14028
BA	-14029
▁индек	-14030
AILABLE	-14031
nums	-14032
inject	-14033
▁96	-14034
each	-14035
tracks	-14036
oprot	-14037
terist	-14038
▁соответственно	-14039
▁коллек	-14040
▁1000.0	-14041
▁translator	-14042
▁пло	-14043
▁binascii	-14044
Loss	-14045
▁nfs	-14046
▁WP	-14047
guess	-14048
▁установлен	-14049
▁goto	-14050
eper	-14051
▁классе	-14052
▁QPushButton	-14053
7_	-14054
▁cub	-14055
multiplier	-14056
▁sem	-14057
deriv	-14058
vanced	-14059
▁dao	-14060
cards	-14061
▁feeds	-14062
Course	-14063
▁сначала	-14064
duplicates	-14065
3\	-14066
▁Split	-14067
ню	-14068
tl	-14069
▁apic	-14070
Missing	-14071
ATTRIB	-14072
▁вопроса	-14073
▁RequestId	-14074
oral	-14075
▁divmod	-14076
mtls	-14077
High	-14078
▁ouch	-14079
▁learner	-14080
▁whitelist	-14081
thers	-14082
▁dT	-14083
▁blocked	-14084
▁arglist	-14085
solve	-14086
qp	-14087
trees	-14088
▁lap	-14089
▁простой	-14090
online	-14091
▁одна	-14092
▁multiplier	-14093
mps	-14094
tls	-14095
▁88	-14096
▁gold	-14097
▁SPE	-14098
▁кас	-14099
▁stre	-14100
▁&=	-14101
▁GUI	-14102
▁freqs	-14103
ILI	-14104
integr	-14105
▁posting	-14106
arc	-14107
][	-14108
▁\\\\	-14109
▁interpolate	-14110
▁vnf	-14111
Layers	-14112
▁weakref	-14113
CPU	-14114
▁tier	-14115
жение	-14116
deployment	-14117
▁RPC	-14118
▁deb	-14119
Expected	-14120
yy	-14121
▁speaker	-14122
serialization	-14123
credit	-14124
outh	-14125
three	-14126
mantic	-14127
▁probability	-14128
▁*/	-14129
▁XY	-14130
Unique	-14131
inx	-14132
attention	-14133
MASK	-14134
contract	-14135
▁boost	-14136
▁conan	-14137
Hub	-14138
▁sed	-14139
▁AUTO	-14140
▁Blog	-14141
▁setWindowTitle	-14142
alker	-14143
▁testfile	-14144
Btn	-14145
This	-14146
▁несколь	-14147
▁BLOCK	-14148
▁EXPAND	-14149
▁stim	-14150
bert	-14151
CHO	-14152
▁Worker	-14153
▁Initial	-14154
▁injected	-14155
languages	-14156
▁hashed	-14157
▁valor	-14158
▁subst	-14159
▁содержит	-14160
SSING	-14161
zoom	-14162
▁writable	-14163
▁блоки	-14164
▁цвет	-14165
▁gdk	-14166
▁dj	-14167
arter	-14168
loor	-14169
▁indx	-14170
ighest	-14171
▁genes	-14172
alone	-14173
▁получен	-14174
▁chunksize	-14175
mdb	-14176
▁ry	-14177
linked	-14178
▁/*	-14179
▁LT	-14180
perf	-14181
▁Clean	-14182
▁USERNAME	-14183
▁holder	-14184
nor	-14185
▁кур	-14186
▁%02	-14187
States	-14188
▁мог	-14189
▁onclick	-14190
▁prepared	-14191
▁CACHE	-14192
▁iframe	-14193
zure	-14194
▁applied	-14195
QUIRED	-14196
▁department	-14197
▁odd	-14198
▁BadRequest	-14199
IDE	-14200
▁journ	-14201
▁вклю	-14202
▁Public	-14203
▁jit	-14204
lant	-14205
▁heartbeat	-14206
lenv	-14207
Bitmap	-14208
SyntaxError	-14209
▁базу	-14210
abort	-14211
▁still	-14212
▁treeview	-14213
▁CSV	-14214
▁atan	-14215
▁ancestor	-14216
ala	-14217
minator	-14218
rotation	-14219
▁enco	-14220
outs	-14221
▁adb	-14222
▁сколько	-14223
▁Transfer	-14224
▁itemsize	-14225
unge	-14226
devs	-14227
▁installer	-14228
ORS	-14229
▁Embed	-14230
prefixes	-14231
OKIE	-14232
▁dog	-14233
▁экран	-14234
мотри	-14235
▁OPTIONS	-14236
▁ipaddress	-14237
▁Ка	-14238
▁digit	-14239
торе	-14240
▁FLOAT	-14241
patial	-14242
▁консоли	-14243
Reset	-14244
Img	-14245
▁cxx	-14246
▁dependent	-14247
▁gm	-14248
usr	-14249
▁Lim	-14250
Without	-14251
▁SetValue	-14252
▁cros	-14253
▁skipTest	-14254
▁Html	-14255
▁Folder	-14256
wind	-14257
▁ввода	-14258
▁offline	-14259
▁tornado	-14260
WAY	-14261
shadow	-14262
tunnel	-14263
▁mutable	-14264
tector	-14265
▁DOWN	-14266
▁endog	-14267
хода	-14268
crop	-14269
▁orth	-14270
▁SS	-14271
▁slack	-14272
▁реализации	-14273
255	-14274
optim	-14275
season	-14276
▁использова	-14277
zie	-14278
Fit	-14279
▁Route	-14280
▁hover	-14281
translations	-14282
▁biases	-14283
_6	-14284
assigned	-14285
▁Deferred	-14286
="">	-14287
Atom	-14288
modal	-14289
▁поиска	-14290
Times	-14291
▁Coord	-14292
▁CN	-14293
ведение	-14294
▁автоматически	-14295
otor	-14296
fds	-14297
▁secrets	-14298
tc	-14299
▁pars	-14300
PATTERN	-14301
▁vectors	-14302
Real	-14303
▁dequeue	-14304
▁ofp	-14305
▁создавать	-14306
cular	-14307
▁'1.0'	-14308
▁внеш	-14309
Router	-14310
rored	-14311
▁успе	-14312
▁integrate	-14313
mixed	-14314
▁хорошо	-14315
▁NORMAL	-14316
Instances	-14317
▁110	-14318
hierarchy	-14319
HO	-14320
▁Destroy	-14321
▁432	-14322
vp	-14323
BLE	-14324
▁Docker	-14325
▁microsecond	-14326
▁vmware	-14327
MessageType	-14328
isfi	-14329
vertices	-14330
ETIME	-14331
▁выполняется	-14332
2)	-14333
▁прямо	-14334
="@	-14335
Payload	-14336
▁queues	-14337
angular	-14338
categorical	-14339
▁папку	-14340
▁Fetch	-14341
▁08	-14342
▁west	-14343
testing	-14344
▁поток	-14345
FFIX	-14346
Tasks	-14347
▁Atom	-14348
▁gps	-14349
ulp	-14350
▁Cont	-14351
mers	-14352
ствен	-14353
▁MY	-14354
▁Gdk	-14355
▁Double	-14356
▁ipaddr	-14357
▁revisions	-14358
▁Дела	-14359
▁apple	-14360
▁51	-14361
▁помощь	-14362
▁trainer	-14363
Links	-14364
▁записать	-14365
Arr	-14366
emit	-14367
▁continuation	-14368
500	-14369
scopes	-14370
ATFORM	-14371
▁NaT	-14372
andra	-14373
▁Tri	-14374
▁sbox	-14375
news	-14376
Slice	-14377
▁certs	-14378
▁самое	-14379
▁CP	-14380
amel	-14381
▁лишь	-14382
▁ao	-14383
Fetch	-14384
linux	-14385
▁bitmap	-14386
щение	-14387
▁Polygon	-14388
▁npy	-14389
Units	-14390
umidity	-14391
123'	-14392
например	-14393
▁importlib	-14394
_200_	-14395
aemon	-14396
▁идет	-14397
▁openid	-14398
▁sentences	-14399
▁curs	-14400
▁tel	-14401
▁8859	-14402
▁2.1	-14403
▁?>	-14404
▁меньше	-14405
▁webapp	-14406
раз	-14407
Merge	-14408
▁скры	-14409
Elem	-14410
videos	-14411
availability	-14412
:00"	-14413
▁Vec	-14414
BIN	-14415
▁ним	-14416
▁событие	-14417
lp	-14418
▁jax	-14419
▁amplitude	-14420
Light	-14421
▁xaxis	-14422
▁assertion	-14423
▁5'	-14424
orem	-14425
cow	-14426
ves	-14427
▁ALIGN	-14428
vnc	-14429
imports	-14430
▁horizon	-14431
▁screenshot	-14432
▁Member	-14433
▁Choice	-14434
▁рус	-14435
▁postgresql	-14436
▁упра	-14437
DataFrame	-14438
▁presence	-14439
▁above	-14440
▁setAttribute	-14441
OPT	-14442
▁81	-14443
Insert	-14444
▁pylab	-14445
▁расшир	-14446
Duration	-14447
Static	-14448
еры	-14449
generated	-14450
abb	-14451
▁HTTPNotFound	-14452
authentication	-14453
▁uc	-14454
redis	-14455
▁благодар	-14456
▁Couldn	-14457
▁проще	-14458
▁SESSION	-14459
▁Progress	-14460
ious	-14461
▁значит	-14462
passed	-14463
▁seqs	-14464
snapshots	-14465
▁assertNum	-14466
readable	-14467
▁номер	-14468
▁hc	-14469
cohort	-14470
▁TASK	-14471
▁\033	-14472
▁QIcon	-14473
courses	-14474
▁padded	-14475
▁"127.0.0.1	-14476
▁ак	-14477
chi	-14478
▁feconf	-14479
▁gfile	-14480
▁Waiting	-14481
▁hm	-14482
'.	-14483
Boolean	-14484
▁компью	-14485
▁сказа	-14486
udnn	-14487
invoke	-14488
▁RandomState	-14489
▁кодиров	-14490
Polygon	-14491
▁nombre	-14492
▁restriction	-14493
ylabel	-14494
▁announce	-14495
▁incr	-14496
ira	-14497
▁:=	-14498
▁MULTI	-14499
quivalent	-14500
generation	-14501
▁библиотеку	-14502
▁ther	-14503
▁With	-14504
тия	-14505
utine	-14506
▁CURRENT	-14507
фици	-14508
▁ij	-14509
zon	-14510
▁exclusive	-14511
INIT	-14512
▁Metric	-14513
▁wik	-14514
extended	-14515
▁inds	-14516
tesian	-14517
▁utility	-14518
▁Util	-14519
Export	-14520
requires	-14521
ldap	-14522
▁наш	-14523
Contact	-14524
▁вос	-14525
▁Attemp	-14526
NUMBER	-14527
inted	-14528
▁spell	-14529
newlines	-14530
Operations	-14531
лки	-14532
▁категори	-14533
(0	-14534
REGEX	-14535
▁Ip	-14536
▁xr	-14537
ному	-14538
Entries	-14539
frag	-14540
▁substr	-14541
▁sequential	-14542
ste	-14543
2222	-14544
бую	-14545
▁GB	-14546
lets	-14547
▁xmlrpc	-14548
▁hos	-14549
▁Edge	-14550
candidates	-14551
▁LANGUAGE	-14552
дует	-14553
▁смыс	-14554
▁captcha	-14555
▁Буд	-14556
▁этому	-14557
▁navigate	-14558
▁formfield	-14559
▁las	-14560
▁запросы	-14561
▁Провер	-14562
▁Url	-14563
auge	-14564
▁Attach	-14565
▁defining	-14566
▁argsort	-14567
зировать	-14568
▁SUM	-14569
▁vp	-14570
▁plaintext	-14571
▁2048	-14572
▁20.0	-14573
={	-14574
fff	-14575
▁zz	-14576
FIELDS	-14577
▁массиве	-14578
▁Generator	-14579
▁warm	-14580
readed	-14581
▁opening	-14582
asing	-14583
▁deactivate	-14584
regexp	-14585
▁traverse	-14586
▁Однако	-14587
verification	-14588
▁директори	-14589
accum	-14590
▁ParseError	-14591
▁JavaScript	-14592
▁выбрать	-14593
111	-14594
CLI	-14595
▁eigen	-14596
RES	-14597
▁ndb	-14598
ternative	-14599
subprocess	-14600
====	-14601
django	-14602
archar	-14603
▁Cmd	-14604
IABLE	-14605
rient	-14606
▁letters	-14607
▁refund	-14608
▁yi	-14609
front	-14610
Unicode	-14611
Ready	-14612
▁53	-14613
▁eos	-14614
UNK	-14615
▁keypair	-14616
▁пробовал	-14617
feat	-14618
pref	-14619
▁intro	-14620
▁Driver	-14621
▁сохран	-14622
▁assertItems	-14623
ISH	-14624
▁неправи	-14625
▁thresholds	-14626
Jobs	-14627
UAL	-14628
▁объекты	-14629
RESPONSE	-14630
▁barcode	-14631
▁конце	-14632
▁raster	-14633
▁QQ	-14634
framework	-14635
▁()	-14636
▁defs	-14637
pixels	-14638
▁lesson	-14639
▁Authentication	-14640
▁bgp	-14641
▁выводится	-14642
▁der	-14643
▁guard	-14644
▁Dag	-14645
▁inference	-14646
uator	-14647
centers	-14648
formatted	-14649
рисо	-14650
▁первой	-14651
яс	-14652
▁cancelled	-14653
▁ему	-14654
рга	-14655
▁мину	-14656
▁Sales	-14657
ktop	-14658
▁ошибок	-14659
▁следующим	-14660
etime	-14661
▁TOP	-14662
Chars	-14663
позитори	-14664
▁Incorrect	-14665
▁convertTo	-14666
▁apk	-14667
▁обно	-14668
▁unary	-14669
uberne	-14670
▁downgrade	-14671
attrib	-14672
displayed	-14673
▁содержимое	-14674
hover	-14675
▁ckpt	-14676
▁46	-14677
rights	-14678
codec	-14679
Structure	-14680
ubernetes	-14681
▁analyzer	-14682
pur	-14683
▁ProjectFactory	-14684
▁GPU	-14685
▁Direction	-14686
▁IntegerField	-14687
tcp	-14688
▁gpg	-14689
Repo	-14690
клад	-14691
combin	-14692
вают	-14693
▁emoji	-14694
▁getpid	-14695
▁preds	-14696
managed	-14697
▁packets	-14698
YLE	-14699
pci	-14700
otonic	-14701
Alignment	-14702
ский	-14703
▁специ	-14704
▁экрана	-14705
▁посмотреть	-14706
PLACE	-14707
interpol	-14708
WithCallback	-14709
▁JOB	-14710
LEASE	-14711
▁approved	-14712
rollback	-14713
Ipv	-14714
Owner	-14715
▁корректно	-14716
▁Level	-14717
▁quoted	-14718
▁configurations	-14719
:4	-14720
Clicked	-14721
▁covariance	-14722
▁patcher	-14723
▁72	-14724
▁себе	-14725
▁перем	-14726
▁PRIMARY	-14727
Kit	-14728
▁wl	-14729
isect	-14730
▁busy	-14731
▁expl	-14732
SCHEMA	-14733
▁предпо	-14734
ие	-14735
REE	-14736
▁MB	-14737
SHA	-14738
▁SMTP	-14739
▁anon	-14740
▁jac	-14741
▁allocated	-14742
▁OAuth	-14743
mdk	-14744
▁assessment	-14745
▁слово	-14746
benchmark	-14747
▁Comm	-14748
▁вызвать	-14749
▁venv	-14750
▁:)	-14751
▁instit	-14752
▁atleast	-14753
▁databases	-14754
later	-14755
▁})	-14756
▁scm	-14757
▁Та	-14758
need	-14759
теля	-14760
Readable	-14761
▁ein	-14762
▁кни	-14763
▁Right	-14764
есси	-14765
▁exposure	-14766
alic	-14767
liers	-14768
▁DESC	-14769
Fixed	-14770
▁builtins	-14771
▁Neutron	-14772
Dyn	-14773
▁над	-14774
prediction	-14775
Reply	-14776
argspec	-14777
▁VStruct	-14778
ulo	-14779
Hint	-14780
▁shor	-14781
Tables	-14782
▁SUPER	-14783
zation	-14784
▁commits	-14785
ORDER	-14786
▁hdfs	-14787
gies	-14788
▁angles	-14789
ARM	-14790
▁doctest	-14791
mute	-14792
▁ISO	-14793
▁LINK	-14794
▁So	-14795
▁получилось	-14796
igner	-14797
trast	-14798
ilk	-14799
Commit	-14800
▁lg	-14801
torrent	-14802
nic	-14803
xel	-14804
дап	-14805
▁Attr	-14806
▁гото	-14807
▁SCOPE	-14808
onomy	-14809
▁vk	-14810
infer	-14811
ggled	-14812
▁Adding	-14813
ёл	-14814
▁builds	-14815
▁слу	-14816
visibility	-14817
▁выполнить	-14818
udge	-14819
Allowed	-14820
▁fastq	-14821
▁PDF	-14822
▁1.4	-14823
▁futures	-14824
license	-14825
arb	-14826
▁goo	-14827
Sparse	-14828
▁recover	-14829
▁counters	-14830
Division	-14831
▁shif	-14832
▁думаю	-14833
Tracker	-14834
Connected	-14835
кое	-14836
SUCCESS	-14837
▁getText	-14838
▁таких	-14839
▁телефо	-14840
▁Dir	-14841
▁03	-14842
▁Retry	-14843
Cir	-14844
▁gh	-14845
▁га	-14846
SDK	-14847
▁бер	-14848
▁EL	-14849
▁guide	-14850
▁браузера	-14851
▁platforms	-14852
▁authenticated	-14853
▁facet	-14854
▁datas	-14855
▁Использу	-14856
▁FR	-14857
ект	-14858
craft	-14859
▁Вывод	-14860
charset	-14861
loads	-14862
Conv	-14863
▁firm	-14864
controls	-14865
▁truncated	-14866
lipse	-14867
Wrap	-14868
sentence	-14869
anno	-14870
▁nothing	-14871
▁Draft	-14872
▁substitute	-14873
зацию	-14874
▁pkey	-14875
tm	-14876
goal	-14877
▁spread	-14878
▁WEB	-14879
Public	-14880
PROPER	-14881
▁eggs	-14882
membership	-14883
▁сами	-14884
provision	-14885
▁Backup	-14886
▁numberOf	-14887
▁representation	-14888
▁Direct	-14889
▁ubuntu	-14890
▁обычно	-14891
▁headline	-14892
▁whole	-14893
▁ingress	-14894
▁другом	-14895
ят	-14896
▁associated	-14897
▁getProperty	-14898
diter	-14899
▁truth	-14900
Standard	-14901
▁режи	-14902
je	-14903
don	-14904
RIPT	-14905
▁говори	-14906
▁debugger	-14907
▁leaves	-14908
▁useFixture	-14909
MODEL	-14910
▁Handle	-14911
▁привя	-14912
ших	-14913
WRITE	-14914
▁прид	-14915
Raise	-14916
migrations	-14917
ший	-14918
/201	-14919
▁8.0	-14920
▁выбира	-14921
▁GLOBAL	-14922
pf	-14923
FIL	-14924
aur	-14925
Native	-14926
▁concrete	-14927
squared	-14928
▁Quantity	-14929
recipe	-14930
▁svntest	-14931
▁below	-14932
nake	-14933
tmpl	-14934
▁stype	-14935
resolved	-14936
Vol	-14937
arator	-14938
▁near	-14939
Threshold	-14940
▁artifacts	-14941
flows	-14942
чки	-14943
▁spike	-14944
▁runTest	-14945
▁пути	-14946
VOLUME	-14947
feedback	-14948
Later	-14949
vocation	-14950
нок	-14951
weighted	-14952
▁gran	-14953
sound	-14954
шите	-14955
loading	-14956
Face	-14957
ribs	-14958
▁Country	-14959
stand	-14960
▁jd	-14961
ifs	-14962
yes	-14963
▁поддержи	-14964
▁psy	-14965
GHT	-14966
▁ACCESS	-14967
▁QgsVector	-14968
ah	-14969
ваи	-14970
▁атрибу	-14971
CM	-14972
▁MEDIA	-14973
▁Соб	-14974
ин	-14975
дыду	-14976
OBJECT	-14977
▁grow	-14978
USH	-14979
=0	-14980
▁subparsers	-14981
▁Asset	-14982
▁mention	-14983
ModuleError	-14984
▁Two	-14985
▁sky	-14986
distances	-14987
dll	-14988
LACK	-14989
vidence	-14990
Configured	-14991
еди	-14992
cant	-14993
HW	-14994
▁rights	-14995
▁катало	-14996
istrator	-14997
▁sect	-14998
▁idl	-14999
▁конт	-15000
TC	-15001
▁MAP	-15002
▁bat	-15003
▁MODULE	-15004
possible	-15005
ualenv	-15006
▁2007	-15007
▁getInstance	-15008
▁lld	-15009
Members	-15010
RM	-15011
▁movies	-15012
▁affected	-15013
Wkt	-15014
▁ENABLE	-15015
▁dataframe	-15016
▁stc	-15017
stylesheet	-15018
▁свою	-15019
describe	-15020
рави	-15021
▁derived	-15022
flex	-15023
▁индекс	-15024
ibration	-15025
▁NameError	-15026
▁скрипта	-15027
▁OW	-15028
wid	-15029
▁meas	-15030
▁food	-15031
▁Switch	-15032
▁tearDownClass	-15033
▁Mongo	-15034
▁ef	-15035
Registration	-15036
.1/	-15037
gested	-15038
filesystem	-15039
▁кру	-15040
▁games	-15041
▁вся	-15042
▁00:00:00	-15043
ADATA	-15044
manent	-15045
▁gallery	-15046
▁protein	-15047
addrs	-15048
TCP	-15049
▁поиск	-15050
arms	-15051
DELETE	-15052
▁папке	-15053
1>	-15054
cendants	-15055
Utf	-15056
▁ddf	-15057
Props	-15058
TRIC	-15059
▁AES	-15060
▁'2011	-15061
▁qname	-15062
purchase	-15063
▁картинку	-15064
▁hh	-15065
▁based	-15066
▁память	-15067
▁dz	-15068
▁2)	-15069
▁assume	-15070
▁setChecked	-15071
''	-15072
▁POINTER	-15073
▁HAS	-15074
▁cpus	-15075
then	-15076
▁setProperty	-15077
iters	-15078
▁сортиров	-15079
▁пор	-15080
▁делает	-15081
Pressed	-15082
Cookie	-15083
жит	-15084
Forward	-15085
LU	-15086
▁место	-15087
anging	-15088
endpoints	-15089
authors	-15090
spark	-15091
Defaults	-15092
Functions	-15093
reports	-15094
digo	-15095
влении	-15096
▁arrayfunc	-15097
▁subtract	-15098
lee	-15099
▁prune	-15100
▁ndimage	-15101
credential	-15102
▁gas	-15103
шения	-15104
▁NoSuch	-15105
▁чт	-15106
▁elect	-15107
mal	-15108
figure	-15109
▁STATIC	-15110
▁EDIT	-15111
Buttons	-15112
▁discri	-15113
▁Drop	-15114
strict	-15115
▁немного	-15116
▁citation	-15117
▁recurse	-15118
▁похо	-15119
MARK	-15120
uler	-15121
▁indexed	-15122
deletion	-15123
rawtransaction	-15124
▁вызов	-15125
▁limited	-15126
▁ссы	-15127
▁postfix	-15128
eth	-15129
▁fv	-15130
▁hal	-15131
subnets	-15132
TestModel	-15133
SUP	-15134
▁morph	-15135
Direction	-15136
▁hdf	-15137
▁FILES	-15138
▁expressions	-15139
▁кроме	-15140
Watch	-15141
omaly	-15142
▁dists	-15143
rief	-15144
▁Style	-15145
anger	-15146
▁ami	-15147
▁assertHTML	-15148
▁0)	-15149
▁om	-15150
▁поч	-15151
requis	-15152
TICAL	-15153
▁others	-15154
▁rectangle	-15155
schemas	-15156
separ	-15157
▁LDAP	-15158
Second	-15159
Minimum	-15160
▁другого	-15161
ILL	-15162
опреде	-15163
fixtures	-15164
▁referer	-15165
▁итера	-15166
ima	-15167
▁computed	-15168
▁gam	-15169
▁3000	-15170
neutron	-15171
▁logdir	-15172
Particle	-15173
▁restricted	-15174
▁trakt	-15175
WE	-15176
lag	-15177
▁cnx	-15178
▁stripe	-15179
mpp	-15180
isto	-15181
▁updater	-15182
Linear	-15183
Catalog	-15184
reserved	-15185
▁signup	-15186
▁restrict	-15187
was	-15188
▁timing	-15189
▁символы	-15190
▁publication	-15191
exam	-15192
▁Stock	-15193
▁TOTAL	-15194
▁Sequential	-15195
▁gx	-15196
▁Properties	-15197
Abstract	-15198
▁возникает	-15199
▁getAll	-15200
▁Задача	-15201
▁обрабаты	-15202
лово	-15203
ractions	-15204
0000000	-15205
▁сохранить	-15206
▁написал	-15207
buffers	-15208
slide	-15209
inet	-15210
Activ	-15211
FLAG	-15212
Avatar	-15213
LEFT	-15214
▁QWidget	-15215
▁analytic	-15216
▁RIGHT	-15217
variants	-15218
▁существует	-15219
▁Successfully	-15220
▁comps	-15221
▁полей	-15222
▁Ин	-15223
▁внима	-15224
recon	-15225
▁aiohttp	-15226
▁well	-15227
▁адми	-15228
▁ссылке	-15229
▁менять	-15230
Now	-15231
Metrics	-15232
▁userdata	-15233
Percent	-15234
rams	-15235
asked	-15236
but	-15237
▁ou	-15238
println	-15239
▁FIN	-15240
жда	-15241
▁алгоритм	-15242
vpn	-15243
Radius	-15244
▁ROLE	-15245
▁Airflow	-15246
Annotation	-15247
▁protocols	-15248
▁хранить	-15249
Acc	-15250
▁sampler	-15251
▁vf	-15252
▁SAMPLE	-15253
libvirt	-15254
▁linesep	-15255
Signature	-15256
fficient	-15257
▁Signature	-15258
gines	-15259
▁100.	-15260
▁Nova	-15261
▁sip	-15262
Mult	-15263
representation	-15264
▁POL	-15265
▁subdomain	-15266
-14	-15267
пас	-15268
Distribution	-15269
ente	-15270
umbs	-15271
():	-15272
лли	-15273
▁BaseException	-15274
▁Errors	-15275
.25	-15276
▁примера	-15277
AMETER	-15278
▁timestamps	-15279
PK	-15280
players	-15281
▁относи	-15282
если	-15283
▁NUMBER	-15284
terministic	-15285
dashboard	-15286
▁ClientError	-15287
curr	-15288
▁фото	-15289
▁ран	-15290
vertical	-15291
▁ASS	-15292
▁WITH	-15293
SCRIPT	-15294
▁TMessageType	-15295
▁EPS	-15296
вайте	-15297
COND	-15298
igure	-15299
▁обяза	-15300
▁нужна	-15301
listing	-15302
▁gi	-15303
alogs	-15304
ServiceClient	-15305
uck	-15306
▁dfs	-15307
FIN	-15308
▁attname	-15309
FILENAME	-15310
▁Provider	-15311
▁levelname	-15312
nl	-15313
▁About	-15314
▁dont	-15315
▁свои	-15316
shop	-15317
Camera	-15318
▁IGNORECASE	-15319
cident	-15320
Car	-15321
pubkey	-15322
▁EXISTS	-15323
▁proposed	-15324
▁PROTOCOL	-15325
▁iqn	-15326
consistent	-15327
character	-15328
▁relations	-15329
512	-15330
▁pyplot	-15331
OUTPUT	-15332
▁сложно	-15333
▁rejected	-15334
▁вход	-15335
▁соедин	-15336
encryption	-15337
accuracy	-15338
▁rvs	-15339
▁разме	-15340
El	-15341
Ins	-15342
▁цве	-15343
▁полностью	-15344
iprot	-15345
▁conversation	-15346
fy	-15347
▁модель	-15348
▁gcs	-15349
▁qa	-15350
▁CODE	-15351
▁ONE	-15352
Execute	-15353
▁Builder	-15354
▁репозитори	-15355
basename	-15356
▁blocksize	-15357
ACTIVE	-15358
▁pep	-15359
SPEC	-15360
listeners	-15361
iq	-15362
▁Math	-15363
▁psdf	-15364
wallet	-15365
shuffle	-15366
Accessor	-15367
▁GRA	-15368
▁ostream	-15369
▁onchange	-15370
▁предыду	-15371
▁xsd	-15372
Optimizer	-15373
Cla	-15374
▁решил	-15375
▁outgoing	-15376
▁bk	-15377
acher	-15378
▁writeString	-15379
else	-15380
▁trees	-15381
▁dmp	-15382
▁fmap	-15383
▁weapon	-15384
▁TensorShape	-15385
UMENT	-15386
Constant	-15387
AML	-15388
basis	-15389
▁SCRIPT	-15390
▁ctr	-15391
▁бд	-15392
▁getType	-15393
лове	-15394
▁ramdisk	-15395
▁REST	-15396
▁mse	-15397
▁DD	-15398
directories	-15399
▁WINDOW	-15400
blocking	-15401
▁повто	-15402
▁mnt	-15403
▁forced	-15404
▁magnitude	-15405
ulations	-15406
▁иска	-15407
▁testuser	-15408
▁myid	-15409
Indices	-15410
masks	-15411
getattribute	-15412
▁ia	-15413
▁доб	-15414
▁PACK	-15415
▁contest	-15416
▁события	-15417
▁Conf	-15418
xlabel	-15419
ados	-15420
collector	-15421
▁TTransport	-15422
odata	-15423
▁Fact	-15424
Records	-15425
▁Overflow	-15426
▁simulate	-15427
▁contributors	-15428
legend	-15429
ulative	-15430
▁conference	-15431
dataframe	-15432
▁Commit	-15433
▁вывода	-15434
жем	-15435
Include	-15436
345	-15437
initi	-15438
sf	-15439
▁argstr	-15440
▁BA	-15441
upted	-15442
ivo	-15443
Ops	-15444
▁mozilla	-15445
classifier	-15446
(0,	-15447
spin	-15448
....	-15449
▁BIN	-15450
mos	-15451
aware	-15452
guard	-15453
AUT	-15454
solver	-15455
ToolTip	-15456
RUN	-15457
▁setVisible	-15458
▁vin	-15459
▁множест	-15460
▁PID	-15461
Diag	-15462
▁apikey	-15463
▁Попробуйте	-15464
oggle	-15465
additional	-15466
beam	-15467
▁Click	-15468
▁Review	-15469
ctr	-15470
▁queued	-15471
▁detailed	-15472
SV	-15473
нное	-15474
▁тай	-15475
Measure	-15476
▁analytics	-15477
▁adv	-15478
ACCESS	-15479
idi	-15480
▁instantiate	-15481
CEPTION	-15482
▁Refresh	-15483
▁placement	-15484
ipment	-15485
letters	-15486
clide	-15487
.5'	-15488
▁следующее	-15489
▁setCurrentIndex	-15490
Dim	-15491
PPING	-15492
чных	-15493
▁Cl	-15494
щения	-15495
▁zk	-15496
▁recall	-15497
▁Rot	-15498
Relation	-15499
▁Issue	-15500
▁Получа	-15501
▁zs	-15502
Platform	-15503
▁классов	-15504
▁устанавли	-15505
(1	-15506
supp	-15507
ood	-15508
▁esc	-15509
▁gaussian	-15510
▁первом	-15511
quiv	-15512
▁MetaData	-15513
ргани	-15514
vd	-15515
▁tq	-15516
▁ddof	-15517
▁propagate	-15518
▁shrink	-15519
dup	-15520
ANY	-15521
▁eager	-15522
▁Cisco	-15523
PROJECT	-15524
mostat	-15525
▁Impro	-15526
pended	-15527
▁каким	-15528
бора	-15529
▁туда	-15530
minder	-15531
relations	-15532
▁нам	-15533
▁drawing	-15534
=1	-15535
▁wi	-15536
▁Sta	-15537
▁eid	-15538
▁cumsum	-15539
▁adding	-15540
Dump	-15541
quad	-15542
interp	-15543
udflare	-15544
ALSE	-15545
сить	-15546
omo	-15547
▁opens	-15548
due	-15549
Material	-15550
MON	-15551
continue	-15552
:30	-15553
00:00:00	-15554
▁аргумен	-15555
▁certificates	-15556
ложить	-15557
▁deltas	-15558
▁nid	-15559
txn	-15560
drag	-15561
▁scratch	-15562
▁digital	-15563
▁handles	-15564
pment	-15565
▁collapse	-15566
▁TestAction	-15567
▁writing	-15568
Surface	-15569
▁osv	-15570
▁начала	-15571
NotImplemented	-15572
▁SL	-15573
Chart	-15574
шой	-15575
prefs	-15576
cannot	-15577
manual	-15578
upy	-15579
▁manufacturer	-15580
▁defaultValue	-15581
OCK	-15582
hib	-15583
desktop	-15584
▁tableName	-15585
efs	-15586
▁7.	-15587
embeddings	-15588
▁использованием	-15589
uge	-15590
▁Repo	-15591
▁phy	-15592
tok	-15593
▁eli	-15594
▁owners	-15595
800	-15596
vend	-15597
▁срабатывает	-15598
.0.2	-15599
дитель	-15600
RIGHT	-15601
▁Ra	-15602
flux	-15603
compiled	-15604
▁transports	-15605
ansion	-15606
боль	-15607
EK	-15608
Band	-15609
reward	-15610
▁век	-15611
▁Xml	-15612
▁уви	-15613
▁назы	-15614
Raster	-15615
TestData	-15616
▁парси	-15617
uppet	-15618
▁escaped	-15619
▁gis	-15620
Verify	-15621
▁bel	-15622
pective	-15623
Brush	-15624
▁paid	-15625
Serialized	-15626
▁прост	-15627
▁fetched	-15628
CLUDE	-15629
▁consts	-15630
▁netaddr	-15631
LW	-15632
▁mong	-15633
▁shlex	-15634
▁frm	-15635
chors	-15636
minor	-15637
liation	-15638
▁assertSequence	-15639
▁отображается	-15640
ulls	-15641
▁centers	-15642
Bounds	-15643
vv	-15644
▁vnc	-15645
▁newname	-15646
▁ylim	-15647
▁му	-15648
TypeError	-15649
stick	-15650
Classes	-15651
Clip	-15652
▁denied	-15653
▁активи	-15654
replicas	-15655
outcome	-15656
▁пользователей	-15657
▁chainer	-15658
RD	-15659
witness	-15660
▁Добрый	-15661
▁vul	-15662
▁nose	-15663
▁tkinter	-15664
▁floatingip	-15665
▁pet	-15666
пре	-15667
bw	-15668
▁corner	-15669
wsgi	-15670
▁Username	-15671
Fake	-15672
▁issuer	-15673
instrument	-15674
кла	-15675
▁VirtualMachine	-15676
▁sku	-15677
▁Scope	-15678
▁octet	-15679
Graphics	-15680
obot	-15681
▁Sync	-15682
▁fully	-15683
rogate	-15684
▁AnsibleModule	-15685
▁finditer	-15686
deferred	-15687
▁getting	-15688
cobian	-15689
▁getData	-15690
_10	-15691
▁2001	-15692
▁these	-15693
detection	-15694
наче	-15695
▁Inst	-15696
dience	-15697
Unknown	-15698
▁outside	-15699
▁she	-15700
▁матри	-15701
▁0.0000	-15702
▁Formatter	-15703
▁pct	-15704
DynClass	-15705
▁YANGDynClass	-15706
exer	-15707
delivery	-15708
▁hierarchy	-15709
▁'7	-15710
▁react	-15711
PN	-15712
Plugins	-15713
namespaces	-15714
рин	-15715
filled	-15716
probe	-15717
atellite	-15718
▁analyse	-15719
xi	-15720
▁localize	-15721
▁tom	-15722
▁Router	-15723
pets	-15724
▁Offset	-15725
▁listeners	-15726
▁contexts	-15727
datasets	-15728
owners	-15729
▁iterate	-15730
влять	-15731
mium	-15732
▁1:	-15733
▁subj	-15734
рот	-15735
▁OPT	-15736
▁toy	-15737
нным	-15738
▁ljust	-15739
400	-15740
▁raid	-15741
VO	-15742
▁Structure	-15743
▁scrapertools	-15744
vid	-15745
▁Indexed	-15746
It	-15747
▁pkl	-15748
▁comma	-15749
Devices	-15750
▁TRUE	-15751
shares	-15752
INTERVAL	-15753
▁yt	-15754
mol	-15755
mpeg	-15756
Methods	-15757
rng	-15758
▁qn	-15759
▁ends	-15760
▁mutation	-15761
▁reviewer	-15762
▁mktime	-15763
▁изменя	-15764
▁ipa	-15765
▁zi	-15766
▁keyfile	-15767
anza	-15768
FILTER	-15769
▁Bool	-15770
[...]
